00000000000000000000000000000000000000000000000000000000000000000000000000000000000000000000000000000000000000000000000000000000
00000000000000000000000000000000000000000000000000000000000000000000000000000000000000000000000000000000000000000000000000000000
00000000000000000000000000000000000000000000000000000000000000000000000000000000000000000000000000000000000000000000000000000000
00000000000000000000000000000000000000000000000000000000000000000000000000000000000000000000000000000000000000000000000000000000
00000000000000000000000000000000000000000000000000000000000000000000000000000000000000000000000000000000000000000000000000000000
00000000000000000000000000000000000000000000000000000000000000000000000000000000000000000000000000000000000000000000000000000000
00000000000000000000000000000000000000000000000000000000000000000000000000000000000000000000000000000000000000000000000000000000
00000000000000000000000000000000000000000000000000000000000000000000000000000000000000000000000000000000000000000000000000000000
00000000000000000000000000000000000000000000000000000000000000000000000000000000000000000000000000000000000000000000000000000000
00000000000000000000000000000000000000000000000000000000000000000000000000000000000000000000000000000000000000000000000000000000
00000000000000000000000000000000000000000000000000000000000000000000000000000000000000000000000000000000000000000000000000000000
00000000000000000000000000000000000000000000000000000000000000000000000000000000000000000000000000000000000000000000000000000000
00000000000000000000000000000000000000000000000000000000000000000000000000000000000000000000000000000000000000000000000000000000
000000000000000000000000000000000000000000000000000000000000000000000000000000000000FF000000000000000000000000000000000000000000
00000000000000000000000000000000000000000000000000000000000000000000000000000000000000000000000000000000000000000000000000000000
00000000000000000000000000000000000000000000000000000000000000000000000000000000000000000000000000000000000000000000000000000000
00000000000000000000000000000000000000000000000000000000000000000000000000000000000000000000000000000000000000000000000000000000
00000000000000000000000000000000000000000000000000000000000000000000000000000000000000000000000000000000000000000000000000000000
00000000000000000000000000000000000000000000000000000000000000000000000000000000000000000000000000000000000000000000000000000000
00000000000000000000000000000000000000000000000000000000000000000000000000000000000000000000000000000000000000000000000000000000
00000000000000000000000000000000000000000000000000000000000000000000000000000000000000000000000000000000000000000000000000000000
00000000000000000000000000000000000000000000000000000000000000000000000000000000000000000000000000000000000000000000000000000000
00000000000000000000000000000000000000000000000000000000000000000000000000000000000000000000000000000000000000000000000000000000
00000000000000000000000000000000000000000000000000000000000000000000000000000000000000000000000000000000000000000000000000000000
00000000000000000000000000000000000000000000000000000000000000000000000000000000000000000000000000000000000000000000000000000000
00000000000000000000000000000000000000000000000000000000000000000000000000000000000000000000000000000000000000000000000000000000
00000000000000000000000000000000000000000000000000000000000000000000000000000000000000000000000000000000000000000000000000000000
00000000000000000000000000000000000000000000000000000000000000000000000000000000000000000000000000000000000000000000000000000000
00000000000000000000000000000000000000000000000000000000000000000000000000000000000000000000000000000000000000000000000000000000
00000000000000000000000000000000000000000000000000000000000000000000000000000000000000000000000000000000000000000000000000000000
00000000000000000000000000000000000000000000000000000000000000000000000000000000000000000000000000000000000000000000000000000000
00000000000000000000000000000000000000000000000000000000000000000000000000000000000000000000000000000000000000000000000000000000
00000000000000000000000000000000000000000000000000000000000000000000000000000000000000000000000000000000000000000000000000000000
00000000000000000000000000000000000000000000000000000000000000000000000000000000000000000000000000000000000000000000000000000000
000000FF00FF000000FF0000FF0000000001FE00000000000000FE0100000000FD000000FF0000000000FFFF00010000000000FF00FF0000FFFF00000000FF00
000000FE00FD000000FF0000FE0000FF0002FB00000100000000FA0201000000FA000100FD0001000100FEFD00020000000000FE00FF0000FEFEFF00FF00FC00
000000FE00FC000000FE0000000000FF0003F900000100000000FA0201000000F9000100FC000301010000FD00030000FF0100FD00FE0000FDFEFF000000FC00
0000000000FF000000000000000000000001FF00000000000000FF0100000000FF000000000000000000000000010000000000FF00000000FF0000000000FF00
0000000000FFFF0000FF0000FF0000000001FF00000000FF00FFFE0101010000FF0001000000000000FFFF0000010000000100FF00000000FFFF00000100FF00
000000FFFFFEFE00FEFF0101FEFF00010004FF000000FFFF00FEFD0302010000FE0002000000010000FEFEFF00020000000102FEFFFF0000FDFFFF000000FF00
010001FEFDFCFE02FDFE0102FDFE00010007FD000000FF0000FEFA0503010100FBFF03FF0000020000FDF7FE0004FFFF000106FCFFFDFF00FAFEFD00FFFFFB01
000000FFFFFEFF01FFFF0101FFFF00010003FE000000000000FFFD0301010000FE0001000000010000FEFDFF010200FF000001FF00FF0000FDFFFF000000FE01
0000050100010004FF0000FF00FE000101FFFF0001FF00FFFFFF00FFFE0100FE020101030000000101FD040303FE010200FF00010102010001FFFFFF01FF0201
FE0007FDFEFE0205FCFD0000FEFBFFFC0003FC0001FEFB00FFFEFA01FFFE0403FBFC02010000000100FBFDFF020401FFFFFC06FE01FD0401FCFCF9FFFBFAFF01
0100F6FCFBFE0202FE02FF02FE0201F9FF03F90100FFF601FFFCF90004FC0707FBF9FD00FF0103FFFE00FAFE030A00F500FC09FDFBFB0903FEFBFC00F8FE0202
0000FEFEFDFE0101FDFF0001FE0000FEFE05FB0000FEFC00FFFDFA0204000303FCFD0100000001FFFEFEFAFF0105FFFB00FF07FEFEFD0300FCFCFD00FDFFFF01
000005FF00FC0000FFFD000000FF00010003FF0000010000FFFFFC030202FF00FA0103000000010000FFFE00FE010000000102FE00FF0000FD00FF000000FC01
000007FE00FB0001FFFC0001FEFE00000004FE0000010000FEFFF90402020000F80103FF0000030101FCF9FFFD030000000201FD00FE0000FC00FF0000FFFA01
000003FF00FE0000FFFE0001FEFE00010003FF00FF01FF00FFFFFB0302020000FB0102FF0000010000FDFC00FE020001000101FE00FFFE00FDFFFF000100FD00
000001FFFFFE0000FFFE0000FE0000010002FE000000FE0000FFFE020101FF01FD0102000000000000FFFE00FF010001000100FFFFFFFF00FEFFFF000100FE00
000000FFFEFE0000FFFF0000FF0000010001FE000000FE0000FFFE0101010001FE000100000000000000FE00FF010000000100FFFFFF0000FFFFFF000100FE00
000000000000000000000000000000000000000000000000000000000000000000000000000000000000FF000000000000000000000000000000000000000000
00000000000000000000000000000000000000000000000000000000000000000000000000000000000000000000000000000000000000000000000000000000
00000000000000000000000000000000000000000000000000000000000000000000000000000000000000000000000000000000000000000000000000000000
00000000000000000000000000000000000000000000000000000000000000000000000000000000000000000000000000000000000000000000000000000000
00000000000000000000000000000000000000000000000000000000000000000000000000000000000000000000000000000000000000000000000000000000
00000000000000000000000000000000000000000000000000000000000000000000000000000000000000000000000000000000000000000000000000000000
00000000000000000000000000000000000000000000000000000000000000000000000000000000000000000000000000000000000000000000000000000000
00000000000000000000000000000000000000000000000000000000000000000000000000000000000000000000000000000000000000000000000000000000
000000000000000000000000000000000000FF00000000000000FF000000000000FF000000000100000000000000000000000100000000000000000000000000
00000000000000000000000000000000000000000000000000000000000000000000000000000000000000000000000000000000000000000000000000000000
00000000000000000000000000000000000000000000000000000000000000000000000000000000000000000000000000000000000000000000000000000000
000000FF00FE000000FFFF00000000000001FE00000100000000FD0100000000FC000100FF000000000000FF00010000000100FE00000000FFFF00000000FE00
000000FC00F8FE00FFFBFE01FDFF00FF0007F60000030000FFFEF60502020000F2000400FA00010202FFFDFB00060000000401F900FE0000FBFCFE0000FFF901
FF0000FB00F5FDFCFEFAFC02FD0000FF0008F6FF0105000001FEF20603030201F00105FDF70106030201FEF900080101FF0702F6FFFD0002FAFBFF01FFFFF901
00FFF6FD01F8FDF502FDFC03FD0300FD0203F8FF0207FF020300F70400030502FC0003FAFA02040502FFFFFDFF0804FFFD0705F6FEFE0205FEFD0100FD00FEFF
0100F3F901F5F9F902FAFD04F702FFFB0307F000000BF80402FFEC0A03060800FB0204FAF7FD080805F7F7F9FD0F02FEF80A05F2FCFAFF06F6FBFE020100F802
0200EBF901F4F9FB01F8FB06F80000FD030AF201FD0CFBFDFF01F00C090A08FFF20604F7FDFE0A0B02F8F8FBFB0FFE02FC0F05F1FAFB0207FAFDFE050501F806
04FDEAF5FFF2F6FEFFFBF70AF6FF03FC0809ED01000DFAFE03F9EA10070B0902EC0A0CFBF6FE0B0B03FBF1F4FA0E0501FA0D08EFFBF70108F1F9F90500FDF706
02FEE6F900F1F60DFBFBF408F5F5FDFC0B02EBFC050AF7FA06EBEF02F9080E05F90B0A0FF100FE0F0AFBF4FCFD0707FFF50302F204F8010BF0F8ECFF06F1F601
0502E5F800F5F50EFEFCF40DF5FDFEFD0CFFEEFD020DF4F4FCF1F205FD0D0F05FD110A16F205000E09F5F502FB0A00FFF50E03EF03F50307F1FCF30207FBF8FF
FE08F4F3FDEBF81CF9F6F509F6F2FEFA0B02F3FD0A0BF9FCF3F1F408F3091007F40F0E19FA01FA110CF9F300F5010405F40800ED03F30705F0FCEB0000FAEF02
FE03EEF1FAEDF81A00F3F703FDF6FEF40301F5000E08F408F5F4FD08FC060F08F3050810FD08000D0100F0F9F2060BF9F80509ECFCF505FDF404EF01FAFCEF08
FD03FBF4F8EEEF0F02F5FC02FAFC01FCFE0801040903EF03F6FA010A04030806F40A0100FF0007040005F2FFF90502F2FB0A0BEEF6F8FFFCFF00FF04F404F50A
FA0807F6F6F4F20EFEF3FD03F70003FCF80D02090706F2FDF4FB020902010005FA0805F201FF08FF0205F2FDF90401F7FE090DEDFBFCF3FCFBF70203F801F309
FE0A13FDFDF3F80AF7F0FE01F2F9FB04F80FFF010501FAF8F7FDFA080508FF00F9070AFA05010100FFF9F3FFF900FDFF010B0DF3FCFEF1FBF2F8F90201FCF208
000607FEF9F6FE04FFFAFE06FDFCFC09FF0800010005FDFEF9FEF9080407FF02FF060BFE03FD0008FEFAEEFFF906FB03FF070AF7FFFCFBFFF7FEFC010300F104
02010AFFFAF7FF0001FD0008FFFDFD080008FC01FE06FDFDFCFFF9090408000202060B0100FB020700FCEF00F908FA04FE0607F9FFFCFD00FA00FC010202F303
020008FFFDF90000FFFD0005FEFDFE050007FB00FE04FCFCFEFEF9080305FF02FE04050200FD010400FCF600FB05FD02FF0404FCFFFFFF00FBFFFD000301F702
000004FFFFFD000000FE0002FF0000010003FD000001FFFFFFFFFB0301020001FE0102000000010100FFF9FFFE030000000203FD00FF0000FEFFFF000000FB01
0000FE0000000100000000000000000000FF000000000000000100000000000000000000000000000000FF000001000000000100000000000000000000000000
0000FF00000000000000000000000000000000000000000000000000000000000000000000000000000000000000000000000000000000000000000000000000
00000000000000000000000000000000000000000000000000000000000000000000000000000000000000000000000000000000000000000000000000000000
00000000000000000000000000000000000000000000000000000000000000000000000000000000000000000000000000000000000000000000000000000000
00000000000000000000000000000000000000000000000000000000000000000000000000000000000000000000000000000000000000000000000000000000
00000000000000000000000000000000000000000000000000000000000000000000000000000000000000000000000000000000000000000000000000000000
00000000000000000000000000000000000000000000000000000000000000000000000000000000000000000000000000000000000000000000000000000000
0000000000000001FF000100FF0000000001FE0000FF000000FFFE0001FF0001FEFE000000000200FFFFFFFF0001000000FF030000000000FF00FF00FFFF0000
FF00030000FE000100FD00FEFD0100FEFF03FF0102FF0000FF00FD0001FE0000F901FFFF000101FF0001000200000100000302FD0000FEFF0000010202FF0001
FF01FF0000FE03FD01FCF9FD00FD0101FBFEFE000307FF000101FDFF050100FBFEFF00FB010401060100FEFFFFFF02020003FF00000002FD000203050001FFFE
FE01FFFB00F602FFFFF6F7FFFFFD01FEFB03F50004090001FFFFF501070401FAF40005FAFF0500070301FBFCFD030403010601FA00FD01FDFC00000500FFF8FF
FDFEFFF5FFF307FDFBF3F5FDFAFB00FDF802EB01060CFF030201EAFE0A0602F4F40207F8F808040A0504F3FBFB020A03FF08FEF5FEF905FEFAFF010A01FEFAFD
FDFBEFECF2EC05FBFAF5F5FFF005FBF9F707E0020A11F3010602E3010CFE09F8F1020AF0F40C0E0F02FDE3F4F70C1307FA0904F4FAF40507F2F7FE0BFEFCFCFC
02F9DEEBF6EC03F607F8FA05F30DFEF00306DC040B0EF10707F9DD0901FE1100F80608F1E9060B1103F6E2EDF5111200F011FFEBF7F40506F5FAFD0401FAFA02
0400E2EFF3EAFCFB00FAF802F30EF1FEFA00DB0B0713E7030CF8E104080402FD060105E9EF0B100FF9FAE6EDEE0A0A0AEE11FEEFF5F60405F4FD030908FCFA08
1001D9EDEAF1FBFA00F8F403F40DEC02F402DB100415E4F60DF8E709170303F1060103E6EF131910EAFDECEAE70F0C03F213FDFDF1F30E07F40003100C01FD05
0306D3EDEAE9FF12F7F6EBFBE90AF5F7FDFDDB151414E2FA0FF5E3020CFE07F5F70008F8F3181711F3FEEEF0E8081B0CF80E02F7FDEE0F0EE700FA0E01F0FD03
0A0AC7E5E6E5F31CF6F7E80CEA02F6EB0808D618160BD4EF0FE6D60107050EFE00060417E60F120DFEFCDDEDEE0D15FCF00C05F0FCE11112EAFDEB04F9E9F2FE
0B0AD5E9D5F0E21DF407E70BE8FFEAFBFE04DC12020CC2E20EEBE805100F01F6080C041CE30E100AF706E5F7E8030FFDF2100500FDE9080BEFFEF014FCF6EBFF
FC18D5E7D1F0DD29EEF9ECFEE9FCEFF4F906E9120A09BEE503F2ED0B0F05F9EB09FF0417F8150E13FD0CE6F3F0FF0F04F20B04FF00E60204EFF8F111F8EFEDFF
050CDFE8E2EADA24FA00E501E9FCECF10000EB190E04C8EB06F1F7091102FBF714FD0121F4120F16FD0BF2EEEB060C05EE0302FE04F0FB05F305F308F5F7F0FE
FE01FBF2E6F3D51DF1FAF1F7E5F6E8F2FA0EFB180D06CCEC04FA040B0DFCF4F80DF9FE0CFC09120AF917FBEFFAFDFF05E9FF08FB01FCF8F6FAFCF907F5FEF106
F1080BECE7EFCF15F4F6E201E2F8FBF7F00E021E1106CFF7F3000B081403E8F506F8FDF5FAFE1C05FC1BFDF8ED00F509FA0212FBFEFDFAECF5FF0910FCFCED0F
F70615EDEEEDDD0AF5EAE8F7E305FAF6F60F080E0806DEFFF4FF0504130BEEF4F70106EFFEFE0D040110F506EBFDF708F90D0FEFF7FEEDEEF1F908150701F10F
EE0418FAF9F7EF0AF6EDF3F1F0F8FDFAEF0D020706FAEC06FBFD06011EFDF6E9FA0401F0FA0406FFF80FF70AF8FDF70EFA050BFAF706EFEBF0F70E1A0FFDF011
F4021DFFEEFBF201FCF5FBFDF3FE0800ED190203FE06EFFCF1FC04100D09F9FEF60F0CF8F9F905FBF507FB10F5FEF10EFB110AF2F502F5F102F90E0F0E07F115
F9FB0C03F9F7F8FB00FFFA08FAF60905FA130404F604F703F0FEFA10050CFF08FD0E0DFBF4F70200FA06F705FB02F306FF0F06F2FA02FCF808010B060C09F60D
FDFE0DFEF6F4FDFEFFFD0005FDF40104FF0F0403F80AFC06F2FFF413000AFA06020C0D00FCFA020800FDEAFBF603F80AFF090AF701FE01FE04FF06020806F003
000503FFF5FB000500FF0402FCFB01FD01040101FB05FD08FA01FA060008FF010206030003FC020500FAEFFDF801FD03FB0404FC0101FEFF01FF01010102FB02
FD000000FF00010400FF03FDFF0306FCFE00000103FDFE06000000FF01FFFFFFFE00FDFF000101FC0002020002FE00FFFF00FF010001FF000100030101000101
FF000100FE0000010000010000010101FF010000FF00FDFF0000000202020000FF0100FF000001FF00FFFF00FF0000FFFF010100FF00FE000000010000010001
00000000000000000000000000000000000000000000000000000000000000000000000000000000000000000000000000000000000000000000000000000000
00000000000000000000000000000000000000000000000000000000000000000000000000000000000000000000000000000000000000000000000000000000
00000000000000000000000000000000000000000000000000000000000000000000000000000000000000000000000000000000000000000000000000000000
00000000010001000000000000000000000000000000010000000000000000000000000000000000000000000000000000000000000001000000000000000000
000200000000000000000000FF000000FF000000010000000000000001000000FF00000001010000FF0000010000010001000001000000FF0000000100000000
00040000FFFD02FEFFFE0000FFFD0001FE0101010103FF0002FFFD000501FEFFFC0101FF0201010302FFFE00FF0101040103020001FF01FFFF01000202FFFEFF
FF0404FCFBF50CFCFDFAF3FD00F8FC08F8F3F9FE0612FBFE0906F7F10D0700F1FEFCFFFAFF0A001506FEF4F8FA04090DFF040203FDFC02FEF80EFC09F6FEF5F0
000901F1FFF30BFA02F8F6FCFE060003F4F2ECFB0714FF010F0CF0EE0B0407F003F902F6041100160807ECF7F5091406FEFFFCFCFDF40100F812F908F3FCFBEA
0301F5F2F8F507FC03FEF905FD09FEF9F8FAE7FE061300FC0D07ECEF05FF09ED0E0101F5F7100010030AE501F50A19FCFD09F9F6F3F1FE09FA10010AF9FE01EF
FF01DCEAF2EE14F804FBE906F302FCFBEFFAE0080F1A00FA1101E8F709F606E809F701F4F5160D1C09FED9F3F20B1B06F10BF40001E81003FA0BFC0AF9FBF9E9
0300CEE5E6EF0D040602E004F70DFBF9F305D817160EF5F61EF5DCFA03F115F219FAFDF8F2171314FFF4CFF6EF0A1F05EF0BF7F4FBE31203FF09010702F7FBF4
FF0ACCE8E0ED0D04FFFEDBF8F907F1F8EF03DA151C16EEF11BECDE0108F10DED0CFEFAF7FB1A130BF4F9D5FEE5FF2204FB0AF700F7E71302FB05011006F2FBF4
0014D0EFE7F20C0B0505ECF6FA0AEBF4F9FCEA1F160EE8EF1AE8E1060CF301F40705F9FBF6250B02F103E303F00923F7FE00F6FAFEEF1D0807060A0A0EF605FD
FD07D8F3F2F80A06F90AE106050AF1F5FDFEEA161B18E9F914E4E80804F400F9FF0A000EFD21020AF3FEEB08F0FD2909FF0DF30400F2210B01090B0F11F701F0
030DDAFEEE000D1CF50FEA0A0306F3FAFC05ED0E110AECEC11D6E707FDF607F60501FB21FE1AFB0AF105E2FBE903200BFE03FC0008F31F050203F80A14F2F9F0
FB06E5F2DD06F918F115EC05FA0705F5080DE31D1112D7F00ED4EA05FDEEFDF8FF03001A041CF600F009E3F4F2F62400FD04FA050DED1504FA0204FE08F3FDF6
0016E8ECEC0AE628EC0BEBF8FBFA04EE0211E4211C07D3E708DAEF0804F7FB04FFFCFE12021BF9FEEE0FE5FDF4F11E05FDFDF601FFEA1309FBF1070802F5FD01
FCFFE8EBF6F4DE0DE70BDEFF05F705FD010FEC24120AE0E907E5FB0B0BF7EF0413F30611FF1E0600F01EDDF8F5F8130EFE00F40609F005F5FAF40C0BFEF2F503
0BF1EEFAF100D509F50EF605FD0101FE1114FC1B1305EEF10EF500040503EF100FFDFEFD02120C08EE19F0F7F4FC13FBFEFCFB00FCF9F5FB00F2090D03030102
00FBFFFDEBF8DC0AF0FDF303F30A02F6060D0A1F110AF0F40DF60C0413FDF6090FF0F7FA0F161105E61EF0FFF0FC0CFD0601FFF6F9FDFDF501F50C0EFFFEFB05
F6000EFEFBF5DC00F0FDF101F70006F40A130513080CF8FE00F10C090904FB02110201FF040B0805F218E80FE9FB0012FD0B03FAFBF5F6F7F3F70A0B09F9F505
FBEE1008FCFDE700FDFBF906FEFE09FE100F040B0703EB03F3EEFF0F0B0DFC0C170C0FFDFF0AFF0BED0EE010F0F4F615FB0705F6F4FBF7F9FDF9060E0F07F40A
F607140C0401E30EF3FCF9F9F2F50800FD15080501FDF001F0F502131307F8030F100E0003FCFEFFF30CE10FEFF5F317031101FBF30CE8F106EF10141501F10C
F7091909F8F8E50CF5F703FEFCF90E0BFB18FF02FEFEF802F3F6070D190BFCFE0E1B0803FCFA03F8F401DD06F3F2EC18FF0D05F6F402EAED09F20812180AF312
F6072307F1F3F106FAEF02FFF4050B05F81509FEFBFBFE04E9FEFB160B10FA0107190704F2EEFBF3FBFDEA08F0EEEF0B0119FCE9F20AE8EC03F1110D1708F012
EF0D1004ED00FA0201FB03F7F5030CFEF00B0BFD03FBEF11F2FF040F0707F4FAF611FBF4050202F2FC04FA0BFAEBFA050314F6F8F809EEEB10F71E10160AFC08
F20FFBFEEF010404000105F7FA050FF8F80508040301ED0BFC00FD0600FBF500FA08FEFA060704F90309FC0503F600040108FF01030400F90EFD140607060103
FF01FCFFFA000201FF020201020003FEFF0402040103F80100FFFE0400FBFC03FC0003FC0001040002FFFC0101000002FF00040203FF040202010300FF01FF00
01000100FF000000000000010000FF02FF020001FF01FD00000000020100FF00FF0001000000010100FEFD00FE000001FF0101000000FE00000000000001FF01
00000000000000000000000000000000000000000000000000000000000000000000000000000000000000000000000000000000000000000000000000000000
00000000000000000000000000000000000000000000000000000000000000000000000000000000000000000000000000000000000000000000000000000000
00000000000000000000000000000000000000000000000000000000000000000000000000000000000000000000000000000000000000000000000000000000
FF050300000106FF000001FEFD02FFFEFEFD000103010100020301FB01FE02000000FFFF02040001000200FF00FF03030000FF0301000101FF050102FEFF01FE
0007FFFEFAFD0FF702FBFFFE00F80000FBF3FF02030D00000803FCF2070102FCF7FC03FC0209030D06FDF6F2FA050706FE03080704FC0805F910FB06F4FEFBF5
F70F0802FDFE1200FBF4F4F801F20304F7E9F9EF070B01FD1009FFE00D0801ED08F403FE0B1000140F02EEFFF7FC0F15FBFCFF0B0AFD0603F110F202F2F8F8E5
F40801FEFCF91100FAFBF5F701F90703F9F1F0F3080908F5130AF8E10A050DE50DF006FF0E0F04150A0AE302EE01150FFCF4FE0C06F50207FB10F001F7FAFAE2
F802EEF5FDFA11F902F6EDF9F7FC0EFCE8F1F000050AFDF9150BFCEC04FFFFEB11F50BF8000B0A100D08E40AEC08140EF8FAF409FEF403FF0812FB06FCFBFBEB
F9FDCFFEFBFC0AFD02F8F8F3FB030DFAE501ECFBFF06FBEE1E10F1F80105FEE80AFB02FDF6FE13060CFFEA0BF20F01FFF2FFF3FAF7F00707100AFFFC060A01EB
F40CD4FEF8FF07FB05ECECEAFBFE0401ECF8EBFE0506FCEA12FEF2FB0605FFED0B0200FF010413030200E411ED01030BFDFDF606FFF4050C12050005120507F7
FB0CD201EBF6040603F0F5F2F30FF002EAFDEE0F0802F3EE12F5E4FE01F3FDF8FD07F601000C07010601D812F5080FFBF902F2FBF4F50D0907010B010D0103F8
F50FCE09F00310FF090AF7F70819F901FE05FE18FF00F7FB17E7E305F4EAF9FAEF08FCFE070BF7F60507E501FE011CF109FAEF070D0212FF080010F4180907FD
FA09DA06F408120C0310FAFE040F000BFD020A0BFE0EF9F50EDCE202FBF4F5F7EB0B06100213F2FA04FFE6F9020817FA06F4EF070BFA0E00170913F2131005F6
0911E90BE9070C1BF913FF05090C0302FE0CF914F80EE5F513D4E901FCEDF6F7F60807270715F1FB0E05E0F0FE061303FCFB010E0EF91A0A090A08F3061102FB
0907F901F60D0218F622FB06080502090203F709FD06EEEF15D2EB05FDF40303F706031DF905F703FCFBDDF0FBFC0BFC0406EF0506F1121206060200010602F3
0403F6F7000AF417F622F80E0C05FA030105F4060011F7F20AD5FCF8FBF305FDF701FA1AFD15F409F0F8D8E8F9FD180700FBF2020CF6180F07010BFE0003FDF5
0F00EEF7F806E80AF41FEF0F030DFE03FEFDEE140206F1EC13D8FBF8FFF504040C02F5FBFF13FC11F500D2F6F900130B0400F4FF02E70F0D0302120BF80105F9
13FFF6F4E506D6FDF60FF3090B0AFCF80A0C02150405F2E805EC08070302021615FCF0F6090CFE0CEBF8D1FCF90702FF0905F5FDF8EB0C030DFA1308F40CFE05
1BFEF4F3E9F8D6FC0212010C0116FDFB0901EF170606F3FB08ED06FE08FFF61617F9F7FC040905FDF502D3F8EE000804F8FEFCF6F5F1FEFDFBFC1104F707F807
09F908ECDDF6DC06F50FFB05FB0CFB000F0FF61B0009F4090BF3FE020B03F61626FD01F6F90B0501F907D7FCF7F701060A0902FD02F506F5FCFF1206F500F109
06FC03ECE7F2D806F909FF02FC0902F1190EFC16030AEA0AFCF101010EFBF60D1E0804FA021103FCF509E109EFF1F8060B09F9F9F9FAFCE805FA11060201FB00
05FB08F3F501DE03FEFD0803F5070DEE1718051B120CFE06FDF0FB081101F914181001FFF50704F9F00CDD08F4EDFA0C0604F8F6F6FCF3EF04F5060605F5FA0D
FB0407F70100E108F9F306F5F90D0AF50909FA0E08080D05F7F2020E0EFC0A041A0DFF01F8FD04FCF40AE513F8F1F9080B07F8EBE6FFEEF707F909170AF1000F
F50E23FEF8F4EC02FBECFDF808FE05000407FBFCFE0808FBF4F8041517130AF911180008F1F8F500F807E60FECE8F7150519F0EFEC01ECF100FA0B180AFAEF11
F20918FBEFF3FA0AFEF403F9FF010AFFFC16F9020107FA02F2F8F914110AFEFFFE1402FB00FB04FFFC02EC0EEBEAF611FD17F7EAF5FDEFEE02FC0C0E0F06EC08
F810F5FCEF00040A010509FE060510FBF90C02080306F408FAFEFD1002F8F606F70401F60A060B000106FB0900F6010B050A00FF040304FE0F0612040509FD07
02030400FEFF010400FF01000303FEFEFC05FF03FE01F6FF00FEFE0505FBFE00F0FF02FD030204FE00FCFC02FFFF0202FF0403000003FCFF0102040201030005
01FF020000000000000000020000FE02FF020000FE02FDFF000000030200FF00FE0002000000010100FEFD01FE000001FF020100FF00FDFF000001010002FF01
00000000000000000000000000000000000000000000000000000000000000000000000000000000000000000000000000000000000000000000000000000000
00000000000000000000000000000000000000000000000000000000000000000000000000000000000000000000000000000000000000000000000000000000
FF0301030101FF01FF00020000000000FE0001FFFFFEFEFF000200000002FF000000000202FE0100000101020001FE01020000020001000100FF000002010001
FE02030707060FFB03FA08FE00FE06FBFBF7FFFC00FE0001060B01F7010601FF04F70408FCFB0408090306FC0101FB08F9F6020B080305090305F8FBFAFF00FB
FF04FE0602010FFC03F205FC00F808FEF4F0FBF8010601FC090A01ED0D0602FB00F40204050206120601FAFFF9030008F700080903020B08FE0EF706FCFEFCF0
F6FBF90D0307F90401EF0CEFFCFA11FEE9FAFEF001F403EA0DFD04DE100D03EB0CE8010A0B050D0B000CF512F904030904FA0608F600FF07FE09FA0E02F9FFEB
F0FDF60A010305FB03ED04EDFCFA10FEE3EDFDFA04FB00EE180B01DD100704E90EE205FE0A0A0B0C0408E912F4050A0CF9E6050CFAF60807080EFD0207F6F9DF
F9FDEF08040908FB00E4FEEAF20018F6EA03F4FD03FCFFEB150807EF0906FFED05E80BFCFF0B190D100EF212FB09F804FEF30104F6F2010D0F0407FA0AFCF9F6
F00CEDFF090807FCFEEA0CDEFEFC0BF8EE02FBFCF6FE01E90A09FEFE010FF4E9F4FBF8FA06061C000B0CED1AF001FB06F8EFF5FFF9F2FF0F13000D03070708F8
F311E4FBFB0A0AF906EBFCDCF90301FFE90203F8FC0BFE04101505FFFA0AE8F0F7FEF1EE0C0E0FF9070EF10FF304FE09FBF1E80AFEFF0C0C170E1300060B05F8
FF07E002010115FD01F8FFEDFA080B02EF0309FE0609F40216FFFFFDF5F2EBECF2F7F5F6080709FB0E15E8090200020200ECF90805FF000E090608F8090AFFFE
FB10DD04FDFB170000F20AF0F8080009FA0607080201F51010F2F20CF6F7E6F5F5FE0B080D01FEEA130BF2F50800FFFB04F1FD12120A05040A0009EB130EF505
FD0AEA0D03020D020BFF05F3F90C0506F8080A04FA07EC131501F000FFF7E4F7FE01050D0F0101F30EFFECEAFDFDFFF5FEF0FA0F050C031008020EF70C13010B
FC1BEBFDF5FC1305FD0217FC050EF60AFD050B0AF702F10A10FBF7F501EEE4EFF701FA120805F7FC06FCF0E6F90007EEFAECF10E0D081512FE0006F3FE14FC0A
0C14F903FCFE120E090D12FB090AF20FFF040E09FE03F0140EF8F2F004F3F0FBEE03FC14050BFC070EEFEDECFF0511F6F7F8F9180D0D1419FEFD0CF7F2160906
0A07F7FA02000908070D12020608F910FCFE0604F906F40B03FBF2F9F8F90403EE03FCF90605010805DEE7EEF5100BF7F5FAEE1612FF1A1606060500ED1C0200
100EF7FDF8030C0602160B040A02F9050BF50B12FA08F50A09F9F8ECF4F10903E7F9F7E40908F90409E4E9FCF91308FCF3F4F91917001F1FFC010CF5F911FDF1
FF0304FEFC03FEFB081801051105F90204F50A11F802000704FC04F0F9F8FC07FAFF05E50DFDFD0808EFEC03FA0E0706FFF507170D09151301000DFB010F03FF
0E0304FBF400FA04000702090704FCFC00F60B0C0808FB160BFDFCF3F2EFEF080C01FDE105FD04F609F5EE0BFE080003FDF30B170A07130D00FBFFFFF900F904
08040DF8F500E800050FFC01FB0D01F100081311FA05EE0F05F909FDFDEFE713210D0AED01060CFA0407EF0A0C06F50701EE08080205060806ED16030403F9FF
0E0409F1EDF4E00BFF0A0403F9FF01FF04000B100606F20902FF04F7F8F1EC062A070FF5F90909F5FF08F00201FDF41208F410060101FCFBFDF80801FEFFF802
13050AFA0103D907000610FC06080BF70D09FF0A0AF60E0408F806F308F4EC0C2C02010BF5FE0FF3000EFB0B0704F70FFBF00BFFFCFDEFF206F103F7FDFF0008
02090AFF000FCC06F7F802F5F70610EF0B0FF6080BFF10FE07F7FB081602FD053009FA0700F913FBF911FE09FEF6F9FF08F500F4F0FEE8F503EDFE0601F90607
F50718FDFF07DFFDF6FFF5FBFD000AF8FA0D030B080405F8FAEE09161009FD0C2114FB00FD0203F5F708F40BFCE6FA09080CF6F7ECFEEDEB07F8111407FEF804
EF0D16EEF7F2F10CF8EFFBF5FA0812F8F519FC010DFBFA03FBEF051718FD04F8F610FEFB000606EFF60A0016FCE601030619F2EDF203ECE808FB191A0DF8F816
F10FFFF4F2F80313FFFA01FA050A0DF8FE11FF050302F60BFAF9F80F04FF0005DF0302F7090406FAFE00021001EB0007FF10F4F1060300F20A0817090903F70A
FB0708FE00FC040700F500F9020705FDFE02FFFE05FBFE0200FF050205FB04FCE700FBF8070201FCFE01070DFFFB04000205FAF9FF08FBFDFE03050605FF0009
000001FFFDFD02FE0200000305FEFE020201FB00FE04FFFFFF00000301FE0001FD0003FE0100000400FCFB01FC010001FC0101FE0101FDFFFF02FF000001FC00
00000000000000000000000000000000000000000000000000000000000000000000000000000000000000000000000000000000000000000000000000000000
0001FEFEFF010200FFFEFFFD00FE02FEFDFF00010100FCFF030200FF030100FF00FEFF010100030400040000FEFFFF03FF00FF0100FE02030001FF0100FF0000
FF0102060406FF0002020702000104FF00FF01FEFBFBFC00000600010204FF000101000401FA0400030404050104FAFF010201020002000405FE00FE04040101
FDF8040F120D0EFC02FA0FFB00FD0DFAF8F3FBF7FCF90200060F07F6070AFBFD06F60611FDF608070D060D040401F30AF4F3000E0707060D0803F6F9000105FD
03FEFE04080919EC00FC04FC03FD0DF8EEE7F6F9061202F60F0E07E91109FBF714F0FA0B010D0B200407F6FBF807FE10F7F2FA0600F41309021BF90BEDFEFAEB
FDFAF4010A13F9FAFBF302F1FD020EF2E3F6F501030A07ED11FD0DDF1A0EFCF510F4F50C0B0F0B18F90DF00FFEFE010B04F4F503EDF400020A0F0616F8FF04ED
FBFAE703050B010203ED0FE7000D0DECD9F4FEF5FFFBF5F215070BE10705F8E90EE9F707020D150A0209F312F905F901F9E4F505FBF505120F100300FCFF04EB
F7FDF9FD0C0801FD01EA07E6F70014ECE508F9FE01FFF8EE04FC07F70409FAEEFBEC010606021409090DF31AFB0BED0AF2F2F901F3FB010C0CFD06FE0FF403FD
EE07E8FAFC0204FAFDE611DAF70D16F5E70C0DFFFC03F304F8070305F608EEE3EF05F5F40A0C18F20610ED17F602F905FDFAF4FD01FC030711FE18F90D0606FB
0303D70406030A02F9EE09E3010309FBE5010DFBFB01FF0A020B050FF40AEAF2F703FFF80A000BF80416F80FFB05F503FEECF30D0104FC1010FD0CF219091004
FB0BD70C0B050E0801F909F2FE000802EA140405FCF8EE12FD09FD11E9FEE7FAF5F700FB06FD0FF60219F6140A09F3F80AEF0510071107150BFEFEEA1B060500
0810D50A00FE1112FFFB13EBF80D08FBF4140CFA02F8FD0FFD0A0107F2F3ECF401FE040C0FF907EF040CF9FBFE08F7EF08FBF4020313F71303F2FDF2120E0209
0318E105F2FA200C00F710F2F90BFF0AFD070CFFFFFEF31EFE200A00FFEBDDF60B01061B05FA0AF80B0D02E7FEFDFAF3F5F8FD0A08110415FEFB05F408050506
010CE903F7FA27090D0324F8010D060E0A070EFDF701FB24012B06EDFCEEE0FD0907020D04FA05F9080B0FE402FD02F0F4EBF815050E0E1BF8050BFCF4180B08
010F05FDF0EF281809F82107050EFF0C08F70D05090FFD24171706E708F0F6F7F90B00100F0702FF05F40AEAF70B09EDF5FDF7110108081FEE020101E70A0309
061415FFF4F620100B0E13090C0CF81310FC1706FF0CF3110D06F0F100F802FCE70FFFFD10FD060516DE09FD040F0500F4F10417130C1C20FB0409F6FC1208F8
000F12FFF903110205080D080F05FD1101FF130BF90302190A03F3EBEEF509FDD803FEE9070300040FE40603090F0BF400F1071B120D1024F50100FF010A05FD
06111B050B020202F512140109F9010406FA0E06F8FB08000900FEF9F5FCFF08F6FDFBEF11F6060509F0091D0B14FB02FBF818141216151F04F406F6060D0209
0A0216080003F405FD1300FC0D01120401030A0C02F3F7020BFF01F5F2F2F1100EF907F300F808F50D060D190D10F709FDF61A100B0F121A09F600F80702030D
0A050CF8F500EE050203090304FD18F8FF0912040802F80502F90BF3FAE7E00B1C020AF7FDF913FC0D1409111504FF0E0BF3191314080E0C00F305FB0CFF040C
0E081A07FDFFE40603FF0700000314FD03FD14040302010106FE10F0FBECE9FC27020EFBFDF409FB000E0C160101FB1205F518101003FFFCFDF509FB01F8F906
03FD0A01FBFEDC00080F0B0004081AF5090501090600FD0FFEFF0AFDFCFAF10537050AF8F6F20CF00917181708FFF103F7F40C050107F5FF01EC080409090505
08F909FC020AE0FE020700FFFA0B1BF7070301111606FB0401FD06040DFE000D39FE0406F4FF0FEEFB18111004F5FB0200F4F9FEF608EDF40EF211040607060B
FBFE20060013DC02F8FBF6FAFBFB15FB02120C120AF203FAF5EEFE1413FBFD0E2FFE0A03FBFA0EE6F80B030F0FE9EEFC04F902FCF70EE9E613E90E090A00060B
F40A06FDF903EA14FAFFF1F8000A0DF8F31E0E05FEFBFF03FBF2031D17FDF206110803FA06FD0DE5F700051A0BECF2FF0B0FFDF1F208F1E50FEF11090A0AFF13
F51E06F9F2FFF81304F8FAF8FE0D01F7FE1606000501F3FD02F90C0F1001FB02F503FAF90D0400FAFAFD081808F501FD0A13EFF3F60DF7EB0F071B0F12090111
F80903FE05FE050002F5FBFB01030201000304FD0202FEF9FEFD090606FD05FCEC03FEFB040101FEFD000612FEFB01010506F6F70107F9FD020108090900FE08
00010100FEFE00000100000203FFFF020101FC00FE02FF000000000201FF0101FE0002FF0000000200FEFC00FD000001FD0101FE0000FEFFFF01FF000001FD00
000001000000FF00FF00000000000000FE01000000FF00FF01FFFF000100010000FF000100000100FF00FF000000000000000000FF0000010000000000000000
FF00FF010201010100FE02FEFF0003FDFEFFFFFF00FDFE0001010000000200FF00FF010300FD0201020301010000FC02FEFF03010100010301FFFFFF01FF0000
FE0102070406FF020002060100FF050000FF01FEFCF9FCFF00060101030601000401000A03F90500030403080203F802010102020002FF0304FDFFFF06020101
0103040E0E0F0A00FEFB09FB01FB0DFAF6F7FBFDFEF7FFFB060A06FA010EFEFB0BF5021900FB0A090809070C0300ED0DF8F5010A0300030A0C02F7F804FF06FC
0304FF030A111CE600FE01F9050215FBEBECF5FE031307FC090805EA0E12F7F910EEFF0AFD090F200D06EFFFF502F70AF8F2F704FEF312070B1DF705EF01FFE9
F800EE06120B09FD07FC0CE6F7FC0EF6E3F0FDFB00FB0BFAFC0605E00309F4EC03FAFE0704070B0A0C0BF313F804F702F4E9FB07F7FB0003120D0509FF01FDE7
F9F6E90102090E0102F70AE2F80311F3DCF70506FF01F804FA0701E5FB0300F209F8FF0A0A0712021107F3180108F6FEFDEBFA0505F709000A0C0BF20D0801E7
EDFDF0FE0C0F09FDFEF807DE02F116F5DE041007F6F702FDF0FE04FEF902F7EDFEEDFC0C0DFF0FFB0F12F013FE03F40DFDF1FE0209F3FE1210FC04F81104FFEE
F401EA0C04090CFB00EE17E807F81306EE0B1007FDFE050BE90A070DEF00E7ECF706FBFE0B0208F41108FE1DFD040205FAF2FC09080EFC170CFE07F81208FCF3
F504D60E030A0402FBFC0BF00D011000E70E0A01F3F1070DE2100C1DEE07F1FA01FB00FB10F910F0FC17FC140B0EFDF40EED030C0C07F60C0AFA05F71C0308F9
F403CE04F90D160803040FFBFF000FFEEF060402FAF8F618E8161711ECFCE9FB07F106F60BFF0AF00610FF060B08FAF60FF900010410F81901F4FEFB0C04090C
F805D50A02030E0C04F51600FE0A15FFFB1001F7FCF7F41AE6271414F900E6FC03F3000705EA17E7FC1C03050404F1F601FEFA000319FB0D07F20CFE120B0315
F30BED04F5061C1D03F911F8F8FA0EFBFA0F070809F8F119EB2610FDF8F5E31007EE0323FDF31BF1061B09F50BF6F70105F2FC0A020AFA1506F50CF6F903030C
FC170FFCF0FF291D04030C04FBF9110612060C00080BFE1BF51B0AF6F9FCF61701FE022FF8FD130200150BE30FFB00FB03F80609FDFE0B0EFEFF0AFEE8060405
021620FF00FE292006FE1BFBFD0F15010AF801090005FC1C092403E9FDFD070CF3F2042104010E060E0111ED0B00FDF1F0F60F1308080B270407FFF5E5040FFC
060F1BFA0502310F01FE16FCFA0511050BF70E07FC05010D1C0D03E3F3F204F6DBF5F70E08FD0E050CF612FB0D0A02FBF7F30D18030E1827F500F1F3F5030AFD
0EF81DFAFC1320FC02061DFA0503130700010D14000200021804F7EF00FA0501D7F7FCED03011401FBF31401100E0DFA02EC111E04071B2DF90CFBF5F6FE1803
0C011B0808140DF9F80F120107FD13FC01F8080C07F7FC0316FF06F3F3F30011E5F5FAE204FA1301FB0413161803FFFF08FE160E0B071826F9FFF6F902F60F0F
060615110E0C0801F3070C0219F91DFDF90513050DFBF7FD06FE0BF3F4EFE60010EE08EE07020AFE0614181C1806FC080AF1111D11121615FEFC02040CFE0C0A
11F80B01F80800F9FB100602110523F3F606060D13FBF502FFF507EDFDD9E10E28F4FCFA08050FFCFC1E110A1402F808FEFC0C0D0E0D130C03080605FB06000B
02FE1903FC04ECFEFC0704F6F40923F5FAFF09090BFEEDFE04FF13F70BE9F00725F4010507FA0EF4F6151E1B0FFFFA0606030F05090600FE09F41104FCFE090F
120618FFF104EA02FE0BFBFDFD0418FE0107060C1500EFFFFA0111F603F5EEFF2FFBFCFCFE0504F0F7131D1D04FD00FD06090C08FE07F4FBFFFD09060609040A
03FD12F9FF0AEAF4FAFEFAF7F40410EAF8020E0E1D00F703FB0A0E0108F7EFFF30F2FE07050113EC041B1C17FEFFFB0B0AF2FE0007FFF8F305EA0908FBF50006
F7F70D050519D706020200F7E9101DE40010110617F7FA05FCFF100206EEF50831E7FA0EF9F517D7030C191812F6EEF60AF507F9EB0EE8ED12E2190207F80C08
F1101501050AE111FFF7F7FDEF0A0FEEFB23230F06F3F108F4ED071413F2EE0B0FFBFFFF05F906D8FFFB1B1A24EFF2E0170BFBF6F316E7DF14E91A0B1C010B13
F70B0AFD0402F80E04F9F3F7FD180BF6FB141F040DF6F7FFFFF8190710F8FCFCF007F9020F07FCEDF8021E1913EB02F31910EEF4F614F5F010F424141E060C11
F806FEFAFC030AFD01FFF7FDFB010CF9FF070E060A02F807FEFB0406FFF7FC02F10000F9030102FC0202060707F801FF0A00FAFF040302FC07FB0C0603000203
00010000000000FF0000000000FF02FF000100020101FE0200FFFF0100FE0000FF00010000000100010000FF0000000000000000010000000000010000000000
00000000000000000000000000000100000000000000000000000000000000000000000100000000000000000000FF0000000000000000010000000000000000
FF00FF020302000200FE01FE000004FEFE0000FF00FCFF0001010000000200FF00FF010300FD0101010302010000FD0200FE02010000010101FFFFFF01000000
FE04FF040507FF05FFFF04FF00FE0800FBFF0101FEF9FDFD010503000106010002FCFF0903FC0501010402070100F70302FF0204FF02000402FEFDFE03000000
030CFA070A0C1103FFFE0AFF01FC10F9FAF6F9FA01FBF7FF040C05F7FF05010208EEFE1007FE0A08090CFE010201F10CF8F6020705FD08030301F5F7FEFC04FA
FE12000309081E02FDFCFDEDF90013F1E3EFF7FD0C07FEFFFB0CFDE6080DF2EF0BEEFD1609040D180E09EE0CF70BF50DF8F1FD0702F60F070A09F304FAF8F8EF
02F2ED0DFF0C14EC05FB10E603FF12EDDFF004F50302F705F00907DDFC03F7EDFEF5FF0200051009130CFB0E040CFDFCE8EC0109FDFA07090F0D01FCFD0A04E4
FBFBE30003001CFFF9F509EE010215F8E6F4120A0800F20FEC0C07E8F301F8E7F4F9F9000C0703FF1209FE0A0304FC04F0F2FB0612FF02020E0604F5020102E6
F905F1FF01F91703F0F90FE50AFA10FDECFE1307FF02F912E1090BFAF80100EEF4F7FA05130209F30B09F11801FFFE07FCF1030B0DF90609FFFD04FF08FCFBFA
FE03E400FFF7130EF3F80EEB10F90F05F2100EFD00FB010DD2121013E705F8E5FC0BFFF80F080FEF0310FC0FF7FE07FF0BF3000B06FFF40406F803F812F9F9F6
FDFFD201FA0A0E0FFBF815F90F061600F5081308FAFBFD13D3181719E7FBF2F9090002EF10020DEEFC0F0418FCFF06F70FFBF60C0303F51205FBFF0119FEFB06
FF01D20BFBFC161F01041C07110812FD0807FE0A06F8F91FD823101AEBF2EE0208FBF904FD0010E60907040D010409F102FEFDFF0604F40905F8FCFE1103FC09
F009D609F3FD0A2F07F819F8FDF81CF30A1603FC0AF4F818D12C160EF7FADA070404070BF5F507D8FC16120910FEF8F3FF05FEFBF60BE90A01F211F51C060911
FB0AF10001111A2C0BFC1905F2031CFA0711FC0502FE0323E6301DFBF804E217F9E80330F0F00EE3041018FA13FCF400F5FC0AFFFA0BF0100AF80700F2081412
05111CF9F9182F2E0503110FF0021FFD09FCF500010C0018F3280EE9FAFDED1BF0E3F63DEFFA13FA081025E51301FEFCF9ED0A100509F813090705FAD9021C0A
080932FC0F0C3C1B02021904ED011C070BFBF7FF0D0A081EFB2306DBF901FF11DDDCFF27F3F71E0F0E0223DB0E05FC03E8EA191011FA061A03FFF8F6E1FD0DF6
0DFC2C041C0431FF07FA1FF70108160A14E400F5060C0911021705D4F9020FF9C2F1FBF60D0C100D07FE23F601FA0E05F3EB151912071128F509E9F1ECF60EF5
09E21E0C120A21D8FEFC1FFB0910100907EEFF060EFE05F7160804E702030DF6B2F4EEE8050D10160107150808010D05F7F3080D08001C20FA11EBFBFFEF19EF
0DE5160B1B170DE7FB0C260425FF1400F8EF05000BF207FE11FA07F8FDF603FBE6E4F8F10AFD0F03FC1B13051003050300F811150C0A171A060FF3F7FFF719FA
1AE6170D1512FBF0F90F1903260B1206F7F507FC09FA020308FB05EA00F4E90324E80305FFFC03FCFA201B041A03030804FD09130B0E1B18020CFDFE05060FF9
14EF1709F907F7EEF71006F717020801F1F900070BFBECF207F812F6F7E5E6F841F2030AFB0407FBFD1A19060E00000F0505160F0B021F0A06070BFE000209FA
0FF71501F507EFF4FB02F7F904060EFBEE040C090C05E0F00A020EF604EAF20335ED0803F80906F0F71B1C0C0FFCF90F0B090F150D050CFEFDFF0C0A06010BF6
05F712FBF909F0EFF506FBFEF1010AF1F007130313FFE9FDFB0512F700F5F7FB30EDFE09020908EDF10F161007FDF7050B0A050A0905FFF80DF415090AFEFD01
EF020CF8F90AF3F70103F8E9E4040CEAF6F329071808EF02010C1BFBFEE8EEF729E9FF04050A07E40315150801F502010DF5010D0400F7F600F60D0401FB04F7
FAFE12F2FF0DE10FFDFF02EFDF0714E3F6111E131AF2F40DFF06080703EDEB0A27E5040DF7FC12DFFC07140614FEF6ED14F705000006E7EC0CE117F90EF80CFE
F30120FF0801ED1CFAFB02EDE40C10E5F5201E1C18E9E714FEF7FE130DE9F40FFEEDF707F7F20EDD05F61B0F22F5F7DC200312EDEE17E5EC09DD190617F60512
ED0E16F203FC010CFCE8F5ECF40C13E6EF16201419F3E21502F80D050EEAF300DFF9F1F709060BF1FE04270F17EE02EF1B0EFBEBF612F5F10DEA1F0E18F80610
F3FD05F6FD030E0001F6F7F3FBFF11F0FC050D060CFCF70CFCFFFFFF01F7FB00E9FFFCF5FF0206FF0203100409FB00FF09FFFFFD040208FA09FE0F0506FF0001
FF0100000602030101FB00FA040002FFFCFBFFFBFFFA03FFFE0502FAFF0201FBFF000200000002010100060000040000FBFC03030200020001FFFC0001FF00FF
00000000000000000000000000000100000000000000000000000000000000000000000100000000000100000000FF0000000000000000010000000000000000
FF000001010100020000010000FF01FF000000FF00FE0000000000000001000000FF000300FE0100010101010000FD0100FF01000000000100FFFF0001000000
FD03FD080809000AFFF806FDFEFC07F8F9FFFE01FDF3F8FC010300FF0005020201F6020FFEF905FF040406050501F404FAF80B060403040604F9F8FB04FF0002
0719FC05050C1608FBF808F8FF0606F5F1F1FCFF0AFCF302000D09FB000500FC03EEFB0909FC060401080000FCFFF70DF7F4050907FD0900FE05F501F8FA03FF
FD070406020C1306F9FF06F6FCF91CF0E7F507FE0BFAF60AE704FDEFF900F5F9F3EC050A11FF0B040A04F40D08FEF507F8F80B090502FEFE0901010402FBFAF3
07F6EE02FD0C21F605021CF4090B12E6E5F50AF90401EE1FDF1101E3EDFFFCF3FCF2F7F9FBFC0AFD10FFF90E040FF601E3F70A0303F7F6010A0001F8FC0801E6
06FBDBFFFF021BF6010A1CF2080013EEE90010000508E224DD1600EFEDF5F9F2F4F9F2F506FC05F5110207030603FBFEE8F5070315FF07F907F80DF2FC0807F0
FF03E40602FB190D00FE1DF409FB1DF7F306060002FAED12DC1302FEEFF802F9F00500F809FF04EB0C00FB1602FB07F6FFFF05080C02F0F408F60AFF12FEFCFB
F701D0FFFAFC0E12FBFB1DFC05FB14F9000F1502FBF5FF12CC170411E204F9FAFF1200EF150302EE10FDFF14FD0512F8110707F90504ECFDFEED09F91800F806
FEFCB60EFC0A0F1D02F71AFE0EF715FB040F0F0A00F9FE0BD0200514ECFCF301071DFAFC0BFF03E80DF9161B07FBFBF911FFFD060113ECFF0EE506F92108FE07
FB00C004F905102609F61E04FBF119040C11040401F5FE12DA1C031CF3F7EE0C000BFDFBFBF60EE511FB121908FAFDF804080403000CF3FA03F20AF224020708
00FEE607000F09280E071F09FD0122F91004F7FA0A02FF15DE22FF11F905E018FAFC061FEBFF0DDB0F071B0B0EF7F9FAFE000AFFFC0CEB0014F60EF510FB0C0B
FFF90B0D01090A2B05071406E7FA19FA160EF80604FF1416E91A0A02FF0CE61BF1E4FA2FF3FE0FE703FC21EF1BF2FC02FDF406FEF608EAF410FA0EF7EE041910
F4032CF9110F202BFEFD1800DEF529F90802E9F90C050615FE11FBE5160DFE19EDC7063DEE001200100725DE18F5FE10ECD6141203F9F6FB05F9F305D8EE17FB
EC042EF122083913F7F01BF7DEFD18F911F8E3020A070E16FC0DEAE608050B11CFD00B0DF00113130EEE25DC0DF70513E8CF201311F00300FDF6EEFBD2F209EA
EEDF31FC32FF20F1FFE113F0F8F410031AEEE5F903F91DFFFA0600DAFE0C2102ADE0FEE9FC070F1803F420EDFFE50C0AF7DA1F100D06000DF909F3F6F4F205EE
FDD821112F0511DEFAEB16F31B08020706E9F7F504F81E030606F8EB02FC1FF89CE6F8DF03050E03FD071801FFEC140FF2DB0E120B061119FC11E9070CF60DF2
03E91019130A08E603FF1DEF2C0AFC01FBF2F2F4FFF807FF0FFFF7F1FDF90AF8ECEAF4F1000C060CFB0E13020D020A13FDE20509FD091816FE14F20208FC19F7
08E60D0E0010FAEAFF091C0226020505FBF201FAFDFCF60609F403F5FAFCEDF134F10303FA0304F7FD1910F217010A1500F20F0D05051D12080B00FCFE0408F5
0ED8150C0005F8E30101FF0220FAFFFCF7FC00FB06FEF1FE0A040BF9F1EAF0F83AEBFF09E914FCFD001D10F10F06051107FD0D1406081A00081205F8FC080CE5
FFF00905F009F8EFF0FA01FE0DFC04FDEDFB12091204DEFC071015F4F6F8FAF432E6FE0CFA0700F9F40C0DF00703FA0802FD0C1110FE1604050009F500050BEB
00EAFFFEFF0DFCF2FA0302FCEEFD0AF0F2FC15FE1103EDFB05100BFAF8F203FD33E10207F7F506DF000D14F702FFFA090AFE0A090A030900FDF901F902FE00E7
FAF30AF9FF0F03FBF40505EEE5F700F5F4FA1F020BF7EB0404110304F8F701002EE8100B04F705E209FE0DF10D03FA0812E9141215FBF6F107EC06EEFBF805ED
05EF1DF0F405FEF8F20203E8D4F30AE0ED101D1007FDE5100002F00000E4F00E12E8FB06F4F90BDFFCEA06E00BFCF8F021F31C0A01F9E5EDF8DA12EDFEFC00F4
EFFF24EAFEFBF408F6EFFAE5DA020FD8E32C1B1B0CE9E714FFF6FB0B0CE7F901F9F3EB0BF6F812E0FEF01AF61AF8FBD6220C16E6E70BE0F1FFD21BFB1BF4FD0A
F10320F612F60209FEE4FBE2EB050CEAEC0B16041AEAEC16030A0EF40DEDFDF3DEFEE7FC0B0404F6FF03300C0AF207ED1906FDEAE914EEF7FDEB160B17F3060D
F90412FB05FF040AFFF305F2FB0209F2FC03060206F6FA0EFE0405FA03F8FDFDE4FEF4FD04010301FC02180206FB01FB06FFFFF7F70400FE01FD080205FC0307
0001FE0001020500000000FF0401000000FE02FF00FF0201FF0102FEFFFFFEFFFF000200010001020000020001010000FFFD010303FF03000200FF00000000FF
00000000000000000000000000000000000000000000000000000000000000000000000000000000000000000000000000000000000000000000000000000000
FE0000020002FF02FE000100FFFF01FFFE01FEFF00FD00FE00FFFF010102020101FE0004FFFE0200000000020100FD0100FF0200FF00FF02FFFFFEFF01FF0100
F901FE0907080813FFF408FAFAFD04EEFAFEFAFAFEEDF800000500FFFA09FC00FEEF0A0EFBEF04FD0C010A080500EC0DF6F215090A04060201F4F4F606FCFF00
0210FB05070B1505FBF703FAFE0802F4ECF601FE07F4F102FE0E08F4FF0404F7FEE6060209F806010B03030104FDF213F2F00D150CFF07FA0101F4FCFEF802FC
FD0A03FD00FF1702F8F402F4FB0715E4F3EF09F90FFBE819E90800E1F703F6EDECEAFFFC14F7FFFC16F7FC0EFEF3F414EEF70B0E15FAFBFD07F603FF03F8F4F4
0C01F8FCF7FC22FA0B050D0003071AE903F110FC050BE51FD909FFE4E5FDF7FBFBF8FBFA05F0F0F019F1060F09F5F802F50804061502EAFA06F709F1040DFBF1
0BFCE400FEFA170800131DFD05FC14F2F70B1101FE06EE17E10CFDF6EDFBFB08010AF9F309F0F7EB19FD130F1300FBF7F80B0DFF0604ECF606EA0CF40B09FC00
FCF7DB090102050E050711090CF51AF5050A13FCF8F6FB0BE10B000BEF02FE06030A01FB12F5FCE312F4091006F8FCFA030A0B08100CF3F500EF04EE140EF6F8
05FFC80C00F7010E09FD170C13FB14FD0E111601F5040F16E60A0008F1FBF4F5FC2110EF19F8F5E40FEE0F140CF701FC080E08FD0811E6EE05F60BF8240B0100
01EDB00DFF0EFF130401120903FB13FF000C12FCF4FC0502EC0CF715F501F7FBFE1E06FA11F8F5EE0EE81B1F0CF2FB060D0702080012F6F506F40BFE2710F703
FEF3CA100705FF1C07F7100907EE080408030EF3F5F71301F600F41C0303E4F7F0150C1406F905F00EF21C1A0DF6FB080406010BFE13EAEF0EF510FB270BFC08
F203F911140E041F0AF90BF9FFF7FD0308060400F6FB1402FF04F512170EDF00F30A0C2A0A09FDF010EE1E130EF9FC02FB0100060814FDEE17FF100216060A01
F5F81D0F11120613FE02F802F6EDF5090F08FDFEF80D180714FFF3071E18EC1103F7052A0C12020304FD13FE17EC0C1208EF0008FF0AEFD015FF170FFBFF0305
EC023EEF0E0C180CF6F5FFF4DAEDF5080B0CE40D0A03001408FAE1F81A0CFF1BF3D00314041302190CF117DA11F90D13F5E020120EF7F5D700FFFAFEE4F3F9FB
DC0130F526F429F3F2F1FAEDE9E3EDFD0FF7E90E0A0B1F23F9FDDFEA0806190BCADB14E40814FA1612E210EB05ED1221F9D623171EF806CEF707FBFDF6F3F8E6
D1EB27FD38F926EBFEEAF9F218F0E90317EF04FDFF022D11EC06FAEA07131FF8A3EE03D7120DE90701EC23F6FDD5181DFDD703130C0404EEF50F01FE06F0F6E5
E6ED0C1622FA02E301EC05EF31F6F80814F202F8F8042600EC06FFED030E16E796F704DF0C0DE7F900FD0D06FBE21915FAE8081010120EF8FC18FCFF1204F9F1
F2F80E121B020C0200FD16F335FBF10B11FAFDF7FD0220FFFBFFF8F50704FCE4EBF30900FD0CE9EE0107FEFA01F20A13FBDE0814070A2206000EF8020FFE04EE
F7F01710060307FCFBFC1AFF2F02F30205F5F1FE05050208010905FAF5FEEBE731010402F30DEFE7030908E801080616FCED0E0A10042811000B04F206FA06F0
0FF4070DEE0603EEFE040AFD23FCFA0AFFF301F70700F7FB090B00FEF9FBFBF43EFBFA02F007F4F5030301E5FF060B0C00EF080A03F72105070A04F6FA0103E5
0EF5EF03EAFF02F7FFFC080721FFEC00F3F70D000003E7FA051000F9E6F808F91FFF0D020203FBE80FF1F9E30904050201F1121C1FFD1EFFFBFCFBE603F9FDD1
0DEBFA00FB03F8FDF70603FFF9F4F7F8F1FF0C02F3FAE9FEF4FFF705E1FF100918F50C05F6EFF6E304EB00E60F0CF7FFFBE9180D0DF6FAF4F7ECF4D900FEFAD9
03F0FB00FBFF0804F90C0AF8DCEAF5F7E4051401ED06EB0D0503FA06E7F705011BED150407ED09ED15EF07E4080CEFF610E4221212F5F0F8FBEFFDCCFE03F7D0
FDF707F2E5F4FD06F3060EEAC1EE07E3E4111008EEFBE00701FCDD11F3E2F51205F30AFF02EA09F20DE503D81608EBF219F224FB00F6E5F3F2DC02D3FBFCF8E7
EDFF05E6E8F90001F6FC09E4D1EBFECDE62E0F19FAF9DE0CF4EDE616F5D5F912F8EEF808F2F50CE6FAEF09DD0EFEF8E627011EE9F3FFE7F500D816E609F4F6F4
F30918EF0EFA0506FCE605E0E7F406DAEF0C0C0D0DF3ED15010606FE02E2F9FCE6F8E4FB060202F1F5FE2CFF0EF201EE1C01FDE7EA0DF6F801EE140304F30904
F4050AFBFD000709FDFF06F4FAFE07F5FE060E0602FBFA1000FE07FFFEEFF100E4FDF8FF060101FEFB0114000CF301FE0BFDFFFFFD0601FE05000C0003FD0401
000100000100020000FF00FF000000FFFFFF010000FFFF01000100FF00FFFF0000FF010000000000010001000100000000FF00010100000000FF000000000000
00000000000000000000000000000000000000000000000000000000000000000000000000000000000000000000000000000000000000000000000000000000
FE000002010100020000020000FF02FE0000000000FE000000010000FF01000001FF0104FFFE0000010001020000FD01000002010100000100FFFFFF01000000
F60000080708060FFFF805FCFCFE04F2FAFEFBFEFFF0FD01010401FFFC0800FF01F5060AFDF302FF09FF07080400EF0BFCF70E050503010100F8F7F604FD0000
FFFFFA0B0C0B0D07FFF9FEF2FF0200EAEFFA02FD03F3EC04FD0704F8F506FD05FBED0EFDFDF7FDFB11FB09040CFCEF16EEF21314140A01F904F5F6F509FDFE00
0D03000000F91D0702FB0DFAFF0403EAFDEC11FB09FEE21DED08F5DEEDF7F2F4E7F905F512EEF4EE1FF4070F06F2EF0FECF5160C1F09F5FAF6F400F00500EDF6
04FDEFF9F6FA0F0AFC0804FE060012E5010415F6FB03D616E3FCF8E5E8F3FA02EC0308EF12E4EAE41AE5041210F4ED02EC0211100E02EFEAFFF407F20D05F5F1
11FADE06FEFEF613FF10110404FF0BFA070F12FFECFFF210F2FB0100F8F8F20F0709FEFA15E5E6DC0EE8160F0DF5F7FD010D0D090C01E0F0F4E807F61504F306
FDF9DF0D09F9FE13000A0E0803F413F80A0E1F06F4F708FCF4F1FF0EF80AF80BF9190E051EF7EFEE0FEB131F08F403F4FD120D030C0FEBE9F1F500FD1D0DF5F9
09FED1180903F715030312100EFB1203110811FBEBF7140104FCF80EFF0B02F60513090612F6E9F417E8251701F7F5F7080FFE0AFF10F9F1F7FC03F71E09F803
0205CB0A0507F40FFFFC010BFEEDFF0D0D090C00FA040DF60EE3F1151400F302021B16031300FBF50EE61F14FEF2FAFB09120704090DFAF404040CFE1D0AF0F5
ED04F00E090FE915FBF404FFF8F3EE0D03090EFEFB011AEC12E4FF081B13EAF00821FD171814F2F709E81E2002F600070A030408FB11F7EEFD0C0A111306FBFE
EA0615180C14E60DFCF1EFFFF8EEDC11090908FEE70419DD19E5F50E2422EEFD071F042E1A1BF7FA00F0181307FB0E06070DFF01EF13F5E608FF150E0E07080C
F0003206FF16DE00FAF7E0FDEEE7CA16080EFD06F10822DE20DCF71A26200B0E0A05F81C1218EC18E0FD01FC07E9130F15FBF4FEECF9E5DA0F090A18FBF40005
EC0D3CE7010507E8EEFBE7F9E6E5C3090F0FF111F90E1DF808ECEE071F0A1119F7F7FCF80E1AF320EDEA05DF05EA191117FFFC0904F7F4BC010A1010EAF3F9FE
DF0630EB23F52CECF6EFE8FAF9E4D30215FAF819FF192715EBF6F5ED09010C0ABDF20CDC1F1FE21800E104E0F8EB2C1C0CF1081319FD10C4E917FD06F0EEF4EE
CEFB210425F819ECFEF2E8F619E2DD0F23F00601FC0B3205D70DFBF6040C06F8A4F80FD51710E31000E8120301E01C1F0EF004171E0E13E4FE1401040DFDF0E3
DBFB070F28F50DF90DF5EEF92EE4EF1419F705F8E50F33FFE10A04FEF51BFEEEAB0D0CEA040EECFFFFFF0206FBEB021D03F6041715071EF3041F06FA190EF0E4
E4FCFE14120809FB04FA06FC31F1E80B1BF2FEFFF9042402EF08FFF6FD11F1F7FE0F10FDFA0CF3ED0C0D02FA04FB020D02ED0A1818F923040415FCF00909F4EC
F8FCFB19010A08FE05FE10FF30F1E4130BFFF7F601080AFEFB070702FB04EBEE32140202FC03F7E60606FFEE00070C0DFBEF0A1108FD2906FC07FFFB01FF05ED
0DF6EB0CF60507FA0A1605062E07E80905FF08F5F508F603FF0408FDEBFEFCFD2807FDF5FE0DE6F204FDEDEE0A0703FB06EF0914080115F8FF0707EB040A05E5
13F9DB0AE4FF0206031600141703EB04F00815F3F90BF6FAF2FCF606DE020B0319030FF000F7F0EA0BE8EEF012FFFEF7FFF20616190303F5FBF7FBED040BFEE1
15EACB03F102F1050717FF16F7FAED04F00F1404E508FD02F7F2EF0EDB090E1413061CEF0AECF6F108E7F1F20B00F1E60AEA110913FDF1EF05E9FEE10416F8D4
15F9CD02EE04F705FD140D13E4FEE800E90A17F8D505F1F5F3FAEB11EAFF141614091B0516E7F9F007DEECEE0C13E5F209EA1E0E15F6D6EF01EBF1CF0016F5DD
05F9DAFDE1F9F816EF151404D7E9E7F8EA151001D207F6FAF8EFDD13F5F9F912FFFD1E0515E9FD0007E8E9DB0F13E30114F21E060BF8E2EDF6F8F4D10407F0E9
FCEED8EBEB04FB08FD0FFFF4E3E8F8E4EE1F020BE109FEF501E8E125F2EE091711F3050EF5EC0A0FEDF1E6DC050BE7F512FB0DF7F4EBEDFD0DFEF9E2FD0204EA
FAFFF7F012060BFF05F7FEE8ECF305E0F7FF0A03F6FEFA0AFC0C02FCF6EE0702F8F3EEFFFDFB050BF20117EC0C01F9F308F9F5F1F70202FC080005FAF9F708F5
F5030BFA0D03080A00F800EDF4FE07EEFEFA0CFE01F6F90DFD0706F4FCF2FEFEEEF5F3FFFF02FF01F8041D000BF702F806F9F9FBFA07FCFA05FD05FFFDFA0BFE
0001FFFF0301030000FE00FFFF0000FDFFFD000000FFFF02000200FDFF00010000FE0001000000010200020001010001FEFE00010100000001FFFE00FFFF0000
00000000000000000000000000000000000000000000000000000000000000000000000000000000000000000000000000000000000000000000000000000000
FF0000010000000100000100000000FF0000000000FF0000000000000001000000FF000200FF0000010001010000FF0000000100000000000000FFFF00000000
F9FFFE0404050308FFFA02FCFEFE03F7FC00FDFF00F7FE0001020100FF05010003F90408FEF80300060104040200F506FDFB09030301020202FCFBFB02FE0000
05FB00050805070502FCFCF9FF06F7F1F4FA030303F8F2070201FDF8FD06FE04F5EE05FCF7F6FBFB0AF709010BFCEE0CF4F70B0D0D06FFFC00F7FBFC07FDFC02
1608FF050AF3040A040108FB0106F2F200EC0FFCFAFAEB0EF8F7FCE4F1FCF2FEEBFC05E90BEAE1E917E108090FF2F508ECFA0E1A160FF4F0F0F5FBF31102F2FA
0CF8E5FE04FEEC0DFA07F6FDF7FDF3F3FB091CFCF101E20003E802ECFEFB0601F70508F915E5EAEA10DC071B03F9F610F9060F0F0A0CDFEBF8F405F71607F201
11F8DFFFFE02E81BF4060307FFECF4F9021619FBEDF8F5F004F004FCFD0502020E10020A12E4E8E908DA0C160A03F00AFD151200FE04DCE8E9F8FCFD1908FE06
1005DE110CF8EF15FF0E0505FFE9F100040C1D08F3F314F712EE07050704FEFC01160A0A1BF3EDF003D91C110CFBFFF4031B0B0A0411F0F2F0EFFD001B00FF09
04FCD5140DFEEA0F020DF61601F5F70C0E091300EFFB15F111EC010213FA0CFC04140E0D1300E9FB00E11D1800FDFEFA0917000AFD0FF6F7F2FDFF001C0004FD
0308DE100607E912FE06F20CF7E7F50E04031109F8F91AE81AE3010D1B0A03F8081305161404FFFFFDF01F0C02F8FA0111160B06FB0DF8F1F80207090B090000
F1110A18100CE30804FCEF07F3F4E00DFE0909F6E2FD14E61BE6FF0F22120EF51119081716FF01FDFDF11013080002F511180207F912E8FC06010D041611080D
DE101E130F1BD9FA01FEE9FCF6EEC207F5050AF7E20615D916EAFD17131F08051420FA141814F70BF0F5060B11FC0AF6150FF701EC06EDEB1307160E060E1007
EE0A34FFEE0FE6EAFC00E100F0F7C012020E0C11EC0A18D10AEC0515190A13101012E7F81417F520CFF408EF0AF521061E13EFF6EEFBE9E608080E06F50A090B
E00D2DE3EAFA06E0FAF8D70501F3D40B19040A1500181CFA0102FB0804FD0A12E604F9DC1C21F216ECEA01E1FFFF1C061C16F1FD06F707DEF31E160CD700FEF9
E11B29E417ED25EB01F2DF0808F0EB0C14F20D100213350CF606FDF202FB0B0FC30408D22523F01901F408EEF3EB251B160BF211130613D6F41A0F10F1FBFAF2
D0FB09F322F013EA0EFAE20423E4F10D28FD0EFFF919360CD90EFF01F9130907BE0F15E01A1AEE0F09F4FD0004F8081A0D0CFD17190516E30C1E1B030310EDEA
DEFAFE1024F70EEA15F7E90A20E8E8151EF3FBF3EB163302DE130402EE1805FDCA0C0BEC1011F2FC0E050505F602FA0E0817F7181BFD1BF61122110A010DEAF3
E4F5F80A18050CFB05FCFA032FECEB1415F6F8EBFF053001F50C0EF4F508FAF8021C09FA0100EFED080A04F7FDFA010AFE0BF31310F71EFD0410FF00FD0801F4
00F4FE1802090BF2060FFD0124F7EE1510F406F5FA0A0FFDFD040BFC0017FAF5201303F70901FBF10006F400F903FAFD050C001410F91407050A0202081104FC
13F1EE0DEA08F6F8081A0A131603E20EFC0705EEF50F02FDF1FFFB0DF70900F415100FDAFCF7F6FC09E3E9F502FCFEEFFD0406120CFDF7EE06040CF3021106F6
12F8DD16FD00EEFE0517FF0A0B04E805E10110F6F20609FEEE030705F21002F7100A1BEBFDF5EC0007E5F2FE0AFBEEEE07F7000A140CE8F206FA01EE111302F1
1CF8CC08FA01F00CFF16010FF307EA0DDB0108F8DC030BF8FDFA0111F7121102090E1EEF0CEDF2FE08EBEBFD0B00ECEE02EF070F0E09DFECFFF2FAF21512FDF0
17F2BD0DF606F20DFC1D120CEE04DC08E11206FCD60303F1FFECE615F4FA0C0F0B0617060DE4F90108E7E9FB170AE6F1FCF30DFF09F6D3EA00F7F7E20412FFED
0BEEBCFEF1F7E717F3090EFBEDFFDEEFD91DF2FECE05F8EEFFE7E51004FE131204FE0D0B0BEA0B0C01E5E7E60815EBFD03FD11FAF4ECE5EEFEF6F2F20204FDFB
0AF5CFF2FE0DF90BF90104EDF4FFEDDAE50CECFFDC0AF0E3F9FDF010FBF71A0A0AF5FB0FFFE81312F4F4F1E0FD1CEEF3F4F90CF0E9E5EB030501F2EEF5F808FB
01FBEDF113140DFB0C0AF8F2FDFDFDE2F5F502FAF402FBF5031702F8F4EC130510EFEB01F2F80012F40416E7090BF8F3F6F8F6F8F5F401001507FBF8E9FD19F3
FCFE02F907090BFE0A05FDFF010104EF04EF00FE0003FB05000F05F3F9F60E07FFF6EEFDF800FD08FD0412F7040301FAF8FBF1F8FAFBFCFC0B0500FDEFFF0FFB
01FF00FD000206FD04010203000200FB01FBFE000003FD02000402FDFDFD050403FEFC0000000003000102FD000300000001FEFD00FC000003000100F90003FE
FF0000000000FF0000000000FF0000FF00010000000000000000000100000000FF00000000000000FF00000100000000000000FFFF00000000FF000000000001
FF0100000000000100FF00FF00FF000000000000000000000000000000000000FFFF000001000000000000000000000101000101010000000000000000000000
FA00FF0201030106FFFB01FDFFFD04FB0000FFFE01FA000000010100FF02000002FB0106FFFD0200030202030100FB0400FD05020100010301FEFDFE01FF0000
03FE070207FD070008F8F7020109F5F5FAF904FB04FDFA0603FE05FD0105FF01F9F800FFFAF6FB0306F2060401F8EE0CF8FF0204090601F6F903FE0006FFFC02
1AFBF50707F4F9090902F2060505E9F9FDF40CF9F3F6F8F304FC13EB0004FBFBF805FAFA00E9E1F705EB120C07F1F503F006FC161011F5F2F00001F9100AF8FE
0DEBED040600DB1AFA0DF8FBFDF3E0F4F80411F7E8EFEDEA11DA0AF609080F050D110212F8DEF2F3FCE30B1502F7F00AFB091606FE05DEEDEEEEFF0210070005
14E8DC040600DE190704F50EEFF9D8F307050BF8EAFBE7EB0FE0010502FC19FF1211FF1003E2F5F6F8D409140207F9FDED180F04FE04F2F5EFF2010318050004
1CFCD50D0B01E1140C0BFB11F6F2D8FF05060FFCEDF504EE17E00AFD14040FF91315FE0E02F0F8F9F0E2141006FDF8EEF71A0E0AF10DF1F4EFFCFC04110A0706
2010D60A0D03E918FF03F209FBEBD70D06041B01F9F701E812E403031D0B14F90D1A031416F3F106F0E119130001FAF8FF1703FDF713F4F6E804FC0C1E00060B
0119F0050600ED08F700FB0AEEE9CE0EF5080E01F0FA18E216F10F07250F19FB1314090D24EFF90DF8EC1311F60BF8F503150CFCF201EFF6ED00F8001901FB02
EC18030F0704DBF80208F70AF6E5D60FF10A15FEEAF908DE0E000C06101B10FC0D11000E17F10D03FAFD15080911F9EF131210FEF20FEBF502F906FF0D090A17
F0061D0B0810E3E4010DF21C03E9C20AFD161606E10A0ADF0102091A0B171F161C1D02E512FD0512E1F40D000507F9EB1D12F7F9FB09E7FB10FA12F806131710
EF072EF1FA07EFDDF812E50E0FEBC60F060A1D14EB0F17E9F80416100403170A1105F9DF210EF417DCFE02F006050CF92019F2F9FBFAF3F30A0D130AF1090F09
F4181AEAFBF50DE9FF0EE91B08EEEB0615FB1E19051A20FCF10C0205F1EE1C18E80C04C92B18FB1BF9F2F4EBFA07180B1D13F60213F60EE6FE1B1709E6FDFBEF
EA1F1BEA12FC17EC0AFDDF0512EEFDFE18FC1E0416112E02F5060DFBF0FE120ADBFD09DE261FF7110CFFF8EFF6021C0B191BFB021C0011F20718140BE4F9F4F2
E20C07F7210017F209FFE80312F4F20E19FD1AF709192B03E40E1909FD080700CE0715E72513000806F906F3F6080215131FF5010CFB14FA14190F08ED07F0EE
E70202051DF60EF41AF8F2081AE7EA1316EE09F1F21B3905ED0E1503FB1804F1E5190DF61805EE010CFC1301F1FF0304071FF809160114F71014140DFA14F9EC
E9FAF515211405E91008F5FD25E7E8140DF60DE8F80C2F00F90718F8061608FA0E1F09FC0B01F6F20D001D0401FFFA030D13FB100E0915FF14170A0A0A0E07F1
FDF4FE1B0D08FFEF0C0FF80812FCED0FFBF60CEAFDFD12FBF51006000E15FAFA1E0C07E702FC00FA07030002FC07F3FBFD06FF170D06FE0108FE0906100D0AF5
18F5F51CFD17FBF7090AF9070CFDE913E0F603E7F4FC03F8F2110EFD0B1EF7EC1A0E13ECFBEAFA010FE7F6020302EB03F5F3FE190508E9FA04F907FA151502F8
1E00F6110A05F907FF0A0808F710E50FC70401F0E501F7FBF60A0A07001400F614090CE700EDF90D0CDFF7000A0BEFF6FAEE0815010CD7F7F2FBF8F60F0C00F9
1B0DE4070D01F808F30C0908E608E8FDD50301FEE504F8FBF9FDF3070E0801FB020210F40CEC011200EEF1FB080EEEFFFBF7100E0503DFF1FC01F8F70B0BF7FA
1801BF010C03F11DF3030BFDE909E8F1D50AF2F2DD02F9F0FC02F10B04081A04F9F8090011ECFA0B0BEDF20E030FE8F9EE0012FFFBF9DAF7FBF3F7F20704F8FE
07FDC2FB0E02EB20F7F810F1F3FEE3DEE00EF1FDD9F5F1E50900F0060E0421FDEBF4FF0F11E8050C02F5FA09090BF0F9EFF912F9EFEEE9F3FEF2EFF4FFF20108
0C04D8F1070EF124FBF810F6F8FAE8E0F112E9FCE5F5EFE80102FC0105EF250B00F0F11305F30F0DED06FBF1120DFAF7EEFE11F0E2ECE705F9F7EF02F0E9130A
0CF7EDF4011002F60B0C01080500F2E804FBF2FAF30FF6EE011200FCF2F1180F0EFCEEFEECFC0112F70D01DA070EFFF8F101F7F3F8E803020E0DFD00EE0018F9
01FCF8FAFF080DF909080405000801EF07F0F9FE0006F602050F01F5F7F30D0C0CFBF7FEF6000006000806F9020A05FEF800FBF8FFF80307080300FFF1FF0EFB
000000000000010000000000000000FF0000000000000000000000000000010100000000000000000000000000000000000000000000000000000000FF000000
00000000000000000000000000000000000000000000000000000000000000000000000000000000000000000000000000000000000000000000000000000000
0003000000000001FFFF00FF00FFFF0100000100000000000000010000000000FEFE000003010000000000000000000202FF000201000000FF0000010000FF00
FC04FF0000020003FFFDFCFF00FB03FF000001FD01FF00FC01FF03000201010002FEFF0703010101FF00FF0500FF00060200FD0100FF0101FE01FF0101FE0001
0300F703030502FB0A02EE020309F3F3FCF709F5FF03FCF708FA0F00000308030300FB06F8F9FB08FCF80608FEFAF604FB0AF4FC0303FDF80009060304040101
0AEBF60006FBEF0B0708F8010107DCECFDF6FEF5FEFA02F309FA16F10AF70D01FA05EC00ECF6F1FBF7F3130404F4F900F70BFC0CFB05F3F0EE050B0A00060800
10D4F8FB0001DB0E0409F9FBF002C4DDFCFFFDFBF2FEE9E911EF10F505F718080F09EF0CE1E6F903F9E21308FA06F8FDE00C0EFDF801EAFCE3FEF805FBFC06F7
11DBE60611FDD90F0C07F305EBFCC1E701FF06F7FDFFDFEE05EF14FE070311FE0817F70EDEE6F50FF4E510080000F1F9E5141204EF0AEEF6EDFA020E0F05FCF5
21E3DD0F0704E117FF0EFC06F5FEC803020F09F8EEF5F0F00FF412FF0C0612F71512FF19EFDDFC0CF1E21108FC00F0FCED13090AEE08FAF9ECF7F3001E0A0701
23F6D21408FCE2080504F310F7F1C00B070A1202FBF5F9EFFDED120A0C0411031212FD0FF9DEF411EAE8121404FEE4F9EF170601EC0FF7F7F506F80F1B010607
0F22D90D0706E3F7F313F80BFBE8C610F91713F9F40508E9FDFA0E11141014081612040414E6060AECF4151C04FCEEFD021311FEE90FEFFDF6FDFC0417FBFD18
072BF60F10F9E8F2F70CFE12F2E3CE1A01141B01EF040EE9FA0115050D161B14160A09F119E20605E4F1180D0806E8E90E1006FFF113EA02FEEF03F91B0A081C
FE210EFC05FEEDE4F619E51B01EDDB1DFC0C1406EA0D12EAF10F121302161E130C0300DE1DEFFD17E7F80B070004F0ED1312F8FD000DF006FE0506F910070617
F61F24E5F4F5F1E00112E50F04EAF213030C241C041319F0F90B110FF7081F18FB0803D324030318E1F90705FDF600F51D17F2F7FF00F9EF05040CFBFC08070C
F6150FD6F5F913EE0C14E11014F50C030F08201319151808F50F1108E4FC221CE60304CE2316F514FC09F9EDFBF7020C2518F4010AF30FED0C1B140AE002FDF8
E7170AE1100218EB100BD20B19F212FE13FC1B021B232A0EEE0D120EEEFA100BE4F708E11A17F81310FAF3F1F40400132414ECF81BF30FE708210F15E200FAF1
E60404FB250C11F30D0AEFFD1FEEF50507F61CECFD1820F8ED121506FE0C08F2E70808F01811F8060EFD0AF9FB04FF0D151CF7FD12FB0EF214201409E60FFCEF
E904050422FA05F01610F20322EEED1410F30FEBF41B2E05ED0E16FFFB0D0BF8FF1305FA1904EBF3060013FEFAFF01FF0729F50709FE0AF31713170E040F08F4
F904101C210C0EEE1805F5001AF3F31100EC15EDE5001B06F60918F10B1F07FA171D08FE0AF2F6F213F923130C0AF8F6FF14011301130B000F051209151515F7
07FC15211011FFF2FF0603FD03FDEA00DD0008F2F5FBF5FCF71A0AFF091700F8170C06F309E9FB090E000D0908FEEEFCF70B0314FC17E9F009F410000F1B0EFE
1CF60711F807FBF2FE040301F501E308CCF4FAEFF000E0FD011F0FF7161606EF190001EFF4F6FD1306F0F80D0106F807EDFD0316FFFFD9EFFE01FB04071B0602
19FFFD1011070402F2080EFAE3FDE40DC4F7FAEFF303E2FAFA1A0C040F0BF2EF10F400F1FDF2FF0FFDEDF300030CED15F1F00C1AFF06DFF6F6FCF20A0005FF08
0E09D70021FFFF0DEDF906F6E206EAFCD203FAF1EEF6F8F107100003101304F301F801F90FF30215F7FFF8050308F304F1F90E08F403E6FBFB04F10B05FD0006
0D13C8072304F50EEF0704F9F5F3ECFFD80A00F5E5F8F7E1050A080114130FF504F5060623FA070CF7FB00100508F109EE000905F604F4FBFD01F40409FA0A02
0410CEFD1B07EC1AEDF001F7F3F4ECECE20CF5FEE6F6F9D705FB04051EFD15F7F9EEFC0A16F40810EE03FB0D080DFB00E7010CFAF2F7EFFFF8F6F309FFED05FF
0AFFDFED050AF017F8F313EFF707F5DBF30DE706F0F7F0EB090AFB0210EE2406F8EEED0B00FA1514EA0D00EC110DFFF9E7F904F0E6E7EE0CFEFFF80CF0E9140A
0EF0EAF3F409FBF70B0B090E03FFF6E90D05EDFDFA11F8F1000AFC06F2F018170401F2FCEE000311F30EFCE9061303F1EC0CFAE9F2E3060AFF0C0205EB021005
0401F7FCFD0D08F20C0B0506040DFFF608EF00F802080001070E0AF3F8F70F091100F6FC0101FE09FC1008FB000507FFFE03F4FAFCF7030A0A090302F10113F9
0000FDFF000103FE01010301000201FE02FE000000010001010200FEFFFF0201020000FFFF00000100010200000000000001FFFF0000010201000000FD0001FF
00000000000000000000000000000000000000000000000000000000000000000000000000000000000000000000000000000000000000000000000000000000
0002000000000000000000FF0000FF0000000100000000000000000000000000FFFF000001000000000000000000000101000001000000000000000000000000
FF07F9FEFF000102FFFEFD0002FBFE00FFFF02000302FFFF0300020003FF01FFFFFEFF01040400020002FE02FEFF02070400FD0402FE04FFFD04000401FEFF00
FC05F5F6FD01000107FEEFFFFB06F1EFFDF7FBFE0E09F6F808FB0DFC07FA0902FEFEF405F705FE09FBFB00FBF7F70000F40BF0F7FCF7FFF1FC080B0AF4FC0202
08E10FF70201FA080503F7F6FA07D0E908ECF5F90604FEF4070611E904F105FDFEF3EF02DF090008F8F605F2F6F707FCEBFFFE0F06FBFCEEE904FC08E7FD00F9
17BD12F508FBE4120B02F4F9E70FB9DD02F3EFFCF602DDEC06F30DF010EB0B000607EF06CDFAF805EDEF0EF4FDFFFBF6DA110C01F0FAEDFAE6F8F908FAFBFC01
0EB6F10301F9E0070F03FCFBE705B9ED03F8F7F2EE05DFF9FDFB15FC03F714F20715FB07CDEF000EF7F41007FD02F505DA190506F3FAF4F2EB01060B0109FCF7
10B1DF18110DE206010CF703EEF6B6FF080906F4E6FEE2EBF8FF0E00070D15FA120FFF16DAE5FB18EEF1100807FCD903DB0D0C03F3FAEEF1F701F609141302FE
19CCCC1B12FDF50200110107F6F4C4090E140CF3EAFCF7F1F7071303001113071A141007E8D6FC0AEEF51B1A0701D605E80E0D0AF806F1F4F806FBFD2012020A
20EAD00705FDF5EFF113F811FBF5D80A020E0E06F1FDFCF9F8011509FD160D1E16FA0F02F9DB0119DCF4101700FFDB04ED0B0B0AFF07FAFE02FFF8FE15FB0518
140CED02FBF5F6E4F613F41D04EFE11914161404F404FC01F5040E06FB170F1D05FB03EEFECBFF12E7F00F04FE0ED7EFF50702FDF901FFFFF4F903EB1106F615
152508FA00F2FEE8FF0EF02109F0EE19060E0C0CF50D00F5F3141610F10F0E26F6F303DF0BCBFE1AE2FE08000308DBEA051CED04FF09F5FAF4000BEE000FF61F
051506E6F60504D5040FEA1708EF0E0D0B0821110D151405F6182211EDFB101AE9F3F9D21BECFA1AEA120EF50101DAF51014E2F704FF08F800091201FD0E0716
09120CD4010319D40403DD0516FB1F040F0028FE25161E08ED0B0E05F5F21D0AE9FD02CF1D09001D0A0FFFE7F1F8F7051919DBF40DFA0FF60A220E0BE9FDF6F7
F80F0AE61E0018F212FECE0617EE17FD05FA19F416171EFFF0011302F0FB1600E5050EFF1105F513070AFEF6F305F20D0F19E0F30EED0BE8161B0C06E20608F3
F400020A280AFFEC150AEBFF0CE6070102001BF1FE0D19FAEC061606FC151DEE02070E1514F7F80012011702010CF1000C16EFF906050DEC18191A08F51413F3
F1FA050B160908E91612F2090FF0F90E02EE16EDEC0F16F8F40C0E03F91610F3161B010B0DF6FBF710FF0C030010FCF40422F506050806EE150D100300180EF8
0EF7101C0D1603F40F16040703F4FB06EDF915F0F101FB02FD1210EF0B130DF4241DFB0507F000F51003140A0606F5F4FD10F50BFF11F6F50E021502061C1CFE
13011E17F30B03EF0109F500EE00F30ED8F208ECF607E1010A1914FD0D180BEB2A0C03010000010702080514F304010AF40AF60FFD08E2E9FDFC0A1114150802
22FB0812FE0CF6F9FEFDFFF5E3FCF40DCDFBE9F2FDFAD7F5FF1918FA1A10FCF51DF9FD0000FF0116FF10FD16FAFB030FF401FA06F307E3EFFC000417090EFF0B
1DF5F60A101300FDFA0207F6DF04F002CB03EBF3F4FAE2FA0B1508F611090AEA0FFEF800F9FA0309F10B030C02FEF707E9FDF70FF205E7EDFAFF02140B020D06
0E01C40017150106F4F80200E503F8F5E5FEF9F4FDFFEBF901100B01170A16F618F6F80806FAFB13F10F0D0A070EF306E600FC00E5F5F4F8FC07FE1104020B00
080AB8F30B040106FDFBFD03F2FCEEEDEF03FCFBF1FAE7E6050A03F6110D12F40FEEF3031106FE0DEB08FD07FA04FD06F305FDFEF1FDFDF2F807FF12FEF70D01
F505D5EB0C09F512F8FFFDF1FBF5F5E7F10BED05F704F2E9010705F312FB11F3F2F6EA0216030F10E004FF08FC0102F3EBFDF800ECECF3FA02030516F5F41002
0000E7EAF607F60FFDF508FA0005F5E4F70AE905FC06EBF509050BFA13F8120500F7E8000B0C101BE906FBF0030709F3E8FCFAF1E6DDF903F60AF410F1EE0F03
11EDF6EEF00901EC140F0916030AFFE510FAE5F9021CF00303110303EFF11C1B0908EDF5E6060017F20EFFE8FD1507F2ED15ECDEE9E7060E040F0606EC040F03
04F8FCF7FB060CF1100B090A030B01EE0CECF5FA040DF309061104F1F3F0141315FCF3F9F102040DFF0D0AEF010C05FAF405F5F2FCF2050A070700FEEBFF0FF9
000000FF000204FC02010402000401FC02FC00FF00020002020400FDFEFE04020300FFFFFF01000200020400020101FF0001FFFE0000010302000100FC0003FE
00000000000000000000000000000000000000000000000000000000000000000000000000000000000000000000000000000000000000000000000000000000
00000000000000000000000000000000000000000000000000000000000000000000000000000000000000000000000000000000000000000000000000000000
0006F5FFFF0201FF0000FA0003FEFD01FEFF03FF0304FEFE04000500030005FD0501FF030004FF060003FD04FDFE02060302F80100FE05FEFE07010600FF0000
FC0FF8EEF901060A03F5F4FAF30AF0F002FAF704150AF30006030EF90BF60401FFF9F602F70BFD0EFE04FBF7F3FA0A04F705F2F7F9F104F5F5040811EDF80204
00E419F60309F60505F9F8F2F009D4E6FEF4E4FA0C01ECF6040C16F00CF30DF908F2EA08D713FE07F60F0BF8F8F81206E801F7FEF2EDFEF2F0020010ECF507FF
03C817FFFF02DF0902FFEFF1E804C9D702F8EBFC01FBDBF1FCFD12F30AEE18F70B06E30DCD0D08F5F60108FFFE0106FDE5130602EBF4EAF3F2F30B0FF2FF0AFF
0BB5080301FDE7FF0D04F0F8DB07D3DA0204EDFEFE05D2FBF7FE0AEEFBEE16FE0F12E6FECD00FCFCF1F8130005F9FCF4EB16FEF1E402DFEDF602100E0408FF01
15A6F005F900F4FE010CEB00F006D5F80A04F0FDEA01D603F70A07FFFD0207FE1713F4FFD1ECF406F1FD0C08FC02E704DD130D06EFF7E9E4FA0E10060E1104F4
1999D50BF8F8FBFBFC13F7120205D70D1313F3F8EF00E102F2FCFF06F6080D14170B0DFFD6EFFB0DE3FF11030404E504E3100E01FBFD04F4020901FD160FFE05
1AA0D80701F700F10014FB17FF06EA170C13F5FBEA01EC07EFFAFD0AF90A111E10FF08F8D1DFFF03DF0507040509D8F6E50815FEF901030105F20BF116010207
2BC1EC02F3F602F30312031EF901FC111F13F30FEC04EA08F2FDFF0DF608142BF7000BEBC3CDF510DFFD09FE0704D4EFDF0F07FBF500F707FAEFF6EA0800F61C
21D9F6F1F5F9FBE8FE0A061701F9181513120701EA03ED0CEF090316F10E1524F3F205E7D9C4FC05F30B14FD0F05C8E6ED0EF4F9FE0A06FC07FB0AE40510FF17
16DFFAE2F9000BD3120BE80E11041D0A0B000FF702080C09EB170816E8FB1210F3F80CD1EADCFC0F03110AF40401D8F9F504E007010710F9010A12E5FD0701FC
0DE50DEF0D0610CD170BD9FB10FD1802050120E70D10120CEB0F0D08EC0015F5EE070DE1F8F7F5140E1908ECFD06E708050EE1F80AF809F1091510F3F90B01E9
FAF71401160511F21806DB010A0019080FFB12E50D11160AF1FF0E0BF0031AECF010061BEFFAF80C180A08FAFC01F50B070DE9FF12F90DF6130B04FBF50906E7
F8FE120C170400011705F7070AF0020B00FD13EEFC0A0DFFFA0916FBF40913ECFF0D021D02F0EF0118FE1901010B02FD0A0EFD04060406F20D0A0EFD00140FF5
07F8160EFF08F7F80B19F70004F5010CEBF70CF3FC0EFEFFFEF9110204150AF81D17FC090200FF010B050A0E000BF7030212F104F711FEEB1706120C0C1A1802
17F9231EED1201F600060301F4060B0EDBF509F8F904E3020F0814FD0D1206F61908F605070209FA050B011001FD04FCFE0CFC0FFD16E8F40004120B10161A00
19FB1519F009FCFE05F604F3E908040ED7FBF3E9FFFFD0F90B0E11F60A190FEB1D10FA100000040C0509FF19F10508FDFA0AFA08F70FE9F7F7F601110B100F11
14FDF3FFF303FF02FAECFEF4E0FFF404CBF9EC0208FECCFE030809020C06FCF312FCFCF9F80301030015F50FF1010209EF0CF405FCFCEBF1F20107190807FF04
03FDD900FAFE0700F5F600FBDC05F303DA0AF5FEFFFDD6FB06130E010A000DFC02060307F7FFFE05F810030FF9030003EE05FEFEECFDE4F0000403090AFFFD03
0200C0FBF90B0806FE02FF06E302FEF6F20BF90004FFE6FAFE0C0A01100313FC12FBFC000805FA16EC100704FD070207F70DF304F3F3F4F9030F0415FAFD0806
FE06C8F1FD13010AF9FE0001E401ECEBF80DF0F7F9FAE1EB090108FD17F616F409EEEA0604010818ED010408F807FFF5EB01FBFCF2F0FEF9FB0AF814FBF208FD
F003E8EDFC0F0107F9FDF0F4F4F6EFE5F212F0FFF1F9EFE4020A060010FA0BF500F0F0001212091AE40A0206FD0505F5EEFCFDFAE7E9FB0300FE0111FCF204FD
EBF8EFEC040DFB0C03F203F9F701FFE5010BF0FAF5F6E8FCFF0B03FCF5F10D04FDF4ED05F9050909F40804FF070503E5EFF6FFF0F0E9050B0301FEFCF4F70D01
12F5F9F904030CEA19091A11031907E612EEE7ECFF0CF207031505F7E5F61C111305F3FDE3FB0412FF0F06ECFB1F01E6F206F2E9ECF0081A0908F7F3ED070CFF
02FD04FC02020DF906040306010701F50CF3FBF50403FE06030701F5F5F90B0708FEF8FDFAFE0205000406F7000700FBFCFEFAFC00FB070B0201FCF9F1FE06FD
01000001000202FE02030101000100FE03FFFF0000FF00020300FDFE00FE030201FCFE00000000FF000002FF020100FD00FE0300FFFF000101FEFFFEFC0003FF
0000FF010100010000FF0100000000FFFF00000000FFFF0000000000FF0100000000010100FF0101010101000001FF01FF0001010100010200FFFFFF00000000
00000000000000000000000000000000000000000000000000000000000000000000000000000000000000000000000000000000000000000000000000000000
FF06FB0101010101FEFEFDFD02FDFF02FEFF03000100FEFE020103FF030202FD000001030302FF030101000500FD000900FFFD06030104FFFE04000302FFFF00
FA18FBEEF701080606F6EFF60203F5F902F2F2FF180DF702060F1AFA17FD08F5FAFAF0FE0910FB13FA12FEFDF0F4120BF504E6FCFCED11F5F6130A1AF0F9FFFF
FEF414F0F90DF80A02FEEDF5EF0AEDE7FFF0E8FE1BFFF1FE03121EEE05FD13F20CF2E608F00E0009EB1703FCF3F412FEF400F1F9F1F8FAEBF2040D12ECFB0D04
FED113FCF80CF00707FFF1F4EF05DFDAF1FEEC0308FEDFFBF6000AF10BF010EF08FEE502E21A03F6E9120704FDF41102F90DFE01E6F6F6EEFA001B15FA010C05
02BF12F7DFF3ED050800ED00E50DE0DDF701EBFD0606D313FBF9FAF714ED03FD0509E9FCE616F9FBEB0A080003FB05FDF21F04FAEAF3ECEA03F92615FB0C0706
0FAE0503EAF5F604050CEF11F216ECE70708E0F6F808D00DFBF4F80603F3FE0A260CF0FED10100FBE50404F90501F5FAE8140AF3E9F2F9EEFFFD1B080217FBF9
1998F609E701F102FF03EF0EFB08FA01140CE2FAF602DE09FCEFF4FF04020C191B09FFFBCAFA0008EB0607080B01F5F5E30B0F02F4FCFBF407F30E03060DFCF9
2081F2FFF0F6F402F611F216F208FA071B17E0F8F2FBDD01FAE4F210FFFB0A2116FC0CFCBBF2FF05E30B030501FFF2FAE10211FBEDF90100F9E5FFF61509F7FE
2A88F901EDF8FCFEF713010E00120507190DEBFCEDFDDF0800F2E90CFBFD0E21F5F703F0BFE2FEF7F5FDF8F4080EEEF2E4080EFAF0FD030503E200EE0405F708
238903F4F0FBF9E9080D040804100F100409EBF2F403FC09FCFAF105FEF40B12E9F900D7C6DC0600030DFDF40806E1ECE5FCF608FF04F70109E309EFFC08F5FA
168A17EE05FAF4CC0DF8DEFC010A1500FE0CF7E40B120106F9F2F6110500140AF504FED2BFDEFB070613FAF00402DFE9F50CDFF1FDFAF2030CF80CFBFA06F5F9
01AA18EF11FC01D113F6DFFE0B0D20FBFEF7F4E90F141501F3FBFB15F9FA0CF3F20B0EF4CBF2F4050C130AF4F8FFF3F8F607E8F8FB0905FB140C03F701FFFFF3
00E72EFD0A0602090FFBF1F70A0B1102FEFAFAE40B0F0907F60705FEF7060CE6F70D0124E2F5F5FC19050407FE0605FB000BF501080B01F409070AF2FC0D09EB
0309210BF90CFF18070A03FAFF070C03F8F507EA0F11F305090408FF070A11EF000BFE23F103FD02120BFD0AF80D0303FD0EFD04FE0806F00B030E04001314F3
10001D10DC0CF308090AFDFDFB090711E20005F50E0DD9F6110010FB0C0C11EE0F0DF81500070501040CFC03F30809060516F106F208F0F3FF000B08020E0D00
1C051611D1FEFE0D02F607F8EF050C0ADCF9F5F90A04CC06090A0AFC020F08EC1008FC0A010B0A04020AEF05EF0C0D0F010305FCF90BEFFEF501000E09110807
1CF70309D4FB0209FCF009F0E90BFF03E1F9E5FB0B0BC604FE080DF8030F02E50FFCFF0DFE0A050E0103F906F50B080A0409F9FCF9FDEE05ED01FB0B0102FE08
0EFBD4FDE2FD030B01F1FEF7EA05FF03E4F5F3FF0E0BC90304040701FAF801F3FDFB01FF010BF9FD0105FE04EEFA110EF20DF201FC02F800F20201100907F600
FD05C5FAEE01061600F1FDF9E6F7F7F9F8FFFA0105FCCC0700060CFFFDEF06F1F4FCFA11FB07F206F70BFF11FC020709F10BF305FDF8EDFEFDFB050510FCFE05
F917C1F1EC03081502FFFC06ED04F2F10604EFF9FC03E0FBFF0D0A010AFB03EFFEF5EE0F020EF60EECF8F506F5040706F90AF6FEEEF1FCF8FD0BFF1602F30101
FB0CC8E9EA030E0EFAFEFB07ED05E8E90708E4FE0108DA030909FFF206EF04FE07EDE91702130414F6F8FEF100FE0CF3F002F700ECEA0702F90EFA11F9F00CFB
F301E4DCE80C000205FDFB07F000F0E20503E80001FEDAF5FB09FEFB04F10AFAFFF6DD00FF110310EE00FAFCFD070CDDEF02F3ECE4E3090C08020311EDF707FE
F3EFE5E6F307FB070EFA08FCF61002DC0B02E4FC08FEEB0DFD0704FDECF3140BF503EA02EF0E0103F804FE02080213DFF006F4E4E8EB090A090005FBF9FA1307
08FB00F604FD0FF912000D0CFD10FFE70CF4EFF8020CF90E020CFFF9EBF6160B0102FB03F302FE14010502EFF91307F7F004FAECF7F308130204F3F7EFFE07FE
010007FE060007F904000402000300FB07F702F901FF06050402FFF9F8000601FF0102FE02FC0004030106FF0003FD0000FE00FF03FF020902FDFCFBFAFF01FD
000001FF010104FB02020202000300FD05FCFFFF00020103020000FEFE000302000000FFFF0000030100020000010000000100FE00FF010302000000FD0001FE
00000000000000000000000000000000000000000000000000000000000000000000000000000000000000000000000000000000000000000000000000000000
0001FE0103010203FFFF03FFFF0000FDFDFEFFFF00FDFD00020200FEFF01000000FD0203FFFD0000020202000100FC02FD0004020201030001FEFEFE00FF0000
FF07FC010101FB05FEFB01FC02030301FB03010200FAFD00000203FD0102FFFE01FD010204FDFFFC0100010200FDFD00FFFF02FFFD01FCFDFFFA010001FFFF04
001DFBFBFF05FB0604FBF4F51001FB01FBF9F8F90B00FCFF090F17F6120404E7F4F7ECFD1210F90AF113FD02F3F80A070404EAFFF9F30AF6F6120518FEFB04FF
0B060405FA08F3080403F6F6020FFCF7FFFBE8F91202F1FD021816E80BFD0AE804F3E609021409F8ED14FDFDF1FB0B0102FDF000F2F6FAF8F1050B0FF5FF110E
FCEF11FAE409E5010007F1F5F40AF3EBF5FCEA020D0CDCF8FE0002F516F3FAEC0EFEEEFDF91B0CFBE216EE01F6EE12080708FD00F4F2FAF1FD061717EFFE0B06
03E214FBD1F5EB060306ECFFF70F01EBF404E502040ED505F9F8F5F711EDFCF80B07EF05EE1308F7DF09EEF501F61000FF0FFDFAF7F5F9EB00FA18100102FD09
14D705F8D6F3FA0F080DF005FF1607EDFC0EE2020A02E30E00F1EDFC03EAFC0E2301F602E40F06FDED09EEF0020009F9F40704F1FCF303F5FFFF0904F706F8FE
15C7FAF0D2F6F219F703F208001E16EFFE0ADE030EFCE10EFFEAE4010DF0030E23FBF301DE000103F116F1FD040003FFEF0511FFECF7FB010AF114030AFF0102
12A5F2F5DFEFFE05F606ED0CF61411F9090BD8FE0DFEE50FFDEBE8030FE80A1F13F8FCFBD7080903EE12E5F8FD0801FDE9070BF3F8F3060B05F502020AFDF804
18A0F8F5DCF1F803FB07F80FF71914FE0513D8FDFC0AE70FFEE4E2131DEB0D1AFAEF04F3D6010C0402FFE6E9FA0BFCF3ED0915F5F0E80C0D03DD050AF507F408
229E10F7F4F7E1F607FCF606EE2A0EFDF712D7F2F405F7F703E8E51025001807F0EFFCE2CFED07F8000BE6EBFB0BF6E7EA0AFFF9F2EDF311F8DFFC04FF02F409
19991CEB0002EAE107F5FBFEFB2119F9FA13DEFD0B0AFB060EF2D41413F614FAF7F50BE4C6EC0FF81507EEDCF80FF0E4E302FAF8F0F9FB1300EAFA03FF03FB0C
03C623EE0902FFEE0CF1F8FD0A2218F4FF05E5F5101200030EF0E9060BF615F7EA0B04F7CD0101F81615F8F0F70805EEED09F4F6FBFB070802F30109FAF90002
FEF524000A01FA1902F500F7051316FBFDFBF0EB1207FB0A19FFFDFF0D0612E7010A0124E405F9F8160FF202FA040303FE0BF204040004070C05FB01020607F4
080D1F01EE00F51C0A0108FF010D1805F402F4FF140DE5FD10FA07FC080D0BF20C12FD1EEE07080D0B05F706F00604070009ECF7FCF6F8FE01FD0A0FFD0100F9
160F0E04D702FE1C03000DFEFF0B140AF6F5FAFE170BDA030DF30FFC100C17F608FDFE10FB0E071906FCF0FDF5061311040BF4FCF6F8F800FA080104FAFD0603
110100FECA00F90BFAF906FDF30A0600EEFEFB0E1709CAFFFEF407F702030BF90EF2F20EF9100E130401EFFAF000130F0907F903FCFBEFF9F704020BFEFDFE0A
1907E7FED0F80315FBFCFE00EB0F000AEEFEFB071A0FC304F8FB05000AF907F7FB04FC0AF918F70DFDF3F402F9FF150B0B08FC04F505F7F7ECF9051109F5FF0A
15FECD03D4ED0B12F7FCF703F5090D0AFD06F9070E03CE09FAF3FF02FBECF6FAF4FF05090310EF06FFF8FC04F2F91514020BFB03FEFEFFFCE904F6030FFCF90C
FB01C5F7E1FC121202F3F905E70600FA050BFC090801CA03F700F9FCF3E8FD00F0F7F30CFF07F5FDFAF1F604FE001103FC0BFAFAF5FCF803F906FC070AFA000A
FE07C7EBE3000B0AFD04F30DE8FCFAEE0A04F10C0D0AD4FB0402050004E2010403F5F2130C15FD09EEFAED01F6010CF4F408F4FFEDECF7FBFF10FF1601F405FD
F900CDE6D2FF140F040AF616EEF8EFE00D04EF190312DC01050DF002FDDDF70807FCE80CFF130417EEF7E8F5F4FF0CE5F60500F0F0E6FC05010F0412E8F80403
F702DEE1E1060C040806F310F0F9F7D71105F00D0B09D50EF909FDF4FCE4070AFCFDE6FEFC17FC0EF80301F7FBFE13DEF00FEFF0F3EA10000704080CEFF60804
F200FAEFF7F6061903F904FCF00405E30907F40309FEE818FBFEFEF5F1EC0F07F607EE05F903FBFE0500080907FA10EFF10A02F1F1F90B0401F0FBFEFCF4000A
040003FC02F80F0406F90803FA0B05F10DF4F8FA0503FA11010602F8EEFA150AF900FC0AFC03F60B030507FCFD050AFEFA04FEF1FBFD080DFE00F5FCF4F905FF
0300040002FF05F904010404000601FC07F8FFFE02030404030301FBFBFF09040000FFFEFF00FE04000101FDFF0202000003FEFBFFFE02050001FDFFFAFE01FE
00000000010000FF000000000001000001FF00000000010001000000000001000000000000000000000000000000000000000000000001010000000000000000
00000000000000000000000000000000000000000000000000000000000000000000000000000000000000000000000000000000000000000000000000000000
000000000000000000000000000000000000000000FF000000000000000000000000000000000000000000000000000000000001000000000000000000000000
0103F8FFFE02FCFFFF01040005070603FD01020101FFFE03FF030200FF01FFFF0900FF00010000FCFF02FF02FF0101FA0200FCFCFA00FF0001FD030101010205
091FF7F7FA0A03FEFE05FDFA10100704FCF4F6FF0A08F5090F1211F90C0102ED0AF5EEFD160B020DF510F3FBEFFC0FFB0102EBFBF5F41001F711020EFCFE0903
0F0F00FAEE08F500070705FC0D16FAF406F5F10A0E04F300FE1005E701FB0EE40CEBE2FF080D09FCEA12EEFAEAFD0E0002FDF3FAF0F006F5F40C030EF4FB120F
010111FCD806E8FF060E0EFCF21209ECEDFAFC110809DB060300FDEE0BE7FDED11FBECFC081210EEDF0EEFFBFDFA15FE0EF4FC05F2FBFDEFF5001103FAFB0905
FEFD16EBCAFAF602FB10FA04FC0508E8F503E9081509DE09FAF5FBFAFDEEF0FD12F6F2010B1808F9DE0DE1F502F50D0409FCF40201EE02EF02030E04F7FD00FB
010007E4C7F5FC02F70FEA08041216ECFD03E110111ADC0602F6EEF700F3FA1014FBFB02F50D0E0AE413D4F1F8FA10FF050006F7FAE80D000A07110EEF03FEFD
02FC03F0D9FEFD11FC06FC03FD1621F00610E1091805DC0E0AFAE40215DFFD0C13F2FB01000F0701ED1ADDF1F8FA0E0702FD03F6FEEA07FEFCF50E1AF3F7FF02
0BF606EFD5F1F511F600F202FD1C0FEFFC13E406150BE5080DF4E31024EA04090AF1F6F9FD060202ED06E9F6F9001001F5090FF4F7EC0D0400F3041EF7F6FE0A
09EC0AEBEDF8FD05FCFFEF03F91E13F0FA12DC080400EB0002E5DE0D27F00B1712E405FAFAFD15FA03FCDDEEFC060BFAFD0817F2F3E5FE10FEE1F70CECFEF506
09EE0BF1FFFEE201FCFCFBFDF82913F1FD15E50603FDF8FA0EE5E11526ED0D06FDE6FD03E7F90FF6020AE5E3EF0909EEF4020EEDE8E2F31A04E9F418F3FC0410
09D911F911FBF000FAFA07F4001E12F50113E10A0106FAF319EFD90E20F60BF701F7030FDAF912040806E6E9FE0FFDF0F20306F5F4FAFF1A08E2FA0FFBFBF517
FEF220EF0A04F905FAF605FB081C0CF6F516EA100905F00020F8E81215FCFBEFF0FEFF01EB040AF7140DF5F7F7060502EAFE09F6F7F8061308F0000DFCF8030A
070329ED0405FA21FCFC04FF040E190BF30BF70B0B14EEFA15F9F70C160702EAFBFE0914ED020EFF0F0CF502F807FE0FF603FDFBFBF2070E0104FD0D0905FCFA
090E11F9E600F62401FF0EFEFA121B04F407010F1411E7FE13F7F6030D0604FDFF000123EEFF09110806F1FCFD03FF090605F0FAF7F2F509020103040608FE02
1316FDFDE0F2FB1DFCFB0600001405041004FF121C17EC0703EA03EF030AFDFAFE06FD1AFD0FFC08FDF803FEF6F81312070AEB00F505F103ED060207F6FCF907
120BE8F7D5EEF323F6F7FAFAFC0F08080608FE0F1D0EDF04FAE30EFB0003FEF6F6FBF70E0319F51006F5FE08EDEC100E0A0AFBFAF801EF02ED02000900EBF50B
0F0BD3F2D5E4011AF203F700F60B0EFF0D00F61B1D0FE103FFDFFFFBFAF302F4F300F616031DF711F1F4EC09EEE91B0F0E0FF0F2F9F6FBF5E30AFE14FFECE711
0E0AB8FACDF60C18F5F8F908F90708011109FC111611D80DFEF1F401F4E0FEFE0206FB1D0B0FEE0AFFF6F104EBF01502FD10F401FBF6FFFDE402FC080DE8F301
030EBCE9D9F5131004FEF102ED0602F71907F40E170AD008FEFCFF08FDD9F90B02FFE609FE0DF40DF7EEF308F0F015FEF513E9F7F5EF0305FD0B081605F0F00A
01FECEE0DFFB1107FF05F709F10601E51106FA170E08E208FAFC02FEFCDEEE090D02EA0A010EF20EF0F9E6FFF5F009F2F20EECEFEDE00608FD11040DFEF4F808
0200DDE3E2F40E140202F50CED0FF6E00F0B0116140BE50BFDFBF2FFFCDDF40D0400E501090AF300F8F5F203FEF60DE9F810EDEDF1EAFDFDF700080EF4F3F902
FCFDEBE4E4FF100D06FCF809F901FFE30EF8FB151407E01DFF03FDEFF7ECEE0A01FDE6F50317F7F800070102FCF218DCF20FF1F1F9F31206FE030E0AF9F7FC01
02FB03F8F7F4151409FC0102FA04FDE915F0F6FA0802EC24F90808F0ECF10003F406F803F7FFECF50FFE0CFEFFFF0AE9F106FCF900FC0B02F8FEF9F9FDFCFEFB
0502060001F1070C02FA07FFFC0B05F90CFA02FD02FBFC10FE0301FAF7FA0303F004FD02FFFFF8FC06010C0400FF04FDFB0504F9FD080404F8FCFB0000FCFC03
0100040002FE02FE01FF0101000200FE04FDFFFF02010401010100FEFE00050100000000FF00FE02000000FEFF0001000001FFFD00FF0002FE00FDFFFEFEFF00
00000000000000000000000000000000000000000000000000000000000000000000000000000000000000000000000000000000000000000000000000000000
00000000000000000000000000000000000000000000000000000000000000000000000000000000000000000000000000000000000000000000000000000000
00000000000000000000000000000000000000000000000000000000000000000000000000000000000000000000000000000000000000000000000000000000
02FEFBFCFE0203F60004000106050502FDFA01FF0408FF03040403000000FB000800FD0201060105FD05FF00FD0405FC0200F7FBFDFE060402050200FF0103FE
0A17FEF6F5040DF5FF07FEFC080A0BFFFDF0F9050F10F70C100C0AFBFFFE03F710FFF5060D0B000BF80BF3F9F5020EFE03FEF2FCFAF41102FE0BFA07F9FA0AFA
042502F6F2FEFC050103FF0706060BF10DF8F807190DF20D0003FCF7F5F509F20CF7F0011108F9FFEC0BF6FDF1FA15F60EFFF0FDFCF40AFBF300FEFEF2F6090A
031013FBE000F00AFC07100C061212FCFDFBFF03060BEF0DF6F7F3ECF4ED040018F9FB081306F8F4EB01EAF7FDF20EF91AEA05FFFDF402F1F4F9FBF6F0F70905
FF0E10F1E3F6FA06F9150A08F70019EDF902041B0C0FE91AFAF4E5EDEEE5FC0520F601020C0EFFFCE403E3ED01F10CFF1CE906FE00EC03F9FAFCFFF3EDEEF9F7
FE140BEDDAFAFF04F809F50CF70F18EE0811F81B090FE408F9F6EBF5FCEAEB1314F6FB0508030BFCE609D1F007FF090713F20EFC00F510F3FEFD08F8EAF3FCFD
FE1B19EFE4F5F6150101F40103150FF10A0EF2130612EE01F9F8EA0701F6F8041304FF070207FD01EF09DAFAFE010609040609FB07FC08F806FE0408EF04FD09
F91908F1EFF8EF01000D0501051912F90918EE110105010C05F1E9100DE9F71616FBFBFD0803FCF6F6FCE4F1FF0D0DFDFBFB0BECFDF50A0B0DFC0D03F7020308
F81C14F3FAF9F3000401FB0B03110AF70516E30F020801FAFEF3E01012EAF91312F60506FA09020602FEDAE6FA0709F802FD0CF7F7F1041401F5000DF1FAF50C
FF1409F0F900F7FFF7040806FC1C11FCF813E91AFF0AFCF30EF4EE1218F6F00A01F6090EF8021100F80DEFEEFB0F01F7FB0007F1F6EFFB1C08ED0708F2FFFD0A
09121A01FD01EE09F9F9070201160BF9021BE7210310EEEB0BFFF30F20FFF5F7FA01060AF8FD16FB000CF6F0ED08FCF8EF0D0BF200FCFE1A06F6060AFC00FE12
050E1AECF2F6F905F3FE0B06000C0EFEFB15F1220B0FF0F412FBEE1B16FFEEFEF6FC000AF2051700030AE8FBF7120700F6080AFEF9F7FC1A00F1040F0708F213
0E1223EDFBF6FE1CF4F50207FF1414FC0615F2251411ECFD0BF4EC0C0D0AF9FDFF090511F7FA0E0C0D02E9FFF2FFF906FCFEF6F807EA071DFEF5070D00FDEB11
12110CF2EBFEFF22F6060805FE0C0C09FD1A001F1211EB010DEBF6080D0DFAFA0000021BFD01020708FDF105F600FD0A00FDF2F9FBF6FF0FF9FA070B09F7EF09
120FEE04E9F6FE1FF6F807FBFE19080A0407010A1712EC0906E809F70406F6F606FBF818FD08000E09F10303F2FE020C0301F401F4FC0006F2FDFA0904F8EF0E
0405D2F4DFF2000CF8FFFEFCF90E0D091604FA130E14EC0002E7FBFFFEFDFC03FC01FB160108070DF8F2EF0AECF302070713F3F6F6F7F606F40506010DF1E80C
09FEC7F4D5EE011F01FFEE02F3110C021904F10E1414F3FB02EB0208F8F2F600FB04F325030DFC0CFFF4E60CF2F712FFFB13EFFAF4F4FF02DE05FF080DE2E209
0E0ABBEDD3F8101503F6F308FB0B16F71802F5141915E5FF09E9F9FDF6D9F203FE0BEC18FF19F407FEFDE910F1F016FFF70DE4F8FDEA02FFF106F80D0BE6EC05
0304D1E4E0F5101200F1F002F70C04E91A0AF5151909E401FDEAF9FEFBE2FB0CFD08EC1A0710E903F900F50EEDF00EFDF012EDF7FBEB04FBF4FD060A08ECED02
0208DEE6EEF5031A03FBFD09F90B04E82104FC1016FFE90700FAFBFBF8E5F9040510EB120104F2F8FCF3ED0FEFF10DE8F714EBF3F4EE0105FCFD090407EEF403
00F9EDE6E7FBFB050808F606FE07FDDE0FFCFB1B1107E80E0AF2FFFCF8F1EB0D0F0AE501FA0FFBF4EF0BEA0FF3FC07DCF01EEAF2EFF4040AFF031110FCF90012
05FAECECE7F706FB07FFFE05F40DFDEA0FFAFC0B0B04ED1808FEFDF1F0F3F00B0704EEFFF306F8F8FD0BFA05FA020DDEF113EBEFEAFA030506FC1008FE02FF08
0BF7FE01FEED0D0B0FFC1200FE1902F315EC00F608FDF51C000809F3E4FBF702F30DFC02F6FCEEF10FFD110300FC09F5F708FBFAF7080205F6FCFCF90502FFFD
FEFE02FE01F4050CFDF905F9FB0A02F907FCFFFE02FDFD0C02FB01FDF9FCFE02EF000006FC01FDF70701090401FD06FFFE0302F8FE050504F8FDFE00FDF9FD04
000001000001FD00FD0001FFFF0100FFFD03FC0000FD01FD01FDFD020300060100FDFF0400000100FD01FD000000000000FE02FFFCFFFF04FFFDFE00FFFF0100
00000000000000000000000000000000000000000000000000000000000000000000000000000000000000000000000000000000000000000000000000000000
00000000000000000000000000000000000000000000000000000000000000000000000000000000000000000000000000000000000000000000000000000000
00000000000000000000000000000000000000000000000000000000000000000000000000000000000000000000000000000000000000000000000000000000
01FFFCFCFE0102FB0003000004030200FFFE000002040000030202000200FEFF0500FE01FF030103FF03FE00FE0102FF0100FDFEFFFE040200040101FF0101FF
030DFDF1F60005F80407F801050E02FC04FB0109090DFB0608020601FEFD03030200F6FE0B0AFF09F805FCFAF8FE0CFA0002F4F9FAF80CF9FD0C0403FBFE0300
F424FFEAF0F306FBFEFAF5FCFC0A10F803F705091609F113F800FEF8EFF7050106F8F5051B09F5FCF80902FFF6F912F51001F1F1FFEF04FDF8030500F8F4FA03
FD1F0CF8EBFC03FF0200090A020A20EB07F90507160AF816F7FAF4F0EAEA0A0B23EEFF0B13FAFB04F803F4F7FAFF0FFC13F102F90CEE0908FAF9F3F9F3E4FAFC
FD0E16F4F90901F9FC15070C050220EFFBF9070B0B06010DFEF9F1EBEBE8000B2FEC090A04FD02FDF703EFF10E0507F70FDE060708F8140407FCFBEBE5F00FFA
FB1112F8FD11FBFA050E050009FE15EE01030914FF0BF30BF2F6F0FAE9EAFD0E22EE08FF09FC10FCF007EEEC0B0005F50BE207030801080909FBFDF7DF0011F8
FE2013F80512F3FA030E130D0F060AEFFC00080EFE02F40804FEEEF5F3F4F50E25F6F81104FBFE00FAFFE7F60D0610F30AF7060309F70F0F100102F9E8040304
011B1B00FF07FCFD0918190702120FF60809F714FA0500030DFAEFFEF6F4EF0C17F8F910FBFBFF0AFD01E8F80C110FEC02F90FF80BF309140E0008F7E9030502
05241BF90B0FF4F802120F06010501F9F90A0019FD1009F20A01F50400FAEB131705FB05070BFF04FE05F8F8080E0AF202F7050201F7110F15020200F7140402
032D18FFFA11FAFEFF0E0901070E0DFDFC19FE1B0411FCED12FEFD0B0FF6E90B0DF70605FD081003F80CFBEBFF0E02FF05F20D02FC0203140E040E0CF6130706
08190F03FF04FB06FE121100F80E0605F612FB1E040BF1ED0FF8FF0C0705EE07FDFD0709F1060B030308F9EFFF0605FFFFF608FD03FE0C1412FC0E0602140511
0A0D12F5F9FB0305F30113060112100A02150127FA12FBF407EFEE110D02F407F9010A01F60106FFFA0BFCFCFE01FCFB02010600FDFB00100BF507FCFC07FA0E
0A040AFB08F60610F3060B02FD071103FE12FD1A0102010409F1F70B08FAEA03EA01090DF1040B08040701FFFFFE040200F101FE0EF70D11040209000EFEEE01
0801F503F7F5011BEEF707FBF8090B0F0116FD180909F4FE10E7F40C0E04F50AF5FD021309FD0E070102F605F3FDF60801F3FF0709FC0312020007080BF8F713
10FEDEFFF9F90011F1F60D01F80F06080412FB100B0301FE09F2F81003FDFD00F90BF4140BFE0901FAF3F40BF5F5FC090CFBFC01F7F8F402EFFD0A011500F608
0603C6FEEFEDFC18F3F40AFEF60F0C081408F912130208F210DF0004FAF2FB060109F517030D020BFC00ED08F4EC090808FEF304F5FAFA01F40600040EF0F202
0BFBC2FAE2F5041CFEF9FA04FA180CFD20F8FB101C120BFE0BE6F904FCF0F809F90AEC1EFC15FA060301EE16F6EE0609FE05EDF4FBE8F6FEED0E050804EAEC06
0706C7EEEBFC0211FFFDEDFEFB0F07F919FFF613150804F509EAFCF907EE0004FC0BDF1D0114FE07FA06EA19EFF40E09FF0FE8F6FDED0001FD0F060A04ECEC03
0C10D4EFE8EE0C160701EC02050309F419FB020D1715FE07FFF0FFF2FAECFEFEFF10DB120618F7FD00F6F710EEEF12EFF013EDFDF6F602F8F111FD1106EEE904
0EF3E1F8EEFE00100E0AF2030905FEED0FF2FD03010BF10A05F3FEF4F4EFF8FF0815E307F008F2F9F5FBF70BF0F40EE6F018EEF5F3F70AFCFF05110B0400F701
07FFFEEBF30406050706FA01020EFCEF08FB030F0802E70A0CF302F3FAEDE9021200EBFAF609F5F4F307EE05F7FA0CDEF50FF0F1F1FB0D0401FE1009F703010B
FEF903F2F0FB04020A0606FFF911FBF90CF6040A0707F71D0FFB01F4F4F8E708020CF3F7FE06F3EC0A07000AFFF90AE4F80FECFBF4FD010005FC110AFD060503
06F2FA04FFF803FC0A021002011601FF0DF201FC0200FA1B090406F4F1FDEE00F40BFDFBF300F3F513FE120502FF07F7FA06FAFDF6040703030003FDFF0406FA
FCF5FB02FFFD0204030003FAFE0702FF0AFCFDFE0100FD09040001FBF9FFFAFEEE02FF06F801FEF6080309FE00FD03FE000202FCFF030503FD01FEFDFEFE0000
FEFF010001FFFE03FDFDFFFD00000000000201FF00FD01FF00FE000100000000FB000001000000FDFF01030400FD0000010000FFFF02FEFFFEFE000003FF0002
00000000000000000000000000000000000000000000000000000000000000000000000000000000000000000000000000000000000000000000000000000000
00000000000000000000000000000000000000000000000000000000000000000000000000000000000000000000000000000000000000000000000000000000
00000000000000000000000000000000000000000000000000000000000000000000000000000000000000000000000000000000000000000000000000000000
0004FFFBFB0002FFFF00FC0001000000FF0000030203FD000101010002000000FEFFFD0002040102FE02FC00FDFE04020200FD0000FD02FFFF03010400FFFF00
FE12FAF5F2FF00FDFC01FAFBFF08F703FD010A080609F50004FF07020BFFFFFEEE01F5F915090006F504FF00F9FA09000701F803FDFF04F4FA090A0A03010003
F22103EEF50003F1FBF3F8EFF2080AFAF1FE0D010FFEE907030911F809FAFDF9F1F5F3F61F020801F60F0000F4F80CFF0904F4FEFAFBFFFEFDFF0C11FBFDFF08
F22016F202F903EDFBEFFFF0FF0511FAF0FB04FE13FEFF090B0706F0FFF4FEF1FEF4F8F41CFF0604F60A010AF0F812060AFB01FC010001FEFBF8F611FAF3FE0E
F51A1E01FE0EFDEDF7F90BEE0AFB18FCF4F90AFD07F60004FD1111E5F9F705FC20E902F614FA0B08FF0FF5F8FE04070412E8FF0908F9010C03FEEDFFEDF2080A
F91311060D17FCDFFB0A0CF813FC0707EAFF1504FDFEFEFD0E0D06E5FAF600F525E803FA0BFE0A06FB0EF5F6080D01070BE60617150411161006F803E9FE13F8
FE1016F80612F6EAFE16160908FA050AF4001518F306FD030204F7F7F4FDED0624EFFCFB0201FEFDF803ECF50B0706ED16F407060C01080510FB06FEEA071202
00161CF50B19EFF4040D1103FCF60BFAFB090F18FF0A08F70DFFFDFAFCF8EB091EF5001503FF0210FB0BF9020E070DF215F7FEFCFD000E120BFE0407F1070900
01241AFA010FEFFEF80717FEFC030C02F8091115FDF910F41CFAFCF50E01EE150FF0F7080B090311F80702FE10FF0AF40FF70004010507140B02080AF702160B
061D19FEFB1102F8F70A1902030B0906EE0D0B1FFFFF0CF218F906FE05FDF6150DF4FF000D03FF09FD10F6F613FF11F417F8050A030109110DFF0F06F302160B
041C09FAFD0EFD07FC0B15FE060B0F09010D061604FE17F20AF8F70F06FDF31609F80B00F80301FE0602F4F4120003F915E90B0102F90E1408050A02F7FD0302
0511FF03FF120A08F6020BF900FA0803F6140825FF090BF705EEFB12FC01F015F2F70CFAF5060A0B020DF30612FC07031EE9100A0A000F100AFF0DF801000508
100CF402F807FD16F7050D02F80C0608FD0F03120BFD07F40CF4F80E0AFCFB05FC010C12FF0308FBFF02F8040601FE080DF9000CFB070A0503FB07FD0F010204
0C0DE9FF07010817F30203FFFE091304040F05190C0207F507F3FA13FE02F603F604071500FD0B040C07F40905FC03170EECFA090707FE0BFDFFFDFB13F9F806
02FDDE03F3030C0DFFFA02F1F1050C000411031E0A0410FD04E6F80DF6FDFE07FA0DF80A060404020909FE1500F1030F0CEDF2010807020800FA0DFC15FDF805
FCFCD40BFDFF0317FCFB0DFF040D090C0C06F6120D071B0405F508FDFDF8FAFFFB08F014FE0F07F70C0AF614F8EA02090CF3F90502FA0506F007FC0408FBF907
FCF3C7FCFAF908050005FAFC04060A060FF8F91714131EFF12F501F806F6FD02F70EE70E0213FD060203EE18EBF80E040302E40104E8FCFB001D060106F9F501
0A01C5FDF5FD0B081104F900FF0A0EFF08F700080A1B140704F106F00AF5F803FB0EDE0EFE0FFCFC0700FE14F6FB0A00F30BE7F0FEF107F1FC0E0D060302F5F8
0DFEDEF8F2FA02FD0908F302FD0D0CF80DEF0906101A0A0F06F103EEFBF5F501F217E407FE12F4FDFEFFFA0FF2F00EF0FE1AE7F6F8F8FBEBFD111C060F06F1FF
14F1E600F5F802F71413FCFF0A0DFEFF0BEE080AF91C020B07F1FFE5F4FBF7FE061FE9FFEE10F4F503F7FA05FB0012DDEA13EAF8F7000DF9070B1708050DF8FD
12EEF6F0F7F20AE9100C08090110FFF60BF0070F0015F41109FBF8F9F8F3ED0C0212EEECEE04F8F30AF7FEF6F90410E1F514F7F0F8000AFA05FF1701FF0BF8FF
0CF601F8F4F508F20D090DFEFE11FFFA0901070B0510FE1C0BFDFBFFF7F7DD08F80CF3EAFB08FCEC0F010BF902F909E5F70DF6FEFE05050006FE1404FF07FD04
09F3FDFFFCFB09FB0A021401071503FF0AEFFCFF0105FC18080BFFF5F9FCEB00F209FDF4F904FCF50D0510FE02FE07FDFC03FF040104090203000400FD0406FE
FEF4FE01000000FD030105FB050702FD05FFFC0000FE0104040102FFFFFFF9FFF2020001F90100F70403090100FF0301010400FD0001020001FF0101FE000201
FFFF030004FDFF02FEFBFFFE000200FF01FFFFFF01FE04FF02FF01FFFF000300FC00FF0100FFFE00FF000203FEFD01000000FFFFFF01FF01FCFFFD0002FDFE01
00000000000000000000000000000000000000000000000000000000000000000000000000000000000000000000000000000000000000000000000000000000
00000000000000000000000000000000000000000000000000000000000000000000000000000000000000000000000000000000000000000000000000000000
00000000000000000000000000000000000000000000000000000000000000000000000000000000000000000000000000000000000000000000000000000000
000101FFFF00000000FFFF0000FF0000000000000100FF00000000000000000000000001010100010001FF000000000101000001000000000001000101000000
FD1207FCF901FF02F7F8FBF601FCF905F800090304FDF9FC020205FC08FFFEF7F001FD0113040204F8050103FBFA000509FF00090102FFFBFA01020904FEFEFF
F2220E03FF0708FFF5EAFDEE07F3FC0BEFF20CF302F9F8F70C1814F90DFEF5EAEEFB00041EFD0A0AFE0A02FFF3FE02100100081B0A050908F405F80FFFFE0202
F41B200E120509FCF7E806F107EDF60DEBF10CECF7E805F60C1811EE0AFCF1DFF8FA0B041FFA0A03050106FFFBFFFC0EFAFD121D100D080CF8FCF00CFE01FF04
F5231608050C03F3F8F3F6F20FF5FE10E8ED16F7FAF7FAF9041F19E5FB00EBE111F707F71DFB0E0C020C0003F7FA0013FEF2041610050907FCFDF50BEFFA06FD
F82112FD0907FCF9FCF5F2F60DF4F211ECEF19F6F902FDF6061417DB06FFE5E313F7FFF41B03060301FCF801FC0404090AF40117130502060004000BEFFE0503
ED130F01FE04F9F0FDFAFBFDFDEE0302F2FA1C0B06FEFCFB060900EBFFF6E8F811F40606110B000BFC0EFBFF020001FC0BF00C08090202040B050E12F0020604
F91F11F80905EEF5FBFDF7FDF6F105FFEE0911110AFEFAF103FD0CF60302EC0411F4FA0F1508040BF110F80104FC08F61BF2FA0AF808010503FA0C0CFDFEFF02
F6250AFA0607F4FFFAF9FFF6FADFFF04F1071D0FFC01FFF3050215FD06FCE8FC0CF804021D08FD04F90704FD0AFE06FA20F9060F030B05010C070B0503FB02FF
F81BEFFB010DF4F9F306F9F1FAEF04FDF30A15120C07FAEF020309FEFD0DF00B0CF307F908050805FF0B00FB0DF80BFF1BFC0412080601070F0410FF01060801
FE14F2F9F80BFDFBF6FBFEEBF0F70BFCE71401180CF9F90000F60910FD0AF00804F007F3FA0A140B0212FDFF0BFC05FC20F70E0302FD010F0FFD0EFD0405080B
F719F0EDFA0EF503EDFFFCF2F2FD0EFEE31108190F02FCF903F805030207ED06F0F802F5FD081801F51AF50F0DF8FB0614FB0AFFF306020B0BFC1304FDFD0715
F50BE6FCFD10F604F3FC00F2F4FE0EF5EA11031110F9F5FC0CFE090C0100FA06F4F3FAF9FF0F0DFBF51DF7110603F80C13FC0307FA0C0B050B07170903050B10
F600E0FBFB0E0409F7FA07F6FD0512FAF014020E0902F8040AF7FE05F8FDF505FBF90B04F70110F4011001110DF5020401FBFE0AFC03030E09FC14000A08050C
EFEDD207F102FD0206020AF8FFFE060DFF060A100A07FBFE0A020702FB03EE00FD01F7F8FB150CF9FE09FC1507F1FF0E05FAFB07FA030BFF051215F6030C0304
EE06D8FDF7010214FFF20FF3FC130903F7F80011170C0F09060305F6FC05F2F1FA01E80DFA0908F30B05011300FB0007F8FCF5FF02FBFD06F10808F8FFFC0008
FEEED9FDF9FDFF060C0909F707180F030600F80B16111F1504FAF7EDFDFBF705E909EFFAEA1208F508FF0C0B02F803F70100F0FAFEFDF7FDFC0C0E02070302FD
FDE5ED01F3F20CFC100A05F7FD051BFDFE010A030A141912FFF4FFEBF7FEF302EA0AF3FBEF0901F50DFC090D02F5FC020007F6F4060602F8FB0A18F50A03FCFD
13FAFA03F6F508FE120901FD04071107FEF01104FF0E0D13F8F8FAECF301ECF8E918EEF2FA05FEF80CF2090AF9FA01ED0108FD02080EF3EC010516FF120AF9F8
0B05F904F8F90B020F010AF80309050602EE0EFFFD0E040E060208EFF502FAFFEA15ECFEFC0FF7F102F11100FBFB10E3FD0CF502030201F701090A02040AFDFD
1D02FBFEFFF703F8100207FD0415F50208F20CFFFB0E031005FF02FBFDFAEF01F10BF3F6FC09F2EA06F90DFFFFFF0BEEFA0AF9FE010A02EFFB091107FE08FF06
18F801FAFFF70AF30D0D0D03060FF90809FA08FFFB0C060F0102FB00FCFCEA02FD0BF7F20006FBEF08FB0AF500FE06F5040AF7FF010504FCFF020B02FD07FE01
08F300F902FF02FB07010FFF051105FB04FBF6040005FB09020602FEFFFDFC02FF02FAFDF6010202040209F7010403FC000701F4F9FD050803FF0201F5000405
01FD0100010001FE03020300030501FF04FCFCFF01020201010202FFFF0002000100FF03FA00FF02010101FAFF0102000002FFFBFDFD02030002FE00FAFF01FF
00010000000000010000000000000000000000000000000000000000000001000000000100000000000000000000000000000000000000000000000000000000
00000000000000000000000000000000000000000000000000000000000000000000000000000000000000000000000000000000000000000000000000000000
00000000000000000000000000000000000000000000000000000000000000000000000000000000000000000000000000000000000000000000000000000000
00000000000000000000000000000000000000000000000000000000000000000000000000000000000000000000000000000000000000000000000000000000
00000000000000000000000000000000000000000000000000000000000000000000000000000000000000000000000000000000000000000000000000000000
FF0001010000FC0200FE02FE00FF0100FF0200FFFEFB010000FEFF00000000FF01030200FFFF0100FF0105030101FFFFFF0102FFFE02FC0101FA00FF03000000
FB0901050B07FD00FFF503F603F90104F4F904F2F7F202FA040D0BFE05FFFBF20801060107F7050002040C010106FA05F803090A0209FE0D02FAFB0501030500
06180B09070006FAFFFAF9FA0EFDF10FF5EB0CF2F6F501FBFF1914F201F9EFE8FC0400FA17F9FFFB05FB0BFCF603FD07F40307160C0D0300F9FEFA07FF0401FE
0021F6FC00FF06FCFD01F4F80BF2F809F0ED13FA0104F5FCF5170DECFBF7ECF0FC0302F71CFC030104FF01FFF2FDFF0CF601FE100C0104FEFE020207FB02FBF9
F329FBFCFEFB0C02FDF9F4F304F0FC06F6EB0F0503FEFAFAF9160BE600F6E6F1F7FBFCF721020EF904070302F4FD0512F7F9061412000209FF00000EF7FEF7F9
EB2F00F702F81A06F2E5F1EC04E00105F9EA16FE1000F301FC1613E8F6F6DEE9F1F7060231070900090FF9FDEB010217F9F70A1915020909F50DF606FBF6E7F2
E12D04FB00011409ECE1F5EAF8D10A07F1EF19FB10F9FCF5F5150FEEF5FCDBECF8F9030437030BF8011205FEEF020A1806F5101A0C030408F503FF0C05FAEDF6
EC29F2F9F60806FCF4FAEFF300D7FB08EDF524FA0504F3F7F90B10FEF901DAF504F906ED340514FCF71105FFF4FA021302F80710110DFC02090718FF040AFF00
EE1BFAFDF9FE0700F7EEF6F2F7DC08FCECFF21FE0DFDEF04FC110EFCF315DCFBFBF80AED24040EFB00120DFCF701FA130204120F080F000507021AFF0703FFFB
F11EF9F1F5F61B0DF8EDF7F7FAE90BF8F0F516FF1801DA13000A07F2E705DFF705F908EB2F1018F805110106EE090113FF050B110E0C0F09FC04180604F6F4FE
F31CF1F9FEFC10F9F9F0FAF2FCED04FCECFD1D051808EB13021415FDEF07E2F6FC0201E5280F0AF0020A071200010312F5070306030A0BFC05FF21030BFEF806
EF0DEBFA02FB1AFB0CF105FC0BF2FDFAF7FE13FB0FFFF71700120DF5E907E0F007FD0AE2170D0FF602100D0D0E08FD0BEE06040D09080901030219FB0B07FDFC
E604E8FEF7040F0901F608F9FCEBFEF4FC060D050AFDE71DF4130006EB09D4F40B0009F3110814F1090A0F180DFDF8FFEF0903F906100F110CFB25F70A070106
E900F101EFFD130601F006FDFDF001F8FF02080617FBE822F10DFDFDEE07DBF104F8F8EF130B19EC03070F160D03F903FAFD0306FD0E0A06FEF81EF109030504
E1FCF5F7F2F7110902EA07EFF4030AF7F80509031C00F21AF80904F7F2FCD9F0F203FFE90F040CF005FF1413FFF7FEFFFAFB0D05FD060408F8F71CEC0800F9FF
EE01F402F9EE160E04F50AF3F70510FDFCF911FB1602FA1AF71000F0F6FCD4F1EF02FDF90C0015E80800130DFFFAF8FFF9F70901030B02FBEFFC11F60FFCF5FA
0508FDFFF6E71C13F9FB13FCF30D10F3F2FA0AFE0F02F022F90DF7EFF6F5D0EBE6FCFEF6150312EE09F7140100FEF305FBF60F07100E00FBECF008F808FAEF02
18050002FAE8120B080214070408080603F708F8FF0AFD16FB06F6F4FAF7DEF8EA10F9F411FF03F60FF613FE010601FA00010D0A0D0A00FCEAFA09FD0A06F0FF
1D090205FEF0081102FC1900F806010002FA07F1FAFDF716FD08FBFB05F4EDF9ED11FB0A0BFFFCF108F01905030404F1010110030711FDFAEFF506000FFFF703
0E0E02FE06F4F612FBF10BF8F208FBFCF90403FEFFF5FB0801FC000405F8F6FFE604FA0505FEFFF401F4140B04FD00FA030604F6FA09F9FCF7F508070DF9FE0D
060102FA04FAFA07FCFA08FAFC02FC00FB05020100FAFF0600FB000004FAFC00F402FDFC04FF00FF02FB0C0702FDFFFF040AFFFBFE05FCFFFCF8050706FC000A
FE0000FB02FFFD06FBF704F9FC0000FEFB04FF0400FAFC0300FD000000FDFD01F6FF00000100020000FF060401FE0000000402FBFF01FF01FFFA020403FC0107
00000000000000000000000000000000000000000000000000000000000001000000000000000000000000000000000000000000000000000000000000000000
00000000000000000000000000000000000000000000000000000000000001000000000000000000000000000000000000000000000000000000000000000000
00000000000000000000000000000000000000000000000000000000000000000000000000000000000000000000000000000000000000000000000000000000
00000000000000000000000000000000000000000000000000000000000000000000000000000000000000000000000000000000000000000000000000000000
00000000000000000000000000000000000000000000000000000000000000000000000000000000000000000000000000000000000000000000000000000000
00000000000000000000000000000000000000000000000000000000000000000000000000000000000000000000000000000000000000000000000000000000
00000000000000000000000000000000000000000000000000000000000000000000000000000000000000000000000000000000000000000000000000000000
020004FFFDFDFF000205FD060302F90504000201FF0402FFFFFFFF00FFFFFE00FE00FFFF0102FBFFFFFAFF00FFFF03FE0001FE000000FEFBFD0102000002FF00
10050DFFFAF5FFF90508F90A0A09F10B05FB0701FB0705FFFC00FFFDFBFAF5FEFA03FEF705FDF7FCFFF500FDFCFF00FCFA0200040403FDF6F6FF03FDFD05FC00
160A0B02F9F604F8080CFB0C0E07F30C06F50A05FA0A0603FB08FEFBF6F7F1FCFA0900EE07F9F3F905F201F8FB02FEFEF805020C090402F7F4FD01F9FB07FBFD
0907020501F90EFB070304070FFCFA0707F40602FB060304FF09FCF9F5F9F000FE090BF607FCFEF70FF805F7000A0201F5040D0F14070A01F8FDFCF7FB06FBF8
0808FD0900F71C0608FA0A040DF8010508F108FDFC0003090210FBFBF0FDF3FEFE0E10FF08FB01F112FC09F8020C0004F306171617081107FF01FBF3FC07F9F5
FE14FE0B08F5280F05F6120013F3FF0108EB0D00FAFD03130215FAF4EE00EEFAFF1211FD12FF05EB11F70FFA03110100F1FB19151E0D1309FB05F7F10107F3F2
03190407FEF22A0A05FB12000FFAFE030BEA0FFDFC0403150113FEF1ED00F0F8FB0C0AEF1DFD07F408FE0CF7FC0C0603F10014131C0B1405F203FAED0007F3F8
06180904F7EF221004FD0C0B04F307FF06FB11070301011A0210FBFFF3FDED04ED0E09EC180008F507F305F7FA09FE05F60E130F0E0E0E03F70202EBFE03F1FF
131C0B00FAF125110AFF170D00F5FD0010FC0B07FA01FC250A0CF2F9F0FCE609F90508EA16F308E20CF409FD050EFD00ED0E1F0B0D0E0B01F0F800F00704F509
051E080A08F52D0E01F82302FEF5FDFD0AF310FFFBF5F1270613F8F2EA04E3FDF4000CE91AEF07E80EFC1200050EF906E70B251811111402F3F4FCF10405F805
FE270A0EFEEE3D0F11F92B0B12F0FE0417E1120AEF02FC32071FEEE7E5F8D4F6F30313DE1CF704D718FA16F001180DF7E0FF301F241A1E0AE6FAF8E9080BF0F8
F71E090B07F5251D05F623FC00F0FBFC11E80CFEF7FBF7260516FAF1EE01DAF5060013F7170305DF14FA15FF020A0B01EA011C131C110F11ECF8F3EC0306F3FE
FB1D0D0B00F62C1602ED1D0105EFF5F910EF0C00FEFBF4210216F9F1F7FDDEFF01FB12FA16FE02EA19FD14F9FF0906FDEC021F1A17110E17F2F7F2F50B04F0FD
F319080AFBEF2E0E03F2120506EEFB0307F00FFFFEFEFA240313F8F3F6F4E0FDFFFA11F414F905F619FF12F7FE020505F2FB1E1C1C100E08F0FBF9F40B02EFF6
F516050B01F62812FEFC1E0103F0000302F507FDFCF6F722FE18F6F2F3F7D6FDFEFC12040FF80AF21AFE14F9FF02F705F4EF20191B0D0913F5F4F4F10503F2F9
0113010802F51D1A01FB1BFC00FB0AFAFDF700FAFDF3F918FF13F6F7FEFCDD00F8F30D0E07F20EF1190115FB0406F004F5F12210130D080FF5EEF1F406FCF7FE
1113000700F1160A040214020105050103FC06FCF902FA18FF0DF7FD03F8EEFEF80406FF08FD01EF10FB10F8010200FBFDFF140C0E0C0503F8F6FDFC0904F7FF
0F0F000802F8100A05FF11FC06FFFF0403F806F8FBFFF413FF0BFCFE02FAF7FAFF040505050100F70CF70EFD020203F9FFFC110F0E090101FAFBFDFC0703FAFE
0306000405FE070901FC08FC0200FCFDFCFA01FEFFFDFB060006FFFF00FFFBFE00FD030601FE00FC04FB06010200FE0000FB0A06060300FEFCFEFDFD0300FF01
0001000000000201000001010100000001FF000000000001000100000000FF0001000000000000FF01000000000000000000000101000000000000FF00000000
000000000000000000000000000000000000000000000000000000000000FF000000000000000000000000000000000000000000000000000000000000000000
00000000000000000000000000000000000000000000000000000000000000000000000000000000000000000000000000000000000000000000000000000000
00000000000000000000000000000000000000000000000000000000000000000000000000000000000000000000000000000000000000000000000000000000
00000000000000000000000000000000000000000000000000000000000000000000000000000000000000000000000000000000000000000000000000000000
00000000000000000000000000000000000000000000000000000000000000000000000000000000000000000000000000000000000000000000000000000000
00000000000000000000000000000000000000000000000000000000000000000000000000000000000000000000000000000000000000000000000000000000
00000000000000000000000000000000000000000000000000000000000000000000000000000000000000000000000000000000000000000000000000000000
00000000000000000000000000000000000000000000000000000000000000000000000000000000000000000000000000000000000000000000000000000000
00000000000000000000000000000000000000000000000000000000000000000000000000000000000000000000000000000000000000000000000000000000
00000000000000000000000000000100000000000000000000000000000000000000000100000000000000000000000000000000000000000000000000000000
000000000000000000000000000001000000000000000000000000000000FF0000000001000000FF000100000000000000000100000000010000000000000000
04000200FEFD0500010101030100010100FF00000001FF000001FD00FDFEFA00FC010101010000FA000001FC0000FFFEFF01040203000001FD0000000000FF00
03000200FFFE05010101010201000200FFFF00000001FF000002FE00FDFEFB00FC01010201FF01FB010001FC0000FFFFFF00050203000101FE00FF000000FF00
00FF00010100010200000101000004FFFFFF00FF00FEFF0000010000FF01FE000000010200FF01FF010201000100FF01FF0002010101010100FFFF0001000000
FD0101040500050600FD0401FFFE09FCFFFEFFFDFDFAFEFEFE05FFFFFD03FB00FEFF0504FFFC03FD060206020303FB02FAFE0A050504040401FCFCFC04000000
FF03040200FE030301FF030401FE010003FF00FFFFFE0000FF02FE00FE00FC00FD0103FF00FE01FC03FC03010202FF00FE01060303020201FEFFFEFE0200FF00
0103050200FE05040100050201FF020003FF00FFFFFFFF05FF03FEFFFEFFFA01FF0103FF01FE00FB04FF03000102FEFFFE02070304020401FEFFFFFF0101FF00
FC0000040503020600FD03FFFFFF0CFBFFFFFFFDFFFAFE0000040100FF03FD0003FF0409FFFC05FE040603050201FB04FD0006030302020703FEFDFF03FF0100
FB08050400FE0D0402FE0B0202FE0AFD07FC0002FFFEFE09FF07FCFFFAFFF200040005FB01FE05F7090005FF02030001FBFE0E0709030606FDFEFDFB0201FE00
FB060202FDFD070004FE060004FD020307FD0203FD0003050003FD00FBFDFB00040402FB020300FD050502FD000105FF0204060506020106FC0200FE0102FD00
FF0200030000060303FD020102FE02FD03FF0001FDFD01030001FE00FE00FF000200030101FC0000050303FF0100FD01FFFE070405020304FEFFFEFD0201FF00
FCFF01050303040701FE050102FE04FC01FEFFFFFEFB010200040000FF03FC0003FD020A00FB04FE050203040201F90300FD07040402010401FFFDFF03000000
FF00030603FF09050301090406FEFD0003FC00FEFBFD01060006FE00FF02F60005FE020600FD02FB08FF04010202FB03FEFB09070803FF03FF00FCFB0302FFFD
