E4F3EC0FCB1B1B1E2ED3
E41CD5343119C0EC1305
B4E8FA34DF40E5CF5305
220221C6EBEDD3DF3005
09ECEE0DF531D2C31EC8
1098194B22EDDED5EB42
F0C2E613F1F9E2F01532
20ED25CBCA1EC7E824C9
19E50895B8CB211B301E
CDED351C44A1E914C5F0
020AEDE80718F3F7D30C
CFF0E50F1ACE43DEB341
1CCCDBC035FB3AECE901
201621EEC01518F919C3
1B1DB813F6250614F9C4
A1FF39D4DFBE254418D3
25FACFDB42114BCABFA4
A8EB4DC8FAD23936E8C5
E8E0CA2FE412D13ED92B
ADD6BC39073DE2E85C1F
001FF30BFE10F704F111
E30A98021FCB34D1AB1B
29BA47B6E613EEC91E1B
CEE80A31399A15F526D0
112E07C917110BE9B2D6
DB072DDA02EC135B15C3
14F0FAF10F30F7FACCD4
1E28F1FCF50802180BE9
DCE5162922EFFC25EBBF
0318FA0BFAE71F1409C9
08D51410E8FAEC139813
FEC2040CD61CE531F725
290532A809B51E16D915
F314D9E527E700F306CB
1D1F00D421E60207EB20
0512F21CFF05E2F0C627
D811DB10FDE4141A25F9
04DD2CD619D3FD141B2C
35DE41CFDB37C8F228E6
1B2F1908AB12E00F1AF0
0BEF24FE42A8D4CC1E33
1F170DE433030E8710D1
141A0804C9022109000C
1721F90C031609F8DC15
D4DBFBD7993E0FF958DA
EFFD0FF0F71226F4CF07
F41EDA070C060B18DC09
23B2ED0DF323E21FD0F8
E606C71C33E21209E5F7
E71BE32DF4F4DA22F8F1
F00817AE17270E1ED0F7
08C7FDFEED18A9D90D29
0F1F05F90601F8EAD6DF
0001B90022DCDBE60F26
28BA2204CA2EEDC638F5
2CC84298DA38DC0A1EB1
D21418290309EC0820D5
DBDA0E3910F728D43222
CCF5F33849A30D0AD507
DD15C929110DC3E82608
E9D4F1F631FDE9F149E7
C5ECD028FE1602E049F2
CB3832E5E8DD1E3326F1
14D408DF05F50FC80F26
23E817BDE41EE4C306AB
20120E05C9F71B0DCC28
EF1BF70FE50FBED6F428
0608FD2D1A0608F6B612
F8F32CC9D4AF27260924
1F1AEB0F042410FAD507
FA0017BC05C5301FC016
F601B552280F94D72131
29EFD13BEF4ED21A0314
100B21A700D2121EE8DB
18C321CFC70001EB3224
0DFD33F2F4B8101EFC15
E80FF3F816E211BDDB10
EAFD1B4CE216C30717FD
06F3E720CF11E30211EA
D7EAC9052D9C33F9F12E
9CE41805F418FA2716F0
1C1BEEE42A0A25B00ABB
DA09CB12EB09EA1DEC06
29D5D70DFE23F30FDAF3
1412D92BF50AC2DDE632
2209F1EDF4C7131BE626
F6321530D9E0EF2525D6
A8FDFF2205B6F91C2FE6
0706271713EE16EACFD2
13E719AB8FE626432F1A
FD05CEF811EA2DF90204
CF1CD20C31BA0C12E9F9
14ED1414F4F0F5E915D7
CA0C0EF6F3DAB7DD491D
37D412C89E08141555AA
E012EA060DF7170D2DB2
080FFAE0F3BF07F9F525
050523D2E523B1C553FB
11FEFC8E430B3415DDA9
FE0DFEEDEAE817F5EC09
0907D2E02C0918B81FA6
98D3ED37E969D6C654EC
18D3FE0337F549DDBFFF
12B52AC51F0D1F45DFB7
B6DCBB1924EB18270232
F30EFF10E9F9EBFAEDEF
1721010B16F308FADAF8
1124DB1022E506E110EB
0FDA41C29C2BBD153620
100824AE0E9B27309D23
06D027050EE706FFC034
080CEB0CEB16DF03E8FC
2ACC2D060625F5C123EB
CFFD172CEE25BF1E3219
0121CF08FCFDEC10F210
BA17AE4A19C90D1BF83E
29FF0EC99D1CD52C1CDD
01F1C64E43D8D0C238E8
C813AB2A0AEF2020D90B
12092E8D18FA0EECC61C
3EC4E7812F1A34E19A8A
C7EA42C701ADF320D3F9
02D217B88625D42A321E
E5F7081CF50AE23121E6
202F0FB5132112D9F8FD
05C70552E51ADCE3E5CC
D90020485BEAE2B2E7DD
F8AE1DD81F024226BFDF
