DEEDE71219F9EBF6E90D
FEFE0ADE050EFD16DB14
160D0909FE14FD09DD03
110218081A19E1D1E0FD
E6FCDC060C0514FEF2E9
021BF2FA100C0502DDE5
0A09F9F7D618171508E4
F11414EAF212F211DEEA
E4EB28EDEECBF81D0F1C
0E1718CDCDE7181814FC
12F911EA120AF1E7DBFB
1A0E12E7D9F207ED0EEB
1C0619DBE60113E3F00B
0D08170EFFC2F1E5F61A
FE00CD1E180FF50FF0E1
0113E4E3182510D10601
F4121200ED0118D80DD9
190ACED90907171018ED
0CF40D0EE7E7EE0DE308
081410DD1003EA05FB12
F2FB1EF32626E8D3F3D8
11E61AAD2603ED07ECE2
CB0B22E30D151C1901EC
090510FDD2E6E80E0CD8
C0FE090FDE05131317ED
E90B14080ADD0C0AE612
010ED3D6FF03150402D5
14FD03BF130D24CCEBC2
C7C82F0AE921E8F9510E
0B11160EECF9F0E005FC
1107EC150A17CC01F4DA
F6E322E5813BE2302D1A
F51AEB1201F4D91D150E
B7DCF90D0806DF271A12
F9D11919EF13EEF9DC01
D9EFEB0E0CFC1FF2D80E
DC1AE0220908D8F3E307
FDE10FD4061B1D0CF6D2
0FDF1BE6EFF32017D1E5
E6C912EDF5071A1AEE15
170C03D00CD606160DDE
1CCE02CCC639CAEB2508
0919E013ED0412140AE3
DE06EAEF10DE120818DE
F719CE0A0BD60604FF15
140F06C00B1713E5EED7
E319E11912FAEAE6EC14
22FCDFFAE105D32A1ADD
16F1F10CE31DFEDDE216
B41420F11ADA002A16CA
1DC3D7F11404F81AE509
1CFE09EAAB18080F0309
1507D914E709E8140109
10DC18D20BD5E820FF1B
1317E5F2E315F513E412
0DF9FDFCEA05F214F3E4
F5C825F716F0F9D54B15
140708BAD4D4160D10EC
ED0311E1F30F000BDC0E
FEB928CC070CD3FC13F1
13E71FF7F815D9F3E60F
0DDEE92636F5FB871018
19A0EEB533DA31C22EC6
21D1DE02E60AF0FDE40C
C0F539150CDDEB1B1CEC
00CAE9C14DC2130AF4C0
E708ECFF06FF080AE114
12F3D514150C13D6D7D0
0D19E918F5F1F0FEE4F7
10F1BE16ECFBF80C0D16
1014DF10131ECAD50FEA
080BE514FBFBE812E0FE
18EC12F8F5F912E7E3FC
030B0F0CF51206E8DE0C
DF071D1BBF09090418EE
120E1BF5F8C11617E108
1505EBF314D30EF0DAFA
DBFF020108D71709F0DD
BAD4F11B23FBEE270AF8
E90F00FDFADB0F0B1211
FA1CDF1B01E3EB070FF1
D80727D71F1DE5F0FFCD
0414E5040DDE0FEDE116
1CEA1CE532F8D9BA10F4
DB17F909ECDE050613EF
EAF0162DF5D215E8E6F9
13B41118D30ED4F33C29
03FC17F9EB11E9EDDFFC
C9F318DEDD0D0C1F19DA
FFCEC1082AD614D11CE2
0B0818D00E05160D0205
141BEBF4FAEF10F3E410
F616DE08E40B141012F9
F40F10250D14BA1502F5
1EC50B22010CF5CC25EF
17F2DC1AD209E21618F2
0B1509160BF2F2FFD501
E716DFF80CFF14050504
12FDE9D025FED312D802
DCDBD41719F50F1AE818
E3F4F11432F9E2F52BBC
F60813050BCB13F5DC13
CDF30D16DF031B1C18DA
F50018CC0F001BE907DF
F20208EF12D316FEDE13
ED0ADEEB0C070308E5E2
030EEDE906D110160C01
0508DAE81304F903E50F
0D0A060815E2EFFD10D1
010806FB030C06E4DB03
27EF02FBFAF1E413E71A
DF0EDF060806F3ECF50B
0BC70515E300F710FD13
0311E0EE1BEFE913FD1B
13E11120E1FD0A07D703
020000FEFEFEFF02FFFE
0FF020A3F9AA180FFC0B
E60BF51AF511EF16DE02
0C0810DE13C41402FE08
AFFF2EDFFFFC051914CF
F007E10919A5FF09E816
C1B9E004CC3D030C5402
CE1EFA0B0818B70615D0
EEA8E9F51AEEFE2B0A27
D218F10908DFF5141BE8
ACCF3BF4F0DE222205EF
F9D2181823FDE0F8ED06
171DDD151E09EAC504EC
