0F0E05F50AFE07082A20D5EB0C12FDFB13D9F51FCA0F14170B150F0FF8FE0BF31218FA1AFC0F261214EA0FF40611291315EEFB0D11FB18181BFC0A130608D91F
060E00FF190EFC090E11E0FC0BF90C060CE7F317DF03261D14150C02FEFB09DF15080A1300F70D04190918F60A1A09060CECFA0515FA0A0D1D0411090C16EC1E
111204FB1810090A0E14E4F1031212091EEFF202EE0E110D0C140F0BFC110EFE0E120B22F7FC0A090DF518F41114141311F4EF05FEF70C0F100514160B05FF0C
080E07FD150F09150D14EB0007F5131414EEE902E317240C070E0B0B000813F51305060A000413FB140817F70D131A130FF603FC0BFA1119131312150B0FF515
080900FC1B0C0A0D071CE9F70DFD0C0905E7F4FCEF061E1C0C080C09000A10ED12111216FCF60CFE28011DF20617120710F002120FFA14080C061A040A12ED06
150CF6F80B090A061019F2F50906060F12E6F400E914131123090F06070C04FB0A20060CF7FF090714F309FE021E12FE0CF9F9F90FFC17181E12080B0605FE0B
0FFF02FE0B110F0F010C00F105F8130514ECFBFBF40A18140E060C0DFE0705EC0E120E210202FF021DFC0FFB0B1702080FFAEE0B02ED120D1415040F0608F002
0A16F8F40110FFFF0B08EB0301FC0DFA02F3F705FC0A1F140EFF0514050B11F61113061200FC0E0404F30FED0010050010F3FD010CF3010403150F0611040701
0B0403FB0A18F61E0810FCFC0BF3130315F2F4F0ED13211713FD0F1A050111FE0B0C100D05FB100015E90DEC02060F090BFBFB0C0CF1020A11FF040B09040B0B
0710F3FB0603031907FAFBFBFEF1070F0CEFFFFE00060F161F0704060A0013060C120B06000313FD0AED14F6F8140BFE01FF02FC10F9070A0700060A0205F4FC
1603F902030703090E0A02FD10FA090408F0010CF808121316030F05F7070B0E140F0F13F9FA02FC0D0710E90202050705F3FDFA05F20E1111FB1C1114F80307
1206F1FD1900060A110415FAFEE90C0706EFF902F2070A170BFE050E060309080D090B0503FBF1FD13F804ED010DF70606F3F900FFE6FA1C0500160F0B070209
0F09F4FB0F05030F09FE05F502ED11100901F1FEF807FEF608FAFD0705F7070003160F1502FBF7FE04E903EAF205FF0C0CF9EBFF0EF1000E0407160E13FE0212
050BFAF611F506070CF90F030EE508160904FBECF40006FF15FF090D00F70D040812090F00FEFD0707E509F3E1170203FDFCF8F603FCFAFF0C0615FF110C0905
060FFBF210060E020B010703FBF10606FC04F7E4FA00120403070800FBEF0D00030C09050401F803FEF709EAE9020B0A06FFEEF6FFF4F40105FE11090AFCFE0C
041005F70FFC120016F918EEFDF2060C0F04F7F5F7000D02030501FDFBF60D0209180F0B08F800FD10E90CEEE9000BF704FDF4FF02F405FE0606190013FF0A00
F50E06FA09050A000A0C07050BF2060A05FA05F806070DFC0EF803FBF3F10BFB08170D0C03FE07FE02F611ECE20504FF04F9F6010BE40AED041027F70C050200
01000EF90D0D0C0515010C0405F318080500FDE9FAF701FE0AFA0DF8F5F901F80A14FE0709F405F5FBF712F0F0040C040F02F00510E40CF30A07130F11071304
05FB0EEC02080D07050E00FD06FB1607100C02FCF0F4FDFC08FD09F7F5F111F80E0A0011FAFE0B0700F613F4F91604F40E01ED060FF803EC07F90D0608F8FEFB
FE0003F406070AEF1009090111080A0D0C09FB13F9EE0AF3030C14FCFF0609010D10F30E0AFA09010DF10CEFFD1314F90602FB060702F9EF11FE0D000BED0AF8
F90DFDF5F908FE050B0D00FC00020E0EFC0F020DF3FF0CFE02080D06F60706030EF70112FAF402050DF20DF9FC0E13FA25FFFAFFFDF6FCE807FCF6FEFBECFFF3
05FAFFFA091802F4111BFBF502070E09090AFA18F8F90C020CF71704FFFD04F30307F807FD05050305F619F6FB11010604F0F2F00EFE01F5F7090C0901F7F1EE
0E060EFC030D06030F140A0302070B080002FF0BF5072300060A10F9F6F913FA0605F4FEF7F80201FDF00CFC000611040CFD04FC0AFCFFF404FB080FFFF3FBEA
080300FB07070610061206F70D0C0F0A03FBF913F605270B12110FF8FAFB06FC090CF402FDFE08F902EE08F2030804F70D02FEF804FF0E0F0A00FB0909FB02FD
0B04F4FB081504071712EEF30BFC110211F0FC04F8F7210B0D060B00FFF807FE0700040CF2FE0A0A050910FB0419FE020FF7F40A010011090503110FF50AF1F2
0E0906010B10041F051BF4F3030310FB07F7FCFFEEFD2D090E040904F2FC12FB13FFFF1BF6F505FB10F506F7070A140A0FF9F60E07F50D11180204150CFFEFF3
0D050C01120D0D020E0CF704F7091A0C08F8010704FB260016121503F70614ED0B15F510F1F80E0D13100CFDF619050DFAF5FB120AFD010616070D130805F5F7
0BFF06F50A13FD0A0519F0FB0A060D0819F60B03FE02271321FF10FF01FF0CFA110EF603F1F8FD0607FB0CF5001511FE0EFA020E0702110E1810181C040700FC
160B0D070E170A071115F10000FF191318EBEC04F111190F1A10110FF71616E50F160D13FF050D0610F51AF60D16000017FAFA0404020907170B070A040DF508
090609FD16140502201DEEF7070003F212DE01F9E406210B18150B0DFFFF01E70B0C0619FCF21BFE0A0113F4061104031FEC0B0008F6231C1C0B091B0F0CF20D
0015FE06150BFA0A0211EEFA02F7110013F2F4F9F11125142802040804140AE6100F021605FD0C0E19020FF8F71EFF0510FCF50616FF0F1116050E0D090A050A
0807FC010D0D0605030AF20106F7170201F4F8FEEB0E19151804010105100CEEFE1E060BFBFA0D1C0A040FF1081D0A0B00FCFC040BFC0B051300080C070CF6FC
09140CF7100D0F16070FF8FE01F0111511F2FAF8E00C110C10000308040611F6080A0A0B06FB070C100515F3040C140B0BF9FE05F7F9050D131002200E02FF18
0D1C0D05FF13FF0D1007F4FA00F50F071402000CF2111403FDFF0110090B0E0513120C1905FE0B0717FC08F6FF100811180905FD08FB0B06FF09070C040CF50D
1002F6F5F5010211FC08F2F4FFFD03FD0BF1F1F9EF13010A150CF50E0FFD060709190711F8F3180209FD06F8FD0C0A110AF9FC0010EB0507070B101207F1F500
0B15F60300FFFC09FDFDFCF9F5F20CF910F7FCF3FB10120D0607021210F50F000E0E080C0FF5FE0101EC0BF2FF0A0C1004FFF4FF05EE080909F9FD1207FA0306
FE0FECF4FD0CF80FF7FBF406F4E710070800FDF9F3070A0B1401F7070CF90F0D040B100F050101F808F304FAF4080906FEEDF0EF0AEE040C0B0B030F0FEF0AFD
0412FDFAF70FF21DFBFBF406F6EE0305FA02F1F2F504090307F9050801F0100EFC080F130D0709FE04F703F30B000F0505EEF3FD04EE030D07F701FF01F90605
060CEA00F9F6F710F8050004FDE9010A06FCEDF0F40701120BFB020302F40B18F70615FC0103F0F3FDFBFFEC06060108F5FBFBF811E6F90AF9FC0B0501F6FFFE
FB0EE3000901FF11FDFC03FE08EB0406FF0CEBECF8000007FEF4FD0103F2051709050CFE0002F7E9F7F6FCED0210FA09EDF7F10013E5FC1703000E000C0903FA
1108EDFF13F0020EFFEF0AFD0CF00E040607FEECEF06051204FB090D08E7F71CFBFFFF00FEF704F6F6F403E9F110FE0501EEFBF906F1F91601FC14090A0C0809
060AFFFD08F80C0305F60CFA11F3010E0A03F6EEFFF10403F603F205F2E80810FFFEFF030303F7EFFEE608EDF20BF705EEF7EB03FBE2FF09FBF60E01FE110809
F91600F811FC0D0500F012F412EA080B0802F8E1F8FEFDFFF7F6F208FBEA0B060D0C0A0801F701EB00F901F1E0FDF60408FFF2FA05F1F60201F4100704130A0A
FE07180211F409FE07F7120011F7FDFA030B06E7F805FEFCFF060401F9F0FE0A0A0901FC0BF80200F9F8FDF7E104FFF7F505F5FD00E5F1F9FAFD18FDF915F40C
04160AFE1BEE1AF908FC12F706F90406F70EFAE8F5F4F8F9FD0A0101F0EF070DFCF913F904EE0E00EC0404F8DCFE030304F600FC01EEF8F0FFFA0DF30B040705
F10C13F008F810EE08F6000700F10807030DF9E5F6FB00F30E04F7F7EBE40AFB150A09F30D0106F5F3F50AEEDFFF03F809F8FC0004F0F4EB0B071AF70BF3F4FE
FAFD1DEEF90804E80E02080101F7030CFE0CFBFFF1F10AF511F807F6F3F60AF7FE0302FEF5FF08F2F5F2FEFAF4FB050302F9ECFD11F7F0E803FD10FA08FD0B03
F6F801EDFA080BE302060A0701F20B0AFC01FE14FDECFB00020201FFF4F10800090E0401FEF90202F4030AFB020907FE00FAFC0307EDF7E8070507FCFEDDFFF9
F9FF15FBF00CFFF2FF0702FEFDFC1102FF03FE15EAF201F602FA0B05F1EB08061406F8FF04F809EBFF0909FE0F1707FD10F1F1FB04F3FFE7F903FB0808E6F6FC
F4F7FCEEFD0AFDFD060703090A01FD0C03060214FEEE0F08070B0400F0FC12FB0AFBFD0AFF0108F801FC0000FC1108FC0204F90204F0FFEB0C030603FFDDF5EC
000709EC080FF50E000F070C000602050211061E0CF8060D08FC0500FE030AF7FA09060202FE030703F901F7001109FD10F2FB02F9F7F3F404FFF80E0AF9ECDE
FBFDFCF7F803FC03011104010AFB0412040A0F12FDF50A030C080DFAF1F40D0206F4030807FD0809F8FB09050205FE00060003FE0804F7F108F4FD0A0AF0FAE5
04FF02020007FF0FFDFE0A0005FD130704040F07020814FB120F0600F6FA0FF5FE07FA01F708FEFD04000F000803FF0408EF0107010003F30D00FE1204ECF6E7
0805FDF40013FB08021402FF0F050A0309F90A0907F61005190B0FEFF50405F6FF10EF06F702F809FFFC14F9061706F601ECF5040C0A03FD0A080E0600F6F2F5
0A0600011311FA0BFF0FF6F70C0D090208F80104F4071A080B0A0DFEF70801FBFD0707100400040C0F0314F9031F0C0B00FCF8040905041201030706100DF6FA
0508FAF50B0106FD0C13F204010D180B0EEB0601FB0C1510171713F8F2FE080410140119FFFF05FF0BFF0EEC010908010DF5010B06050C0E16FF0F18010DE801
0D100AFE260502140B09F5FC09080F0812E2FB09E3071B1C20170C0C040116DA08FBFD0F10FE111111F617F80E1C02020600F4FEF90407111BFF050D0B1B0712
0D0615001B14040D0A16EF000203090E22EFEC05F2092010170C030FFA031EF0100F0B0F070B0D11200119EB0E190A0004F9F5FE07FF0B0B24FF091A0D02F20B
1804FDF60C10FA07161BECF709FD0A0C1CF301FAEF15121217040808FEFB12EA180DF81EFA0AFF0E0FEB1BF4071B05080206F60E08040618160B060D0207EF12
051003FA03FF09111006F9F10E01060B10EAF505EE1818FC0E050D070A080FFF0B0C0911FAF706FC10F918F8FA0E0E0606F5F20013EF06091108131209FCECFE
090F0400010FFA0FFE0FF402F2F6090A09FBFA04ED180B0B15F4F00C060101F60A0E0D050CF80D0609EA0B04FC0D0F00F502FCF601F0F0010F000B110EFCE810
040A13F60510F9FFF70EEEF3F9F6030402F2FFFEF10F09010AF8F60F0F0001030512110400F60DF613FD17FF05030C0EFCFDF00921F7F21802050B000703F102
090AED00F506000AFC03FBFFF7FB0C0203FEF7FBFA0F0A090907000113FB080105010A060E0100FE08FF0AEEF80312FCFCFFFCFC0DF70C121201021501FFF9FD
0A0FFD00EFF6EF15F40DF9FEEAFFFCFEFCFBF9FBE9070218FD08010B0AFD0712020200F907EFECF50AFB01F908040600FAF7EC0309EB0A140100001010F0FBFB
0813E8F9E9FEED150807FFF703F505FF0203F7F6ED040405FD02FE0E0F000821020711F40EFBFEFC0BF5F0F310FC0A04F0F4F4F50EE4FB0FFD02F70705DE0CFE
FA0FD603F7EEFB06F5FDF8FD04FF030D080407F8FC0006FEF709FD0012EEF91900F50AFF040A03F401F807EF1608030AE702EC010BF9F9090002000910E919F8
FF10DFFA01F4F9140DF8FEFE0DFE0301F3FE01FA02FCFE07FC08EF0207EE011701080BF9090B03F1F9EFF3EF0D0EFCF7DF02F3F702F0001401ED060E05F31309
0600DA04FEEEF70C01EF0AF90BF8F905FA11F8F6F906FF04F8EEEBFD06ECF316FFF20CFEFAFC03ECFAF2FFF1140AF2F7E601FCFA13EFE817F4F40B0C06FB0501
F408E00013F2FA0A05F50CF4FDF00A0EF11508EAFA02FFF6F6FBED0D05DC021C08F50CF6040B06F1FCFEF4EEF602ED01EEFAF20709E7F71AF7F40DFDFE060800
FC10FCFE12F5150F09EC19F80FEC0507F505FCDBFBF3F2F7EE06F704FAE4F818FFF50EFB08F605E7FFF1FEF0E9FEF8FEFF06E9FD07E6E715F100100DFB22110B
001611F408F314FEFEEA0BFE05F7FB0D040DFDD1FF02F8FCF003FF04EDDCF41DF7FB11FB03FD09EEF1E9F6F3C4F9EBF3F3F2F3F80EE4EC0E060304010923FB12
F90C21F40DFA0DEB06EC120407EFF80D0605F3DCFD07EAF5F501F7F8E8D6FB0EFFFB10F808FE08EFFBEEFAFED600F809FFFBF7F50BE0E71304F512040919020C
001222F6FF0215EE09F50E09F3F5030C050605F701F6FCE0E9FAF6F0F6D8FC110108160008FB05E6F9EAF2F7DAFDF3FEFBF2FD040ADFE707010011F00A0E0110
FD0627F5F20112DF0A01070F08FEFCFAFC0303F2FEF7FBDC02FCFDEFECDEF81AF10016F80DFFFCEC01F1F3F9ED07FB0807F80AFB04E9F3F701FC02EA0FFEFCFD
EE061DEA000C13E903FC0C0E04030809FD0B0200FFF6F6F10AF101F2E5D6090AF6FC020A07F702ECFFFAF2F5FD0807F802FFEFFF0AF0EBE006FA04FF07DDFCFB
FC0C07F9F2100AE40F0E0504FDEE0006FA07040C09E800F609F3F9FAEFF2FC0D08FD05FF07F710FB02F6EFF60AFDFEF80809F904F6EBF3E0F1FDFB0214D7FFF4
FAFF0AF2EF08FFF30AFA0107EC0101030211FE1900F008FD1EFF02FFF0E405100A0A01070EF903F6F8FAF9F90BFE0304FFF6FFF509F9E3CFEFFFFBFA0CD1F8EE
F50806F4EF1C0BF102130CFF09FDF5FEFB07F928F6EA05FB0400F0F9F8F4040600F9F4FD09FFF8ED0EFA02F50901FDFFFFFBF308FBF9E6E0FF0CFCFF09DAECF6
F60503FAF9FF0A010D0CFFF711F7FFFE03F80923F4ED0EFE02060AFA00EF06020BF0FF0001F402F3040A03F40B020BF80FF500F802EEF6E0F900F0080FF1FAEE
F60204F6F40BF10C020A120704F00E0A08050C2201F208F5130108FD00FDFEFA020201080000F7F8000104F90C09F506FA08FDF9FEFAF0E503F9F80503EAF5F5
02FC0200FE14F705080802021101F7F50F0616160BFA0BFD160806FA01050CFF08FBF902FDF70203050112FF07040102F1F00301F805F5EC02F80409FCF0F0E3
FC02F501F81AF70CFC1102F80FF406040CFA0408F40616F312080AFFF2FC040011FFF401FF0304FBF8FB0CF1030506FF00FD0AFD0203F4F0F9F7080F08F5F3E1
060406FC060B05FD030EF7F009070D0E0AF80EF5FA0414FA160A02F5F1FDF9041003EEFFF7F50AF9FB0213F20C01FE0AFCFC0515FE09040007060E080400FEF5
FBFAF9FC120FFC0D0B1D0404FD0611060EFA07F5F206170C1DF90CF8F3FF02FC0304F405F7FB0A00FD0406EF071004F00DFC00FB01FD020F120B0F091B0EFCF6
130E0BFC151908030315F8F81012011915E8FA0CE90D20110C0E100CF71006F1110D052304FC0B110CFE12F2130F01FA0FF5FE0E19FA0B1621150B0E0E0BF212
0B0906FD0C0E0E0B0706FEF1FF03030A07F40109F1161C0E1C011210FC0FFBF206180A1D0B02180E11F818EF0C110E0A0FF8000F09F711131806010E0D04EC0D
070600020E13FF030305F402F1010C1513EEFD01F7121A0E2A050900070406F705120A1B06F6160713EA01F0091309071FF9010D17F909FF110C07131B0CF70A
081502F30311FB090109EBFFFDFD080808FA01FAEE0E04151103FF0206FD12FD040B0909FCFB041018EC14F6FD0712060BF0000F04F306061706050803F7F0F9
0E1803FF0101030F070DFBFAF306090B07F80304E70110FE02F2FA0E03F70907FD09070FF7FA07010BFA0CFDFE0512FF0EF3F1040DF9F7FA010A070C0C07F6F7
0D19FC01FD0904010C09FDFFF304070111F80603F00C16021111F5FE09FA1C0402070C0100FBFD0607F808FD0FF90706F6FAF5030DEFEFFD0A0FEF0B08FAF4FF
FF180708E6F9FF12FC06FB03F00BFF0600F805F7F00F01FF1003F0020FF611FEF4FA06FE00F1FBFBF90DF4F90B020906FFF3E90006ECF2F10501FE0B00F6F8FC
061804FCF002F004FC1202FCF608FDFCFCF801F7F1070702020AF70511F00D13FCF312FE00F4FB0202EDF1F20BFF14F9EDF7E80904E7FDFC00FD001401DEFEF0
0816F900EF0AFA12F2000703F406FEFFF5FDFCFB00FAF80FFA01F50207EB0517FFFE0BF6FEFDE9E00203FAF50F00FFFEF0F9EAFD07EBFE01F7F6F80311DF18FF
F31DE4F9F1FCF317F90211EF05010102F40F0B09F8F7F30CFBEDEC0508F3FD14FCEB08F9FFF605ED0504F3F109F403FAE2EEE1F903E6FC0101EDFC0805EF15FE
001CE402F6FCEF18FEFF12F90C060304FD0BFD0FEEFEFDF907F7F2080CEB061BFFE7FFF902FF04F2FBFFF2000DF906F9EEFCEA02FEEDED19FAE609090AFB18F2
0311D4F70EF7FF0EFBF411F610040C12EE1C030CF900F9FCF9FCFAFF0EED021AEEDF09010FFE03E901F3FB040B09FCF5E8FAEA090BE9E50DFE061004070414F7
0415E5F415FD100CEEF21E070D010D10F40D07DEFAF0F804EDF6F202F6EBF723FDE915060505FFE6F2F5F7F5F603FAF4F5EFE60700EDF523FEF90DF90709130C
FF0FF2FA06FB1303FFED19FE0101120CF50B05DAF601FEE8EBF4FDFBF1F8002EFEF60CFE11F40AF0FB01F9FCDDF3F8FCFBE9E50CFFE3F21FEF0202090B200F03
F70717F80CF418F60BFB16050A02080C0710FCD6FC06FDE801FDFAFCF4E4FD2B0C0706F20A070BEA00FBFBFACDFCF9FEF2F8F0020FF4E41000FB15FB0A120307
FE1317F707F80FEEFCF7101303020DFEFC1202DEFA05F5E9FDF4F7F1EFDEF2210E0209041303F9DFF303EDF5D302F3F8FEEEF60109F8E915F40704000F190C05
F80F25E5F20111E000FE0C14FEFE09000410F5E309FFF2E2F7FDF3F3EFDF032301F905FE0401F9EC02FBF7FEDA00F107EDF5F6010BEEEE08FE0803F409000006
FC0C18E7FC010EE10900FD0CFEFBFC04F208F3EA06FD01D90AF6EAFFFBE2FC25FD0B11FF17F7FFE4FD03EBFBF9FAFA02FC00F5020DF4EBF7FAFF07F206F00004
F60B25F9EF0C0DDA05F60103FDFAF7FEFF07FA0107ECFEE405FCF402E9E0FF16F60913FB10FEFBDFFDFFED000202FFFE07FFEE050CEEE4FB0500F8E806D2FA02
FD090CF9F80C0CF4FAFB011606FEF70DF305F80C01ECFCEE0BF4F604F4E9FD130308060F0F09FFEBFD07F2F80EFC00EFFAFAF203F9FBE5DFF30300FC01D5F4FD
F808FFFAF61703EBF9FA06150709F707FF1004250DE8F5E50105FBF900E70514FB09FE0213F900E90707FAF519060F090AEFF6FF01FAF0D9F7FDF4F40CC0F8F7
F3FF04FBEF11F6F109FCFF0708FB0600F7080420F6F505E503F8ECF8FBEC010EFFFFF60610FDFEF202F8FDEF18FE01F6FDF0F7F0FCEDF5DA0108070613E100F5
F5F808F8F00AF2FBFE03FF010CF7FC0BF907F31B01F1FAE80A0402F4FDED080AFDFEF71009FA09F2040D05F01506F9FF12F2F8F40300F4DBFBF8F8FD0EE3F6E5
E6FA0103021F0006F908090B11050B00070AFF13F8F40FEAFBFBFF04F9EC0A11FFFFFA0806F104F9050802F40FFE00F503F706060201F4E6FC02F30706F8F5DD
FD08FCF30011FB01F60C04FE020805070800071A05F808EC0B0107FBEEF8020506FEEF10FEFC01F302030DF80DF8FCFB06F10002FE00F4EEFCF6F6180DFBFADC
020900F90011F50101000BFF0F09FD090804080BF9FB0AEB160707F7FEF8F70AF1F5E90C06EBFEFAF5FBFE030BFF0CFD09E703FD0309FEEB01FA031407F8FAE5
070B02F303060004FA06F8010A050206FCF909F6F40D050B1C0002FDF0FAFD04000EF800FCF1F7FFF5050CFA06FE05FF04EF05FDFF04F8FC130B0D061404FEFB
FB050203FE06F80CFF0705FE03FB060914040BECF4040FFD0AFA04F7F401F7060A10F7FDF9F600F4FDFA04F9020DFC0812F4030EF90F12F50E030DF9100AFCFC
1AFD1A061D161217100C01F3FA0A0E1410EA07FFE40F25141017160F030610EDFF0E0B0E05090B0D0EF311FA0214FF0909F2050A170909191F0A0C180B0AF714
11040E02060E06010A12F600FE00000910E8020FE51220161407090903070FFA0A0D01FEFC05100B06FB1CF40A02FB030EFAF90014F815131D050D12190CEDF8
010C0B0102FE0C0B0401F204E7060D030CFA0A03F21A24FD1EF907000FFC0906060F0D0B0DF1151A04F70FFA0211031000EEF9040A050206080003110F04E7FC
000F05FCFA100C0C100AEE08FA06F6FB07E70B06FE09240819FCFCFE09020DF4060E0703F904031612F80BF301F9081002FFFE130401080112130CFE0FFFE7F7
FA2102FFF008050CFF01F9FCEC1102FCFDFD0400F612F91904FBFEFF10FC09F80A020B080EFEFB0301F4F9FE01F71DF8FFF8F7F912F9F1020F02050C11F4F0FA
0A0B0AFDF508FAFE0B1006FCEF0705FF0CF90F01FD0306130DFBFA0207F8040904F70CF908FEFD14F40202F60C080FFCF9F5F1040501FDFF020D021001F5FDEE
FB110602E9FCF31404000102F012FDFF0C02140BFA05F60F07F8F70909ED0E0503F6070310F6051105FBF3F60DFA1B09F6FBF40A05E4F6020904040C06EC04F6
FF14FC0AE302EA06FB050B05FA080202F40315FAFBF4F2FDFBF1FEF609F3110AEEF204FB09E9F40107F1FBF808000A09F1F1E909FBE7FAF7F503FF1200E509E7
FC20F9FBF2FCF412FDFD160501040605F106190E0008FDFEFAF9F1011BF9040B02DF16FB10E7F7F4FFF9F0FC0CFC0F04EBEDE314FBE5ED06F9F6061402DA12EF
F90FD5F2F7FFFF0AEF091C060D040DFEE7061211FCF6F900FF04F1F70C0C0B1CFDD70BF211E80804FF08FBF719F803F2F6F2EB1006F5F2FE02FF0D0211EF1AEC
050BDCF203F60507000918FB20FF0806E7FF080303F800FFFC06EA050AFF010EFDD707F412F601F0F906F1010A0011F8F9EFF31205EFF4F8F9F20D0DFEEF12F7
FE1ED6FF14FBFC00EF021E0E14081209F10704FFFD05FDF0F600DBF503060721F7D614FD06F5FFF8FE00F7FBFD040403EFEDEA0108F7F10703F81804FCFE14F3
061DDAF3180201FEF7E62D0814140DFFEC0B04F9020305EEF6FBD7FE010C0A2BF5F107000BF80A030004F60BECFA01F6EAF0EA0C11F9EE0F060216FF12100FF3
0A1907EA060411F9FDEC2401100E0300F811FCE7FD0501E5F700DDF6EB0BFD23FCFE03050900070609F9F0FBCBFAFEF2FBEAEB0D0EF4F51B030519F9142906F9
000B28E1FC0D15F601F01C14FF0E07FEFA0D00D00900FEE6F7FBE5F3F903FC23F7F909FF05FB0207FC00FC06C2F80001EFF4F40E100BFD1EFE0D09070A0DFE05
02022FE701070DF1FEF60C11FB0A01FDFB0002D809FD02E9FF02EAF0F2FD0029FCFC0E0D08FC070C0401FB02BD01F9F8FCFCEAFF0303011EFF0610F3010B0B00
FC0728DCFB100FDBFBFF1117030F00FAF60801D40A1101D80EFEEAFEF1F4FF34FD000CFF08FA01FEFEFBF900DAFAECF2ECF4F80611FFFA17F8FF00ED07F30806
F9131EEEEF1E08D903FA0C0F0709FC00F30EFEDF0B11F8D5FFF6EBF7F9F4023CF902070215FE06EF05FEFEFFF605FCEF06EEF40807FCF80D06FF08EC0AE30002
F50E18E9F00C0CE50602060E06030B00F30E04020FF7F7D701FFEEEF03ED003403030DFD15FBFEFE0306FF0416F603F900F4EDFD0BF4FA0A080404FD11D70504
F3090EEFFF1800E604120507FDFF0204EE12F3180DF4F5DE1208EAFC01E6F72D0302FD010BFD09FC06FDF9F71407FDFC06EFF40609F9F4F3FA00FE0908CBF608
060507F5F215F9FAEE050805020AFFF6FB10F72115ECFED10E04E80900E40020F909FE0414F8FFF40FFEF0F60D02080302F9F10300FCF4E9F404F60A09CDF8F6
050A0BF2041EF3F3FE0B05000500FBFEED0DF81F12E6F6E006FCFEFC08EA062308F2F9FF13FC03F50EFFF7FF0E01FC0002EFE9F609FEF4DFF70AF81406DFFFFE
F7FA00FD0018FCFAFD07FAF7FF0CFBFD07030A27FCE706D90AF8EFF403EDF920FBFCFB090DF400021402F2FB14F9F80007FEF8F708FFF2DD00F9F2FB04F4F5E3
EFFCFE0AF704F6F802FBFE071005050C0907020F15EF08DFFBFAF3FD09EDFA24FFFBE30008FA00F50400F7FB0A02FDF7F9F8FB021012F1D0F6F5060610F7FFDA
FBFFFFFF0107F7100607FAFC0B0A08F90108041C06FC09E200FFFFF1FDF7FE19FCF2F1FFFCFAF8F7FA0805F80B0807F4FFFE07F8030400E20409FBFB1614F9D4
FFF5FDFC030DF70A05FB03FE12FD030A05010B10F7FBF9E40B03F3F0FAFCFA15000DE0FBF900F6FA05FB0AFC0803FD0607FD0104080D05E2F406F8FD000EFAD8
02FCF3F80606ED020311FDF51502040C07010FF405F607FF0C03FAFEF801FC0B0305E905F4E800F6FF0604F4060CF9F307F4F50E001604F801060F01030FF5E7
FA0AFBF712FCFB0EF8FFF6F0080F0A05FCF50FE4F60D07F4130101FCF308EC070E11EA00ECED09FCEB0505FBFC0C05EA0CFD060B0E0A19FC08010FFF0F0CFBF5
1E120EF713140C010D17F1ED07FE050E14E4F915EB142A0F110B0C06F70B09F50F070A090A01090C110019F3120EFC1110F703040DF4071A110B130309040010
0C0005F60C0C09FB041008EE04040C1611E4F408E60E1F09090B0A10FF0C14F70D090415FF051D0C16FF12EF1413061A16F9FA0D10FA1312101618150318EE0A
0EFC04FB0C040B03FE02F7FF010A02070BF8FA0FF70C1B0414FE070D100E00F10006FC0BF5FC04140DF509FF0504FB0408F9F3111DF705FF10090D02030BEF04
030D0FFCFAFF04110C0CF2EFF40804030900FE05ED0F04FC19FF030207EBF803FEFF0B0A04F9020906F107FFFB0D14FC1303FF070C02F4FD110E050D0C07F403
FA0311F3EEF1F4120C07F606EC0C030DFBFE0F06FC03F90402FAEB0C1E030802FEF909F50901011C02FB05FE03F8100803F8F70A0BF8ECF70DFE050207F1EDFB
070E0901F5060413FF06FEF6EE110A00FF010D03F305FD000003EE050DFE0803FCFE0EF00DFAF71803FAF20205F90EF70D02F40F10F6FEFC0310F00907FEF7F6
FD1903FDE2010B051014FFF7FB05EDFB03F9090C0209FF1108F3F3060DFC040DF5EDFCF708F40111FD0DFDFB05071707F6F200150CF0F902FC07051115F908EE
FA25F6FDDE01F91203021001090B00FCFB0204050006FC0608F8EF0209F00414FCFF10FB0DF509FF0309EDEC060117F6EFF9F609F7F304020C01040E06DB06F2
FC1FDCFCEA04FB03FE11130B051300FFF902120001FAF6000B0CEDFB10FF081908E805FA07FCFDFA04FEF5F80BFA1EF5F3EBFA0D07E9EC05FC01130A0BE110F0
F71AD9EF0403011405081C060D100503F7050911F804FDF5F500F6061007071AF8DE0F0808FF0C050FFBF80915FB12F4F8E0F7FEFBF4EEFE00040B0DF9DB16EB
0923D6EC02080C0603FE19FC190E0F04F1FD1310FEF803F9F1FCF0FAFE02FF16F1E808F31004080000FE010314041804F6E6EF10FFF3EC07FD03080BFAF41AFA
0122D4F714F90B10FEF8210112110C00FD0506060AFB03F9FB00F4FBF80D101EFAF204FC0802FF0FFC02F908FC081A04EEE4F1080CF5F102FD0A160CFBFA13F8
F90FD9E91DFB02F5FCFA27FC13010E07F61307FC0C0C0AE901FEDE08EA090421FEF5150410FC0B050506F8F9E90717FEF1EAF00200FDEB23F8070C04F81507FE
0108FFF00C0319F002F22B0812101104F408FDF6FD0CFFDD0305EAF9E913FB2EFDF510031804FC050C08FCFBC4FF06FCF1F6F0FB03F8F12CFF07130001250BFD
050E24E5F80314FC07021111040E0008FB0D04E40205FED30A06F201FA05FC28FD000A010604FF070AFEF9FABBFE05FB00F5F90709FBF82A05090BFAF8110211
FD032DDFF30D17F802F20F130C0B0C04F9FC01DBFF0E02C90909F1FEFB0EF937F70F05090FFB05FF0B0805F7A9FCFAFA07F8F3FE0B05F226F70802F5070CFB02
F8081DD9FE100DE7FC08020C030F0A0D050BF4D90F0506D10602EEFBFF00FC3FFD12FB120EFC04030706FAFCE9050400F7F8EAFB0A0CFB26FDFC05FC0AEDFB0B
FB0914E1FD1B0AF1F70BF918F817FDFEF901FCD0FF0CFDCD07F2FF05F5FFF930FF100E0A01F9FF04100F01FDFAFC01FD02F7F90209FEF41C06FCFAF909E4F30E
041111E5F317FEF3F800F714F701060D080EFEF1060C00D609F2EF000903FC38FA08000F0D06FD000A09F5F111FB04F50705EAFF0EF9F60C01FBFAFA02D9F30F
F7FEFBEDFA1DFF02070DF00F010FFC08F405F8190BF8F6E311FFFEFCFCEDF926FFFBFA01080001021008FDFD170700FD0CF6EFF809FB0106FF00FA0710BEF60B
00FBF8F1FF18F5F40005F611F80001FAFB12FA2909FFFCD90203F101F6ECF82204FA03061100F7FA1C04F6022508020001F6F90106FBEFEAFA01030608CEEE13
FCFF07F7FA23F9F7F70CF5070604FD07FE0DF5260FE7F2DCFBF0EAF905F5FA220800FA0702F1FBFF1207F8FC190407FAF8F8F8000FFDF9DCFE03F5110FD9F702
FF02FEFFFF17EB000B06F7000C0DFF0CF602FF1E03E4F2DE06FD04F90CEEF01DF807F9190BFD05EC0BFAFEF712FAFB00FCFAF6FE0DFDFED5FC04FE0010EFE8ED
F4FAF7030003FF000AFDEE020410F605060A0F2005EFFFE403F9FEF1F7F5F815FBF4F60B04F2F5EF020DEEFF080102FEFDF20001010DF7E301FB02FB0614E8D8
ED02FA00FC0BEA010608FBFA040C05FFFD010D10F8F7FDE809F4F9FCEDF5F418F6E7F50C05EEFFF50606F5010DF80800FCFE11FC0009F8E8FDF412FA0F12F2E5
F6FFF6FA0803F00803FCFEF90005090B080F08FE0BF703EB06F5F305F3FDF111F6F5ED02FDF6FC02F6FFF8050105F7FCF6FE03FD0709F6E10205F7020F05FEDD
FBF5FBFA0BFDF9030404ECFE0A0AF3FAFFFF0FED090A02F50D08F7FBEDFBF40401F5EE04FA01FBFE000E0CFC00FA03080601100F091210FF060102080D10EFE3
EF05F8030BF1FD04FD0500020E130F09080514DB04F6160C0C0112F5F909F4110BFAE8FCFBF200FFF50C09050506FBFDFAF5FD0B010D0DFC17060B010D1501FB
0A0008FB09190C120A1DEFF403FE100915EAFF12E91416101E06070A060805E5130E060CFFFA0F0816F522F6110DF80719FEF7FF0DEF0D111D06050F1213FF15
030204F416030C04120DF6FCFC07FD0810FDFA0CEE0C1E0417120106100008ED0A08040505FC120F05030EF70A1409FD08F6FA0A0F03FD0F200C05180309F800
060410FE04060A06060A0104F30A050506F5FDFDF41009FD16F80E0318F906FF1611010F0404021F04EC0FFBF718040A0902FB120CFDFBFE080BFDFDFBF8F8F8
0DFE15F9FAF00D0CFE17F4FA021504FA05F40510EF061F130D01070813FCFFF704050502FAFD0E2503010EF30A08100608EC09070AFBFC04060115080E09EBF8
FA0BFF02EDF9FC0001040E08F512FE0A0CF6FEFCFF0B050C09FDFBFD1401FAFEF9FE06FC08FFF928F8F504FBFDFD130CFAF9030703FBF7F6F9050A0204F5F0F8
F5090AFDEAFBFC110402FDFCFC0FFDF7FCFFFFFF0B04F3021302FB0010F900FBFC070DF81407F91DFF00FDF6FEFB08010CF9F500070009FCFA17020910F0FBEF
FB150DF0EB02FD0C01130E06090A03FBFB000C0001F4FD040B03F9F612FC0AF804FC09F2FFEDFD1CFDF902F3050F240205FAFA00FCF5FFFE03060814FFEC12E9
02170EF2E4FDF3030E110C09051DFF08FEF5FE0FFEFBFC060903FFFD1208FEF7EAF106F90AF6F90FF6FD0204FF0425040BE8080B04EAFBFAFAFA0A01F6E90CE9
FF1DECF9FC03041003FB20050D180809F8FD04150B07FBF80107FFFE120F0206F1F10CFF0AFBF80C09EBFA021C062AFF13EEFCFBFDF1F6FAFA04060DFFE110E9
F512D8EE05FE070906FF20121716080DECFCFA110A0303DFFD00F4F908160AFCFAFAFD0711F3F60D0CFAF9FA0B042AFAFBE504030C0503F2FB011B0C01EE20EE
0019E0E918FE011410FC28FF21101404EE0CFA170504F3E8FB04F40003110F07F9EA09021208FE0706F6FEFC1AF92AFE04EFFFFA0501F2F2040A1B09F6FA1E07
0418CEEF19FF0200FAF92801190C0E0BF509FD1EF8050AE5EF04EB07001A0D0BF2F7FB050102F6150000FCF60BF83607FFE9F8FD0305FFFFFE041E03F41119F0
FC16DCDF11121503F9FE28F91F0704FDF403020F05000CDAFBF9E4FDEE110203ED0104080703FE12FA0C0AFCEC0528F702EDE8FD100DFC1509081604FF200CF4
051605DD110A1DF408F917000509F705F5FE03020D0F06C60808E500F214010DFB01030E06FFFD1A0D110302C4F41DFA07F2F301110FFC1E040F1EFFFC2604F9
040F27DFF2110CF107FF130F0D070804FD0DFFD910060CCD0308E807F717FC14F407FF060BFBFA210502140FB2F305F5F5FAF4FB0C1004360A07FFFE0B21FAFE
010F23E6EF090AEA02FD0E11FE02FC0A0C0AFDCF0F040CBC05FFEB010027F824F30102FF0E00FF1C0DFF030DBA0117EFFEFDFA03040BFE3401080BF80816F1FB
FE0C31E9EB1507EBFC0AFD06040CFA060207F4C6061211CBFD03EDFCF926FF31F504080CFB000B0D19030D06E60100F8F4FAF4F80804053EFC04FE000AECFD0A
020A10E5FD1F02EDF916FE1B0B10F9FE06FEF8C1110705CFF8FEF5010827FE3CFC05FF0D03FEFE1406FF10F61D0AFEFE03F8F6FA1404112F07FDF90410D7F70C
08050CE7FF12F001ED0DF809F610020CF60600FB0D0C02D80201EC020C10F32EFB06060D03FDFE0A140002F72AF905F20004EEFF08FD102B04FBF40006CDFD19
0AFC09E9F618EDFE030DF90CF805F7FDFA050428170304D1FC00F60B0C06EB3108F4020601FE000E1505FEFD20FFFEF6FF07FCFF12FA1301FDFFF20801CCFD0C
08FFF9EBF317E9FDFA09EE0BFC10FCF6020BFD31110100DD0800F7FA0B01EA2603F6000D07F9F810080102F91A000500EBFCEA000FFA1A0004FEFF0F11D8F607
0300FBF40108ECFE010DE704F90CFF05040A073E14F504E708FEFAFD0E04EE27FEF5F60C0305F40C080AF6062106F402FCF6F000040A0CD9FC03FA0506E9F2FF
0304FFFEFA0BFC0402FCEAF7FE08FCFE0409073404DB0AE808F9FCFC00FFE91D04F8EB0E03F80007030CFAFC0E0000FBFFF6F8010A0B1ED1F50BF6010003FEE8
F8FAEEFDF6FFF9050FF7F505FA0A0604FC0002200FE0F5E901FCFBFD0109F5190100F00803FEEEFF000AFA0A06FEF508FFFD0506080816D7F7F900021111F5D9
F3F8F1FCFBF1EEFB0708F2000801FB0502010B1104E4F8F6FD0707F2F806FE15FDF1EA0313FC0002F600F3020DFE080D02FA11FF00121ADCFF06F80A140EF4E3
F9FBF40303F2FD0A0EF1EB040103F604FA0112F70AEAFDF4F30501FAF404F710F6FDEC05060104F9EB0EFA0CF6FFF902F9F10605FB111DE8F90803FD051B02E8
F60101F602F0EC010506F2F91206F20408F60AEE01FC020410F508F4EB00F011FAEFE8FEF9F5F5FDE316050410060AFC02EE12F8FA0D1AFE020203060E13FFEB
FBF9F4F812EEEC020207F0080C09FBF7090B1BD206031711061301F70204FB17FE0BEDF7E9F1F305E6020406F401FDFBF8FC0304FF1F1F000EFD13F8061506E9
11FF09F7181A17051510FCFD0AFF060517F4F800EE051F1018F81109010F12F21212FF1AFCFB152009F313FE090BFB1510EBFD0F10F60A06090E0E0D0D01F60A
07F003F6051312040F09FBFE0702040207F4F905F1052A0D0B0608050C0809EF0B10FAFFFC031D0E04F411F9010BEE0EFDFBF50E03FD0509150F0A091404F306
03FB01FBFF0C0C06F706FF03080DFA110BF8030FFA0B0B060F0501030DF7F9F50E02040DF60C081A0AF40DF90F08F90711ECF50B03FC0305111507F90F010004
02F909F6EE0000FB0211FA09000B0305FFF5FC040510FB0408080A0C19F9F9F5030901F904F8FF1BF8F20CF9FE0304FF0C00011207FFFE030F140402030DFBF2
FAEF12F3E20AFC0801FA150DFE0CFD0BF9F9F1000D040DFE0AF7FA0227FB03F901F70AF70AF6042DF9F7FEFA050605F70701FFF60302FEEC000C17080DFEFBEF
F9F207F6EC0303FDFAFF0B090A0F02FBFE0300FDF80BFC0104FDF9010FF8FFF9060605F50CFFF61D10F1FEF7FF0607FA10F90600ED0106FD000A04FAFE0500F3
FCF509F5D902FA0D060812080D0D0604F6F2FA0702FEF5FA13F9FAF409F702F4FC0C0BEE05FA031104F9F8F3FF03130418F004FFE6F707FBFC000A0401F704FD
011005F4E50AFE0D08051A0E080E0C0AF4FCF20B0D0906F30B0005FD150305EEF9FE0CEF07EEFA1A10FD07041CF7170226EDF5FAF7EF00F3F7FD1016F5E01AFB
FEFDF7F0FEF80414FF06290F140B070BF003EE170BF9F6EAFF0105F4091804F5EAFA14FA16FAF80802FFF9000EFF1C0828EBF406F1F1F7F9FD07120AFBDA25FA
0110E0E81203140501072D041D160902F3F8F61306010CE801F501F1030F09FAF40D050215EDEC0513FE0F0115FB230314EAF0F8F7FFFEF1ED0B0E0F00EE25ED
F80BE4EB26FD051308072305200E1007FFFFF312020001ECF9FE04FC011009EAF303FB040AF9FA001006FE0817FF2B0011EDF8FDFCFD02F5FA0B191900062BFB
FE09D2E51A0A110B0EFC350321050A0BF603EF1C01040CE302FA05FDF00DFDF0F30B010810F3E6FA040208F402FF2A0919F2ED0508F708E603181B0EFB1420F6
FB15E7E5140F13FDFCF82D071901F7F80005FC2307FA0CC8FE050007EF1A01EFF10200FB0100FA00110011FCE9FA2D0516FAFEF9FF0407FAF9151E01F72000EC
080501E1FA0022EC0CF121030501EF0100FCF7F40FFE05CC0E03F505F11EF3FAEF08F80907FA00020C060C03B3022D0A10FDF90A06141A1A0C1015060928EEF1
09062ED5F30316EB00FD0D0D0CFDF4FD05FB06DF0E0908CE0D01EDF80A16F1FFFA08FD00FC04ED18FE060D01A7F7110C030400FA010B1C2B0E0200040A16FB00
140536E2E8130CF00A08FF02F9F9F5FA09FCF4C00D020ABE0004F8050526FAF902FEF60506FBF91400060BF9CBFE1206FD08F7060800122B02FBFCFD0C05EE04
150821E8F70503EEF91D0705FAFCF702FBFEF9AC100408CAFFF1E5070C21EF02F405090F02F5F61EFAFC030AF8F91307F8F6FBFF1104183FFBF5F5FC0EF2F8FF
040F16E60206EDF1FB15EC09F809FCF30AFAEDC813100ECDFB03EA030929041A02F4FD120BECF618F4FC03FE24100E0501F4EE020AFF1E4D0FF6020811D1F80D
100406DFF8FDECFBF71DEF0BF40EEFFDFF00F909111107DE0400EFFF1021060E08F4080302F9F90CE7070DFB26F80909FB01FA0308F61F350907FA1B07C2F619
12FEFBF1F7EEF40DFA07EA0AF608FFFDF5020033110007DD0AFBF0FF1310F41803EAF90607F2FC0AF40506F92AF805FFFCFFFA0403F5271B0D03FA110ED8F122
0504FDEDFAF1E207FA06F30BFA06FFEEFB04FE331C0106E50BFDED041515EF23FEFBF61409F6EE08ED0A060217F40A0AF404EAFB04062A0DF902F7100CDAFA10
0709F7F4F5E7E6FDFDF6EA09EF0AFBFA000BFB370DE805EFFFFDF2F50A0DF6210BF300090CF3F90CEA08100718050401F7F2FBF5070C31F008FEF50D08F6F4FE
0103F903FBECE50A06FBEBFA050CF7F005F7002C02DC0EF8FE03FAFE11FFE72701F3F30802F30B00E602FFFEFEFFFF0602FDFFF2060427E5F908FB060A14EFF3
F8FFECFCFCE3F00903FBF1FC03FAFBF0F8FD0A1505E1FFEBF9F6F5F80F05F61605F7F30312FAFC04E2FF080605080705F60203FC021525C9F90AE711091CFDDE
03F8F7F605DEF6F2FCF7E3F511F7FFF5FDF704FD08E1F5FE01F6F1EFFB0BF31AFCF9EE0112FAF7FBE90EF90301F3FAFFF5F50505F91723D0F706FD080C10F5D1
F4F4F2FE03F1FDFE03F6F70507F2F5FB0FFF02F000EC04FA01FC04EAFB0BF711F7FAF10E0AF6FB02F80501100101FD00F1F211F700191DD9F5FFF103141100E8
EF08F90301ECF30908FBE3020BF7F3000FF309E5FCF70A01F7FEFFFBEB01F514FCFBECFFF5F0FAF0F60805FE0D010CFB07F707FF020913EF0009090D081EFCF2
F202EF0D0BECF404020BE50208FBFDF5FAF409D2FE0009030801FDECF000F60605FAF102ECF7F8EEEC0908FAEB0503F9F4020D05FD0F21FE160913FC070EF7F1
10F713F9121002090B12F3FEFEFBF8090EF5F306F5110F0F10040A04FC13FCE40F16040C0601151009E81FF70C0C02150BF7F20D16061513171803150BFEF6FA
08F405F80A0AFEFFFD1204FC06000B0113EFFA00FC18180D17FF050A060502F509110607000A0218FBFC08F9010A00080C01FB0C0B040001140006040313F009
0AEB06FBFA0706FDFFF905FEFE10020801FDFC10F614090B06FA0505140004EDFC1209FA05FB1312FEEB09FB150DEA0C1BFBFB0410F401FD0F0A0C0B030BF505
03E603FDF9F10CFFF402060A000802F7FCFDF40A040B000911F8EEF922F7F4FF0703FFF00708021E01000809FE05EAF418F90C01F904F5FD08090A020F0BF1FA
F8DD0BF9E006FB04030113FF0C0EFC000802F7FB02FBF0F3FBF5FDFE1908F4F7FA02070300F8052200000504FD06E5FF1AEF09FFF60907F5FF010AF6050606F9
F6E60BF6E90109020705130B031104FBF8030402060AF5EC0C0207FA13FEF4F7F21201F40604031C05F8FB03FC02F8072A0315F9EFF6050002060401FBF501F6
F8E51D00DE08FA0AFD05250701040A14F5FFF51503FA01F6000003F21904F9F4F10E0FF30DF4FC2003F500FFFEFCE7F71CF7F6F4F2F2FCF4FCF81B06060107FD
F8E414EFE6F1000908FF1E040C081304FB01F20F0E0706EBFC0305EF11070601F20C0BE203E9001C07FFF8030C03ECF61BE8F6F5E8F307FA00001405FEEF1D08
F9E6F7FB00FCF9130B042213160D090BF5F9F0070B0309E605FC11F6090C0AEFF00C00E807F7FC0D050208FD0305F50025E4FD00FDF907EE09110917F7EA1E02
F8EBE8EE120505170A023402050E0604EFFDE80E08F8FFE5F10008FBFB0806E8F51606FE12EDF4FB17F607FC0B01FE0128E4EE0CF5F90EF9F7190F11F0EF2E06
06E3E5F62209040D050224F81404120A0207F6150A01FFDFF0090EF6FB0907E5F607FDFC0BF8EF0517F904021706FB0B27EDF708F2FB06E2F907151EF502340B
02F2CBE921010D17FCFF2B041C15F913FF01F7260BFB0BD503021101EB060EE1F60E06FA08FCFCFB14F6090107F301022D01FC05F9F610E1F90D1712F70F20FC
04F1E0DD0EF9170705FB1EFE0E0AEEFA0109032104FF0ED508EF110EF60309D9E91305FA0106FCEB14FA05FDE7F80C0F22030100000C20DCFF05090B031EECF4
04FD13DAF1FB1FFA05F00BF6FF06EE0003FA0804FDF610DA07FB0207FD03F3D8F80D03F802FBF8FCFE06FF01B2FA0E0A25FFFD07FF0F23F70109F906F826E5F2
0F0021D8F2F905EC08FFF9FD03F8F8040C0607D006FE05D707FE0405130CF6E9FA01FCFF03F5ED00ED080411BA08111D0DFB0504FA1318140D03F4130212EBFA
0A082DDFEBF50AF1011AF3FDFEF6F7F8FEFCFCBD0803FEDEFE0A05F70914F5DAF3080002FBFEFF03F009FC02CDFF050911F7FAFB080F2A25F9FEFA0F0A06EFFA
0D0D18DEF6F1EEFFFC1EF40003F8F4F90807F0AD100C07F0FE0501000F1DF7E7EBFD0C0201F1F008CCFDF80A100F0A060C0803040009352E08F8F40616E90215
0B0912DD03D2E307FA1FF009F309F9EDFFF8FCDB13120AFD00FEF6030B1C01F700F30506FBF8F50AC70EF6F235F80109FE01F9FB0C002B37FFF4F3170FC3FD12
120205EE01CAE715051BEB08EF02FFEDFC04F71C0E0A10060806F2FBFE0E01FFFAFD05060A01FF10CCFFF6FE29FC0A0AF804EF09F9FB3B38FF02F9120DCFFE16
0CFDFEE8FFCFE107F30DF50CEC02FEF8F1FB033C12040DFBFEF9F9081310FD01FFFBFA03F7FFF609C8FC040415000015F4FDF803FBF63215FB05F30406DEFB0F
0702FBF704D7EC10F60CF5FFE2FE09F1FD06012D0A0C0D050AFBE9080A09FB0A02F902F905FAFF00CAFF06F81603060DF601F50400FE370DF808060F10F10110
0500F5FAFACAF10D0AF9EFFCFFFC01F1FFFBFF2D0BF10C020A09EEF70F0B061410FCF3F907FBFB0DC80802FD080E060BF8FAFE0102042BFD000AFE0C0B11FCF2
0007F0FC04C8E5FE04F6F8F7FA04F2E8F406FC200CDC09030602F70303FEFE13FEEEEBF70DF7FD09C909F307030CF80109020D05010330DEF514FD0A0A23FCE9
04FBEFFBF7E1EB0302EFF7F7F5F5F6F2F90D0E0802D8FCF9FE00F3F5070C021F00EDFCFA07F5F90DDEFBF808F0FF090B04020E06FC062BDAFE0FEC18FD25FAE3
F8FFEAF8FEDCFAF6F7F8F10608F901F30B050A0305DE0302F80506F2F9FA0105FFF9ED0204F8F506E707F70001070603EC0015FEF50924CEFB04F006FE1705DC
F300EDFE14D6ED0A07F3EAFD06F8FAF0060313E705DFFFF5FAFEF7EBFA04F915FAF6EBF7FBF1FDF8DD08F41503FFF9FAF5FAFF00FA1427D80010E707FF1004DD
F1FBF60912E4F8010502EDF6040203F30AFD12D903F00507F3F203F7FBF7030503EDF003F7F802FFEE13060FF6010C050406040CF8151EEFF805FDFF000706EC
F603FA0E0BE3E9FA060AEFFC0F0DF2000EF90BD9FF070412F3F903F2F4FE0210F8E4FBF4F4F7F604E20D02040404FF00FCFA0307FA1214F2020402070E150AF6
05FCFD000D141605070E000008010C070EF9F70EEB0E1B0810020407100806E913190C13F70112010FE513F20017F90A0BFEF209FFF61607121AFF010D0AFFFF
0AE90BF8FF0C0AF9020A08FE0AF916011BF20006F7121119141109FE0B10FEEA0D120A03FE0407140AFEFDF4041CE702F8F5020E06FA0A05041309060E13F0FD
00E8FCFCF8020EFE0605FF010903FDFBFCFC020D010C11FD170E090817FCF3F50D0603FC0607102205F50DFCFF04E7000F030D0000F8FD060505FD00170AF1FC
FADEFEF9EC0206FA0001FF040711FA08F0F80209F60EED010DF60BFE1A00F1F9FC06FEED0AFD181BFDF305030200DF0C1AF903010BF903F301040DF40209F5F9
F9CAFFF8E309FFF70608140C070D0001F702FB0C09FFF0F708F90DF0200DF4F9F90A06FC0901102205F1F204FA04C0F517F202F7FC08FAF6060910FE0605FDFF
FED30AFCE4080AEAFA0F1F0B110BFBFF01FCFB06050AF8F7FDF101F910FFF2FFF41209F1130518200504FD0206FEC6FF17EC02FFEAF70103080410FA0B0007FE
08C80AF1DCFFF906F1F5211004110602F9F6FF0A0D06F6E6FAF913F9171001FDEB1302F3FCF512130BF60AFDFEFBCC0027E702FD01010203FC0910010B0A0C10
F9CD0EEFE8F6FA01090C290E120D04060202F0FD100309E9FC041BFB060E0AF5EB0D07EC09F80F110AFBFE0A060AB9FE12E600F703FCF8FFFF0E190B03F5170A
03C804FA00FC091403022702101609000302F30D110708E0FF0C12020807FFF1F61703EB0EF40B1511FA05020B0AC9F41AF3FEF7FE0001F80A0B151701F51C09
06E5F4EA18FF091A060D160904120704FAFBF71000FEFFE9F5FB1007EE0508FFEA1307F301EAFA0406000BFE0AF0DAFA1FFC0108FC080BF1FF091118EEFA20FA
FEE3F1EF1AFB1A12020810040D1B050BFE01FA19F9FA09ECF3030810ED0204F6FD0D0BF808ED0206090504F517FFCB051AF5F80104FFFFF3040C191FF0FE2812
F5EBE1EB0EF91A1908050201021EFC1102FF092C050405D4FFFA0D05EAF90BEEEF1CFFEF03F703FC09FAFFFB0BF7D2091C02FDFB05001BDFFE13FB21F10415F9
F9F8E6E200F3220A0BFEF6F2EF12EC0BFC08062E07F51BE701032400EEFE01E8F21509F00DF307F412F4FAFFF1F0D60922F906040D041BE1FEFFE711FB13EDF7
FE020AD6F1FC18FEFDF3EDFAEC0CFBFB07F9060701FD09E801FD110005EB08ECF60EFEF2FFFC0DF30404F00DBDEEE5070DF6FD01FFF710EF03EEED0D051ADAFE
0BF51FDFF2F0F7010E07EDF9010907FDFA00FDD205FCFFFB0907150411FFFEE9F90E01F6F8FA02F6E308F40EE10BE50711FDFC030000170006E7FA180A18F303
04FF28D7E6E6F6FAFB1DECFFFCFAF5F6F601F7BA10FCFC03F6FF0EFE0EFD02DFE6060FFCF3FE02F7DE01FCFDEEFDE6100902070604021A17FFF0E806F9F8EF07
03F71EE1F4DEE209F626FAFC0F03F701F80305C1FCF90112F7F6FFF6FB00F5EBEFF4FFF4FEF702F5BC05F6FA1F00F20406F5F4FEFB072925FFEDFA1601DBFA12
0AFC07DFFDD7DE19FC24F307F40BFFF5F2FD01F60A080824FA080DF5F70BFCEBFBFE05F1FB0E07F6B40BFEF827050102FAF9FD04FE041B29FFE7FB13F7D1020F
0D02F5F0FBC4F30AFE0DF701DF0F03F4ED0306210A07072308010302000D0DF807FFFEECF80405F3AF0AF5F821FB000804FBEFF501FE232EFDE80706FCE31016
0DFFFAFCFEC8EF09F9040507E9FA0EF3FA03082B0715101208F8FE0A080216EE0005FDE8FB06FC07B4000DF61606F20D02FCF9FE00F31D1AFA000AFC04F10603
0806EDF305CCE210FB04FB01EFFA15F4FF0A05320702121B13F9F00501FD09F403F6F8F20AFEEE09C4F6080A0AFB010502F9F9FCFAFD130BFD010C01FF02FF06
0408EC02FAC9E2FEF8F8FE09F3FF06F1000D082601F00D1A0EFDF8FA05050F0CFAECF9F205020C09B9F406F9FC0CFC07FBFF04FAF8051CFCF60107000F1A00FD
0902E6FDF8CDF6F001F9F0EEF6F4FAEE020AFE1800E0091202FC00FBFF02030C0CF4E3E600F20204CE080807030BFF0DFB0604F8EDF91CDCFE09F5FFFC22FEF2
F2FDF80307D4F103FAF7F804FBED08DFFD02040A06DD0B020900FAF708F6010EFEF5F3E602F7FA0AC2FBF10BF0090404FDFC14F6FC0A19CEF616EF0FFD1804DB
F5FAEC08FED9F6FE0B00DD03FBE8FBE202FC09F3FBE808070204F2F6F9F9FB0FFDEFEBF2FAF91200D70BE10502F9FB020AFF15F5F4101BD3FAFFEE02080CFDDD
E701EF090BD7E80207F9E3F806F202F006F310E0F8F2130EFBF6F5F602FAFF04FAF3F7E9F3F30D08E011EE030403000102000EF8F50516D80508F701031710E8
F603F50607E8F6FCFE08E5080FFFFDF8080004DCF9F91505FBFBFFE6F802FD02EBECE7EDE9F7FF01DB04F405F4050F00070413FCF21A0AE200FBFC030D0E0FF9
F6FA021607D6F2FC0301F1F6FE05F0F909FB17D104EF131901F50AFDF2FA0306FFEBE0EDE6FDFCFFE51CFCF5FC03F8FC000200FCFF1A19EB04F8040307100CF7
10FC0505040305FD102100F4130C060613F40212E8120B0A1308060CFBFAFCE90B170A07FB030D030BF41DF50B0DFFFBFDFBF3160CF7061E1B0B0C0D121CE805
0FF3FDF70D110D07FF07FEF604FA0D0813F60006EF0C0F020E02050B1209F9FB0F1205070704110F0FF611FB1111EC05FFFC090305FD07FA1D1F07060D06FDFD
FEE409FCFC07090B05090008FF13F7FF04F0FC04F5100C090F0208050EF8F3FC050F06F2FC101612040F09F506FDDB0303FE0B0108FD00F7140F0207060FF0FC
FAC60AFBE5F50BFD05020D041112ED04EDF40404F505FFF4090004001409EEFDFF10FBECFB0E1B0E0006FD0201F4C9FB08F508FA00FFEE0208FF04F20CF9F6FA
01CE01FEE5040006FC021A05FE0C07FDF2050511FD04F2F4010103F30D0EF5FDFA050FF603010F250602FF00FC04CA0512F90AFD030403F9070311000CFF09FF
06BC08F8CE010100140206080D17FBFBF507010C0307EFF001FD000506FBF6FAF10E14ED00FB1A1A04FEF701020AC4021CFF0203F602F6FD0AFD0D02010B0408
03C912F8DDFDF503170B0E06030E050100FAFC0AFD0AF8E615F411FD0D0AFEFEE81206EC0BF312160F01FAFDF406B8FD19F102F4F105010609F8090903010E08
06B608FDE607FC07030C2007121C0D02FBFAF60A13FC02EB03F61F061B140001F01A09E601F2101F0A0BFE00F411A8FF1DF1FA04F7FE02FB010B16070A06180C
04D2FDF2F4FAFE0C060412120D1E0A030104FD0C0501FBEE050812FB01FD1006F11814FA01E5101F070106FA0102B9FB15FD060200070AFD05100914F6F31D0C
08E7E8E412F4020CFD07110D091601F7F6FDFE0F08010BEEFDFC1E04F90314FCE70C0E03FCEF0A0B0C01FCF90B00C7F916FE0203120915F800180A06F3EE29FF
07DDE6EC07FF120F08090C080D1902FB03021411050603F409F919FEF1FC08F4F41E07F3FAFF240303FFFCF50903C6FC0BFA030F1AFF12FE03160316FAEF2508
FCE3E1E80DF7230F0B1208FE0424E809FBFC161BFAFC0DE7F8FF1DFBE3F502EDF22403E9FAFD19FC15F9F2FC0000D1F508FF07FD1CFF0ED8F31BF711F7080FFA
01ECE6E00B002E0108FBFB05DE15EC03FCFC182103FD06EEF7FD2C06FAFB0CEBFA1EFFF3FAFB20E418F7F001D7F8C5F60DF801FD12F61BE1F4FBE21BE915E3E7
06F903E6F0EB130507F9F3FEDB14F7FE03010C03040408FFFB0223060DF708ECFD0904E6FDFA1AE6040AEA08C2EDDCEB000402FF14FB0DEAFDF4EB03FB18CDEF
F8FB18DAF2F1F2F40203ED05F50EF10DF8FE05D2F7FD0615F902240119F5F9FFF30807E8F30103EEEC02F8FCE408E2F106FD09FF0EFF130404E9F70FF312D607
10081FE3EAEFEBF80A1FE50005FCF303F8FCFEB3FA020922F2FA17F603F2EBF2F5FC0DF3F8F009EBCE09F2F9FB02F1FEF5FBF7FE0F05FA12FEE7F805FC05E50A
04100EE2EDDEE011F519EB01FC06FCFDECFAF6C40401F61AEC0105F9F9F4ECF7F1F504EFFBFC08EFC8FBFE0525F8F1F5FEF9F107FB01021701F00110FED7F90B
0DFE02E7FCD4E20CFD15F609060CFCF8F8F70A0D070FFF2C00030FF7F3F706EEFDF509EBF801FBF5B800020332EEF9F8F4F4E203FD0BFA1D03E6000CF7DA0A13
09FE00F709DCE910F50BFF0CED090804F5FEFC2605050A2F06FC0CF1FF0902F0FF05FDEA020304F8B1F603FF1204FAF0FDEAE1FFF3090024FEF60904F4E30609
11FBED00FAE1F310FDFE0708EE0305F6FDF50A2C020C1227FD0AFD05F9051AF103F606DD0B02070AC8EEFCEF08FD00ED0001EBFCF2FC0426F3F80EF001050407
06FDEDFFFBE0F011FBF90706E8060CF5EE010B26FB030B1F110B03F3FD0A1601F8F8FEE809F8F50BBE0208FDFF01FB05FAF4F401E8ED0011FD070403041309FC
FAFFEF0604D0E70BFEF9FFFBED06FBEBF206FD1205F11E280D06ECF704F40EFC01EEF2EE05FBFE09C500FD03FA0000F305FD0CFDF1020609ED02FBFAFC260DF2
0B02F500FCCEFB03FFED0008EFFCFEE6FD02030A01E216180AF6EEF3FAF40A05F1F8F3DF0EF5FB02BCFC0300FE0901F7FA020DFCFAF80AF2EF10FC01FB1D17E4
F504F70304D7E8F7F9EBEEF7F4F1FEDCF20406F5FFDB161005FEF6EB0AF305FB04F5EAE703F3040DCAFFF70A000CF7FAF9FF12F5FD0E05E1F519EA03F51F16DB
FA04F61110E1F6FB06EBF3FAFEF309E4F1F901EFFCE11313FCFC0EF805011804F1E2F2E801F600FBE0FCEBFBF1F5FAFD0B091DFBF5FB08DFF308E7FC061B0CE2
F3FEFD1312DEF300FA05F4F8FBF4FAE3F7FE07D502E70E16F1F20DF502040B05F1E5E8E5F5FB02FDE105F610F304FDFDF60D08F9F81109F00006EFFBFC0E01F9
E5F5EE160CE3FEF9FE08EDFF15FBFEEB0A020EDDF8F7080AF7FB04EE02F813EBEAEFE5F0E9FDF602D500F006FB0307FAFF090E03F81602E60104FEF806020EF8
E702091017D5FF00F711EB05110609EA0BF615D408FB131401F204F0F1FEFC00F3FEEFE6DFFEFDE9DA13F5FBFC0501F7FB000C06040A06EF05FE1203060D0602
12F813FF110A0A01071DF1FFFE0510030AF3030AF112111621130F160E1404EA09060408FF06131706FD21F6060AF0F50306100F02FF0906220A010E120FED0A
15E2FD0708FC0A01090C0CFA0910030C09F2FF070012050817040C0C1508FDFC0F12FE020604081103FC1DF2EB0BE4FFF4FD030C0EF70CFF070E0917130EF401
10E207F7FE05FDFD11FC0503FC0C07FEFAF7F909F40A02080A0B0F000D0CE5EC020D03F409FF0E0F060108FFFC09DC01F8FD06020CF500FD07050C0408FEF609
0ADAFFFCE50800F5FBF904090B0EFBFCF60007060600FA00FDF8020217FFF0FAEE0CFFE806F416120106FC00F803C4050BFF11FA13F900F4FD03FDF6FB07F700
06BB0BF1E6F4FFF1F8FD1400031009F9FF020806160DF1EFF40404091214EA06EE06FEEB0703261CF40007080C09B10E0000FEFAF90CFBFB040307F5F7FD02FC
F7BD15F7E30AFC0105061B131416FFEFEAFBF5010103F4F3020104FE0F07F30BF30501F001FF19210403F204F907B8F300F904F6FB09FCFF0D0114EFFF0C0E08
05C20EE7D402F10501051A06101802F8FF02FE0A110100F702091807120AF3FBE00E13EA07FB2118050BF606FC0BA7F9F8F30201010909FE1105150EF80A1311
0AC105F4E2FD04FBFD0B1A071B120DF704020A0003FDF5F803F612FD14FD0400E90707EDFFE32022020A00080D14A9F3E5FBF4F9060D05FCFF071AFE0908200B
0AD9FBE9F5FF01F401F91415151501FEFBFA0AFA0DFC08FB0A0E12FBFF0904FBE8160BE302E22423FBFDFCFDF40DBCF6E9FF0C02020E0703F8130804FC011607
06EEF4E0FFEC10090C120E0B031B06FAFA080A02FAFC12090BF9160DF6FE1B08F81012F400ED28170B0C02F704FACAEDE301FFFA140C05EEF816FC01EAF22A06
FEE4F9F310F724FEFC040903021FFD01FB031601F3F408FC0E000C00EE021000011D07EEFFF63206FAF903FD1306C2FAE3FBF9051F0F04EB010C0506EEF72507
03E9EEEF13F1300F0103FBFADF1B0409F6FD1709FCFC0E01FBF51EFEEC071104F61107E6FCF8290A16FCF9F2F700CCE8DCFB00031A0507EFFF07E414EDFA17F9
FCF6EEE313F21F040AEEEEF4D228EF0A00071A1CFB03060AF4FF1A08F3FF0EF30A1A07DE06F229ED18F8F9F7D7FAD0ECD8E901F80CF402EBFCF0E20EDB0EE0EA
FA130BE80701FBFE08F2E5FBCB17F307F4F81AFCFFFB101000FC23F80EF31604031614E2FFFD15E80C10F104D1F1E5DFD5F002FA11F0E0E5FADFE00FE90DD3FD
F10B15DBF4FCF1FA070FF708EF08F80BECF602D700050F1A02FE25F508EF0704EF0210DFFCED07E8FC14F206E900E8E4E7EFF8FA13FAE3040CE2FB0A0011DB09
F60F10DEF9FEE30D0519F00A03070414ECF304C3F6FF0822F7FA1BFB0AF9F6F6E0040DDD09F1FEF4EB0100FC0202ECDBE8E0ECF201FEDCFCFDDE060FFF05E412
FF0B03DEEBF8E506041BFB0A08070B13E8F6FFE5F70D002AFBFC11EEFFE7F0F6E0050FDC08FB07FBDE05FFFF18F1F3E6F7E9EAF8FFFADA09FEE5120BF7DEF40A
0D0408F4F9FCF408EE2206FF0906060DF0F20917FE12FC29FE0815F0EDF4EBFBEC0305DA11F4FEEBE50301FD25FEF5E4F8EADBFBFCFDD51C01F00D09F0E7060A
03FDE809FD07F109F3140111FD04030BF2FD0E24090FF82310030CF2F807F6F1F70D02DA0BF805F9EBE7F7F50FFDF8F0F3F4EEEBFCFEDD2509E81403FFFD05FE
0AFDF507F80BF601F2F7080EF905FD1B04020729F40CFD2A0605FBFCF20002FEF2FF00D913F0F50FDFF102F009FE00E902F4FAF3F001E715EF000A02F50801F8
0202F503F806F50A03FC0800F304100B0004F81DF2F908231203F0FF000A0D00F408FEE111F30510DFF805FB05FF03F5FD04FEFFE200EA1A01FC1504091202EB
FF01EE12F9F6FDFE00F6FBFEF1FA0108F9F80802F4E90E171BFBF7FFF9F90EFAF0FEF1DB0FEA0B0ECBFA07FEF602FEFCF9030FFCF8F2E900F6FB05F7001509EA
FF04EE15F7EDE9F804F3FAFCEFED02F3F5F803FFFDDF0F1D0FFEFBE705F10BF7EA00ECD109F407FBC6FBF8F8FB0E02EFFC0219FCF7FADBE4FA0701FB091C06E7
02FCFF1BFFE2F80003F7F4F4EAF0FBF0F005FEEC04D7041307EE01EA0DF121F5FFE7F3E107F502FEDB00F20BED08FDEC0B0914F7EC05E5DCFD1CF3FF091012E7
FC11FF1510FFFCF7F4F0EDFFF9EBFDF3F806FEF0EDE20615FCFA01EF04F81805F4E4F8E4EFFAF8EDDAFAF807FE080AF1FF081A03E902EDDF0509ED03FF1504E5
F100FC0E05EDF402FCF2EBFDFEFF15F1020509DE00F0F80EFEF7F8F011FC0AE7F4F4EDDF00EF01E6D90AEF02F60EFBF5090C1202F808F5F10012EC0209080FEF
E600FE0F10E2FC170EFCE5FF0F0411F7080211DC00EF0207EEEFFBED05F60DF9EDF1F2DFE1F5F2F2D713FD0BFE0401FD00FC1608F309FBE7FEF9F809FD080FFE
ECFF020A09E8FB09F605E7FF07FD01EC12F00CD4FDF80319F4F907E800F81A02F5F7EFDEE100F7F2D6150302F90FF4F4FFFC0CFCFA0AEDE9F7F80A02040805F9
06FA0B0114FD03F7FA0BFFF2F2F4FD0613EEFB11EF0A150B1B09FE16100704EF1304F7F507FB0E0706FC1DF9080EF806FD0007060EFBED1017090E0F0C18F30A
08EEFDF918FC040006040FF80501090E00F3FE00FC0F191518080003091602F1FF09FDFE08FF0D1603000FF60E0FE501F10210030BF2F711190B0A0A1811F50A
05E20C0402FB03F409040AFD0707FD01FDFAF911F3050A0500FB05070D06F304FA04FCF908010D0BF5F006F40D15CEFCE706FD0511FC0703050B030D14F8FA04
F3D708FCF804F9F913F514FAFB03FAFFEDF9F9F8EBF3FBFBF3080A001309F3FF000706FA09021A100FFBFEFEFC0ED500FE020BFB0BF50AFEFD0B0AFB1103F403
06C5F7EDDFFAF3F00FFD0E0D0A13FDF10303FEFA08F6F7EC030108FB1C14E5FDFA0EF5E804FA170F0108F80AFB17CBF7E8F802FF0B1013EFFEFF0AF104FF0DFA
04D311F0E5FDEFF905050211141000F6F0FD0109F9F9F9F6FDFFFF061709F204E40300F108ED1A12FF0BFAFDF90CBEF6E8FE04F506FD0302FB0904F80507FBFA
07D107EADAFEF1F30901170F17060C050AF90608080101F402FE000B0A02FB03EB1204EDFDEE2A19FF09F707FA0CBFFAD6FCFFFC16030EFE0C0B15F7100415FF
05D3FAF1EFFA00EF0BF812111C0909F7110403F20E010403090A04FB1B0DFBFBEC150CED00E82E250410F209F91ACCFFCEF907030F170AFFFF0C10FD000223F3
05E8FBE800FE18F30A0B0E09151609F301FF0BEC08F80607000009FD11020303F51902F0FBEE2A1900020106FA11E7F8B9F3050D140D02F61010FE0600FD21EA
05F4FEDA0CF618F20A10FF0803230B0300FE0CF0FAFB081014FD010AF4FE1A04F6120FE3FEF228240AF406F2FC13EFFBB9010CF41101F7FE0604FA07EBF12CE6
FFF5F4E50DFB19030014090AFD16000611F61E04F3FA04060A030EFFEDEF1608FC15FAF1EEF6270F05FA09FF0B0BF2E5C4F001F40E1201010203E510EDEC2202
FC04F9EA16FD15FC03F70A01E823FC0AFD10150F030B0E02FBF30401EA0215090913FFF206F8150D1EFD1B01F50BFBEFBDE703FE1207F4EFFCF2DE07DAF922E7
F90BF0F20BF90702F6F7FC0DC51C0C0902070D12F7021BFBECFF0603FAFC18030A070EF311ED02101A051CFCE30006D9BDDAF8FCFB09E4DEEFDED619E800EEE9
F11400F003FEE3FDFAFFE8FFD911030DF50E07E6FF041507F800070006FF1D04F9FC1BF214F60102110D1004EE0408DEDDDBFBF8F1F8DEF2E8C9FA14F407CAFF
EB1602EFF804E7F60017EBFCFEFA0E0FF20205E2030D0713F8FF05F005FF030BF7040FE515F2FAF4040C100406FA06E3E7CFE00205F1CEF9FDDC110CFB15E207
F02809F1F508DB020A1CEC170503120FFA06FFD501080718F9FA09F10102F802E00816EB1DEFF1FF0410FD0910040CDDF3D1D7F7EEF6D80401DB0C0C05FCDD0D
FA090BFAEA01F1FD0618FE0F12030016FA060DFC0817011DFCF804E7FD00EAFADD0E08E213FDEE01F7FD05FA19FEF6E4FCD1DBF50102D21109EC1011FCEEEC0F
02FEF605F11F0B03FD1F01060201001001FF0520000FEC1B0B090BEDF0FEE701F11004EF14FAFA0413E905010DFAF8F0F3E7E6F8FAFED62209F20C03FDF00009
0EEFFA05F11AFD0BF00BFD11040414240EFC0427FE01F10D0C0C08FCF6F5F501FE0EFDE219F0FC0A09DFF6F807FCFAE6F7E8FAF2FB09DC1901EE08F6FC04FFF6
12F6FAFBF612F2F7F7F51102F70000150306050B0807EA1A1A0E00FDFD0AFDF9FB0600DE0FF0F805F7EAFEFD01FFF7ECFEF8F6FCEEFCDF15FEF904F2020DFCFC
1306FA05011902EE0DF6FE0DECF9071800FAFC1303F3F40E2105F3F1F6FE07F6FB12F7DC09F0F403F6E104000209FCF1FEFD16F3FEF3D30FF1ED17040911FDF0
0C06020C0A08F8FF08F80000F2FC0114F40604FFFDF2FC121E04F3EE04FB05F9F9FFE5DDF6EEFC00F701F6F4FC0307ECFB0716FFFAF8DD00F809FAFB041201E3
09FC0B15FC0200F901F1FDF8F4FA050AF6FB0DF9FEDEF3110A04EAEC0A070AF6EFFEFAD4EDEBFBE5EF12F107050B07EC0C1419F208F4C6E7EF08FFF9040D09D6
0DFAF91508FDF405F7DFF500EBFB0BF8F0FB02E302E5FC1405F8EDEE160206F8FCF1EFD9EFE3FDEED40BEC03030902E911071FFAF403DDF2EB17F5F2FD05FEE6
F2F409190DFE050403F3EBFBF002FFFDF906FFE909E10315E8E9F3F007F21802FFEEF1DBECF6FBE5DF15FA02051307FBF90A14FDF20AE0EF0309F605FF0C0AEA
ECFDFC0C02080204F704E90404F106F703FE03D708ED0713F0E904F604F30A01EFF1F4DEDFF6F4E3E60EF808F80302F0080506FBFAFFECED020BEDF70D0C05EE
F510FE0813E603050C08EFFBFEFAFCF117FE07ECFBECFE0EECFE01F8050116F0F3F1E5E4EB01F0EFDE08FB02F10E08FD030009FFFFFFE7FC0AFFF6F90DFDF8F2
EEFEFA10FAF200FF0101EB0608F80CFC1BF410E40B00FB10F1F604F603041103FDFAF8E0E3F6F1F0DE0E03FD0013FDF5F3FC0708F902ECFE09F908FF04FBFB05
14FA0C05130714071412F0F204FE040410E2FB0FE50917080C11030B040400EB0F08F50DF9FB11100CFF07F1F70FF1E3FF0D060504F40B0F0E10060B1D14FA11
06F1030105090DF316020A020308F60AF9F7FD0FF10A0D0409FE060A0C0900EF0A0DF706F5FFFC0101FF16F90110EBFAFBFAF9FF0EEF01020A0BFDFB1207020F
FDE5F300FF0701F808F5070106010A070900F60FFA02F9FA0205050510FEECF1FD08F6FC040A0806FEEF06F1FE13E6FFD9040DF20A0202FEF20704FAFDFCEC03
06D901F1000800F506F70709FF05F6F6F7FAFDF3FD0208FEF6FC06040E09F100F506FCF8050703070903FBF9FE0FE501E40E0EFA0FFCF2F9FDF50DFA0507FCF8
FCD5F6EEF0F7EEFC0DF014090B0A0003F4FAFFFB0808FAE9F407F5010B0AE705E7090AEF0C0C1808EBF7F50BFA0FEBFBCB0504F11A10FDF5F6F80AE4030607F3
03E307F8E90803010EF50D03050FF9F8F8FB0F000600F7FBF202F9040F02F208EF0D09F90704140A0909F2040204F9FDD30004F70CFA08F4F8F90BF008FA09FA
06E90EF4EAFA00F11BF90101160400F311F910FD11F9FBFA0000F20815F9E4F9F30C09E703F41B0D040AEC0C0214FB07BDFBF7F8030FFFF201000DF70A060702
06F801F2E5010CF415FC071112060DF919F806F70CF203FE0702F7011B06ED01F90708FA05F20D0CFE07F209F8170710B1FFF9FC000AFEFC0B0309F6FB0218EF
F808FDE9FBF90FF50B05F80912030FF409FE0EFD03FBFB06060103041805FA08F90902F602F41817FE0C020200130C02B8000D090B04FBF6070BFDFF01011FE4
F6FF04E3FDF31DF71111F709070F09FA16010EF301030F0704FC00F8F2FA12FFFDFF02F500F5181BFC0512040D101A00B8FA01020216F8F20405EB0DF5F52AE7
F90C05F108F915F808040C04F00704F90B0309F707FBFC0D07FD02F8F3020E0A090B06F502FC061614FC0DFDFA091708C8F501FC0316FFFC0BFEE905F8FF20EB
F00BFDF714FA1907FBFF0703E2FE090411060A03050B0BF8FF02EA05EA0C1D0009FFFF000AF2F7140BFC200CF5071CFBD7E4FC03F508EDF408E1DE14E2F825E9
F71CF5FF1E0904FDF207F306D50805FD0B01040D020D1407F509E809F30526090EFB13FD08ECD915190E21FFF60E1A02E7D8FFF9ED0DE4EBEED1F112EAFFF5F5
F01203F21301E105FCFDEF10E2FD07F90C02FCEBF81113F807F9E201FE0019FB01031A0816EFDA100F151DFFFE0A1303F9DAE4FDF502EAF5E8D10611F70EE5FF
EC13F6FA1108E8F90A0BEB0800FD150D0205F7EE05190B0814FFF5F8FC0409F1F807130618E3E7070D1C18F9090101F5FDDCE4FEFD01E2FFFBEC0B0D0B08E30A
ED17FEF9F713EE05010CF60A07FF0B0608FEFBEC031D020608ECFEF203FD0800E1F916061BEDE304031012FA130603F30ADFD601FC01E6060CED0E0106FEE8F8
FDF807FEEC13F206020FF80A1301120F060A0D0C050EF9091003FEF6F500FAF0E007080422E8EC1003FE0C000AFD0D03F3DCFAF906FDE40F11FB1703FE03E307
FEFEFDF9F71EF9FB041B00040B050E16130B02150719EC0512070CF2EEF3F0F4E90BFCFA15EBF50F10E502FD0609FE03F5EB06050AFAE51605EF0BFF02FBFCF9
06FE05000413FE00FD0C0403090000170AFBFA10FF10F00C241600F1F4F6F000FD14F6F513F6F3FE1DE1FCFEF70E0A01F0F6120206F6EB1B08E704F9060AF701
1000050AFE2203F2020400020905FA0F09F5050CFEFAE70B140B08ECFBF8F500FF0DFBF70CEDF8010CDCE8020AFE00F8F9040EFC00FDED0C040208F4FF1004FC
1AF807FE0621F9FD01F70708ECFFFB1207F702070CF0EF0D1209F8F2FB04E6FCFA0EE7EDF2F1F4030FE2F409FA100AFDFD071AFDF902EB0AFCFD00F30F05F9E3
1FF7FE06041D04FC1402FB04F507F215F2FEFEFE0AECEC09160DF0F00303FD03F0FEE9E9E9F7F1ECFEF6F6FC070A04FB0A0A22F3FB07E9F4F1FD01FD0F0601EA
13EC00140C12FDFBF5F6FDF8FB06011603FA04F4FDE4E7150003E5EA050103FAFF01F9DDE6F5FEEC0108F107FF14FAEB04141DF6F1F5DBEDF611FBF2040100D9
04FF0211FC08F9FBFEECF501EA02F80EFEF401FE07EBF20CF8F2F2ED11F9F2F6F7F1F6E8DBE6F9E2FE0FF80A07040FEC030D15F3EA07D7E5FF02EDF6FA0B05E9
F407130800FFFDFFF9E8EFFAFAF4FDFF050305EF08E9F801ECFCECF20DEFF5F3FEF500E4E5EF01E8F013F902FE1002F605091100E80DDDFE0212F0F6FEFF04F6
F1FCFC0E1201FEFBEFF2FA01F503F908F9FA03EE02F40101E5F1FBED0CFC03F5F6EFF9E1E6F2F6E0E40CFC08F310FDEE0F100BF6F007DAF40710E5F7FD0509F4
F9FD001002F81011F4FFE505FD06040305F318F201F4FA12EEF306EF03FB00F8EAF6F8E6E5F5F8DEE815F8F7F80206E5FFF80BF8F5FADFED0EFEF607FC0800FE
E1EBFD0913F40F03F70CF00B110610FA11F90AE101FC0014F5F6FFE8FBFD0DFFF1F8F7F6E0F2FCF7EF10F4FFFB0E08FE040008F7FE0FE600FD040206020C0A02
1D08FE01110508FA1009FC01FCFBFD1211F5FE0DEA0318161B1104030911FEEF0D150E0FFC0404FB0C0411F7FD1BEDE2F606F5FE17FEFB081207090A0F06FF09
0F09F9FA04FBFE051AFE0B00FDF9F701FCE9FF03F70D15091E0E0AFB040C0101F801FF05FE15FA09090210F40904F6E7DF0407F914F90D100C0305F41515F608
10F60AF7FF010BF50CF11201F801FA0AFAF5050602020F03FFFBF7F80404FAF7FAFB0400080BFAFDF8F00AF90005F8F2CF020BF909F202110F03F5F4FBFEF805
FC0103F302F6F8E70FF8FE04F9FBF5050000F6FEFD08F6F4F800FC0AFB04F707FB060E0C081A060807F8FCFE010B04FDD610F7F71401070906F8FBEC09F2F2F6
000B09F2F4FAFCF009F005F9F70701F8FD02060100F502F9F3FFF808160BEC01FE07FA090A1108FAF7F9000405030BF8CEFCF3F2140A0800FCF904EEF5FB06EF
FB03FDF5F8F7F1FC0CF40A0C0CF2F9F7F80106F504F900FFFAF7F8050809F8FEF2FFFD04040503080402F0FCFDFC16F2D40A03F413FEFBEFFEFC11EC09FC05F7
090206FEF401F7ED0BF3FFFF10FA04FA0DF3FBF10CF8F6F4F60701FF1000EF02040E0A0305040AFDFD03F3FAF60A2612B9FFF3FA0812FE01080111EF09FFFEF0
060C02F3E5FAFCE803F2F80409EB10F3090909FA0BFAFD06FEFBF90118FDED030C0701F900FF0908FC000009FB052D13C2FEF9020214EFFD0607F5EE060909E7
F8190CFDF3010FFB0204F71302EF10F2100B02F608FD0301FE00F7010AFAF0F711030AFF09020510FE02F60E05122519D40B04FEFB04F8FF060CFDE70BFB1BEA
F6140BF2F6FF10F5FA06F70BF9EA10FB1207FDF70C020CF8F9FCF7F803FF020000FB050DFE00F51408F2010F060E2328E016FA0CFD0304F306FEF0F2FEFF21F9
F20804F8F8F40BFEFC040206FAEA06FE1703FEFF0100F60901F9FEF2F5FCFD0316FEFD070400E91A02F70F080A052115EF02FC09F20CFAFB08F5F307FE012502
F90F05FB19FD0A10E605FF04F5E409FC0F06FE02FD030B08F40AE8FE000503F610EC0F060E02CC200B061202010F0D13FDFE0301F90DFE000CE6F2FBE9FC1BFB
FB13FE0418FAFB0AF702F205D9EE12F10C0CF206F9190FFC0409D810F4F51BF40BEE1B0D0AE3C00E11121B060012171C0EF3FA06F705F6F9F2D9F205F30103FC
F10DF5FB0F01F20AFE0FE806ECFB08FF1309EF01020C0B060FFEE5010AF415F3FBFC141412F3C614041E1900FF1A0D1210EBE110F607F101E9EB11000009F5FD
F905F5ED0F05F6FA0AFDF10B010013F60604FBF1080F11041808FA0104FEFEEEEEF715150AF2EAFE0D0B0F010B12110F0EEDF408FC05FB00F80014080E0BEDFB
ECFEFFEC0908EFFE0A0EF9FF0408150A05FB04F7FC14000514EEF305FDF9FDF8F0060F0D12EAEF0CFE0C10FC0E0806150800F20DF8F900F8FB051004010DF5FF
ED0108FDF214F9FA0410010616FE0C0B170B05070B15FDFE19F704F603FD00FFF206000C0AECF0060EEE0BFD050D0F06FCFD0E0A0502F2080E020DFE08F8F9F5
F5F80300F10DFD04F117080F06FCFD110F060D13000B04FF140C09ECF5F5F403020901050BF303FD0BE504FC010C1009F705190917FEFD0B12FA0EF40BFFEBFB
12FDFDF6F91A05FEFAFDFA1213F9FB0D1B00020406FCE807110D05EDF5FCE7F3F51EF30CF4FB00FF16D3FF01000E0213FA1115100EF2F20908F703FAF910F5EE
170202FDF30A01FB0000000D0407FD080A0206080EF6DC071C07FCF20508E9F7FC18F0FAF1EBF4020AD7F7FD0500090707FF120605F7F00B04FBEDEC0510FCE8
1E02FEFEF60BFDFFFEEBF8FEE802030EFF0703FEFFF0DCFA1308F9EE040BEBF7F612EBFFECF8F2F703EAF4FC030B0CFE05080F03000BEB0002FAF4EDFF03FCEC
17F7FAF9041BFB0003F7FFFBE406EF0BF9F9FE0A00E1D808070DF5E6FA0CE306F1FEEDFDEBF2FAF20CF9F5010C0D0404030614FD0101E3EEFE06FFEDFC04FAE7
16F10303050DFC0300F307FCF60DF207FEFF06EC07EBE705F2FFF2EC0509EAFBFCFEF9F7E1FD03E60908040C0804FAF410061B01FA00EDEEF203F1EDFC04F9E9
05FDFBF906150001FEF4F3FEE8FEFC0D00FBFFFC11F4EDFEF3FFEDF21806E8F5F6EEFBF6E5F3EEED0419F70A0208FEF9040618FDEB0AE3FBFA0EE6F2FE09FAE6
F8F10203FC07FB04FFEEF104F805020707FBFDF213F9F5F9F00302F5120BEFF5F508FDFBECFAF4E0F913EC07FA0AFCF8FF0415FDF10AEAF3050CEFF4F403F6E9
E50A04040116020F07FAE901F30AFF070BF60FF505F5FD0BF2FEF8F30B05F1EBF9F3FDF1EBED04E5FC0AF7F9FC17FFEB13070CF3DC0BE6FBF6FDE4F9F9FFFEFA
F3FA0205030706FE09FFE602FE0000090FF810F408F60203E80401F80605F6F9ECF4FEECEBF4FEE5F4190CFA010706F609070EF1FD02D8F503F5F5F4F6FAF9FB
FDFA060302041303FD0BEA010EF60D031AEB06F211FAFE11F5FE07FA06FB01F8F7FEF9E9F8F7FDE7E619FEF5FB0802E80FF81BFCFF01DFFE01FD0902FF020806
03110CFA090502F9011205F9FCF9FA0A07EAF60CF4091D0A1112FD0E00040AEB0908FC02FB08FD05FC0A16F60A12F9EEEF02EE0B0AFC080C121B0B0C0107F609
121305FBFE040902080B02F9FCF501F9F900FB06F20C090A0B0C070802FF05EC070902060109F306FD011CF9020303FAE70A03F81D020A1806F9FF0008F6F507
000A08F2FBFBFFFA06FD010402FFF8FCF7FB0801F00008F9F903F8F00B09F8FA07090210FF13EE0904FF06FAF01304F9DB0901FF13030D000C02FEF300F1FCFA
FF09FCFAFCEFFCF515F407FC05EEFCF7FAF508FE01F0FB00F907F3F80B06F502FC0400000C0EE2F9FB03FCFA000B0CF2D20F02EE0601FAFBF6FE03EAFAF4F9FC
080E05EFECEFEEF00EEF0808F8F3F8F5FDFFF7F90CFBFDFD02FFFCFE1400EFFBF6020BFD0D12F0F5F7FF060104FC1203CA0EF5FE0706EDFBFBF209F1F8FA04F9
FE0102F5F404F4F30EF3FF0D0BF2FF030301F8F6FFFBFCFCE90302F20304EBFCF808FE030615F0F70209EBF606FA1906C712F7F40E04FCFB02FE10EEF9F809F6
010D06F1F106F7E719FCFC0617ED06FA0B0400FE0FF0FF05E0FA01F81308E404F9FFFC00FA09F5F60603EEFEF6112912C40EFAEF0C05F202010302F3F6F90FEF
F41202F8ECFC05E703F9F90811EA04FC1A04FAF707F306FFEDF400F60E08E8FF18FE05FE0410E8040300FEFFFD09231ED0FCF008FB13F7F709F90BF8F9000BE3
F718F6EDEF010DE9F5FAFC0508E3FFF422FEF5F90EF8FA0BE30206EF0B00E90316FBF701FF1DF40CFF00F9FDF5FE2923E507000EFE1404F50B01F4DE03F91AE9
F70F0AF3F1F51205F10C060DFEDDFB011908FF0610060706F104F4F2FA05F10118EF0E0A0B08E61EFC06FCFA0C051924FC02FC0EF306F2FA12EFF8EEF7FB2CF2
FC0A0EFD03F61309EA090B0502D40DF11602F2F90800FD0CEA0202EC0603FB001FE9FD0C0A00D91905FC1006010F222C0E06FB17F701F70414F8EAF3FDF11CFC
F20701040AFC0313E7010311FED80FF22103F009FF0F0AFFFD0AEDF4F1FB0AF713EC0804FF07CA130EFF120B010E132B13F9F41DE90EFDF706E5ED05E5F822F5
FC07FAF714F4F312FB01ED0FE3E70DED1A0CF01104140CFA0E09DB1501F512FC03EE1A1516F3C025061C17FF070A0E2A18FCEB18EE05F5F5FBDEF907EB0107F6
EF0105F018F7ED0E070FEA04E3F909FB1209F9FDFD0F110B16FBEA17FE02150004EA1C0D0AF0CF0FFE211B090C190B2B2309F00EF5FCF1FBEEEC0A050903F708
ED01F8F61CF7F402130AF10BFEF61BF91501FEFAFE080BFF16F5F503FDFD10FAEE00160A05F4EF11011106FAFF16051F1705FA0EFA09F803FF0116F5070DF8F8
E4FD02F70F04EE021707ED0910FD17FD1D02F905FEFE130B21FFF40BF9F501F0EA0A041503F4FF12FA020905FD14FD1F0F1A0102F7FEFC0609060BF71201ED05
ECFAFEF6FCFCFE030C11FC0D1907040E1EFEFB111507F80413FBFEFA01F0FEF3FC0AF317F8F1040BF7F808F8FF0E011608091A110AF9FD031A03120504FDEAF6
F6F901F1F609F500070DF601120303FD1707FC0A01F5F7001719FFF500F7E1FE0716F406F1F5FBFDFCDC02080813FD18060727040CF8001010F50DF705FCF9F6
08F901EBFC0AFBFC03FBFE0A03F9FC0619FDF9081100E5FD0E1401F5FEF8EDF00718F010E7F300F808CDFBFCF404000E0810250519F7F20B02FEFAF10204FEEC
11F203F3F40B05FFFDF0FD09FC0DFF0913F2F4FC02FDDF041510FAEC01FEE7FF0621F90DE6F703FB03C400FB03120C0F140A13060CFCFCFCFFFAEFF1FE07FAF0
0EFC0AEFFD01010707E3FF0BF501F7090B00FAF40FFBD9FA050FF7E2FD01EB03FF10FB0AE402F6E90CDF0408040504FD0B0017010404ECEBF5F6EFE3FDFE00E3
20F5FDED000C050C02F4FDF7ED04F11100ECFCFE04E8DF04F505F1EFFFFBE503FD0CEEFDDFFE03EA03F4EF02FD08FC0305061FFEFF04ECEDF901E7E4FFFCF4EC
130308EBFA13F306FCF8F703E905F211F8FC060018FBDC06F70BEAEE0EF9EB02060CFBFDE805F3F00B08FC0B020BFFFCFDFD1901F40AE300F913EAF00203FFEC
0AF406F50716F80109EBF90F02FFF913FFFC07FA0AF5F003F7FAF7E71A00E6F9F4F6F4F9E602FCF30E13F00E030D030006F914FEE906F0F5050AECFE010206F1
00F404F8FD16000805FBEAFBF80BF616FDFB11F708F4F0FFEFF9F3F01A04ECFAF6F7EFFBEFF405E7F61AFF07FA0B0BF407F612F6E205ECFAF911F0F905FAF801
F2F8FDFA090BFD050CF8F1FBF4110311FDF20CF612FDF8FBF3F8EAF00FFFF8F3F5F7EDEDF1FBFBF4F60EF7020C1200F104F40EF7E30CF3F60409E3F20702F7F4
E8F5FDFC09120AFD10FBECFC010C060B12EE17FC04FAFF08DB02F7F00D0200F9EEF1F2F7E9F802E1011AFBF7080614F50D0311FEF50AF7FD0304FE0508FCFAFE
FAFAFB02090414F5FFF9E5F205F4060AFEF318F105030404E6F604ED09FBFAF6F600F7E2ECF300EDEC1301EE070D09E209FA0A00FD00E90800F0F5050504FB11
170BFBF90A0A02FC091404F006FC050107D7F812E30317041110FEFAF70806ED1005F906FB0FF2F8130718EAFF0D03EDF208FB0406EE031B131100F7171FF209
FC0F01030F090007070709FDFFF1F4F906F60304FC0611090704F6F2FDFF04E8FB0D0514F218F1F70CF91CE7FF1511E5DEFBFE0409F7FE000B03FF040A01FB02
0E0C09FA07FEF9F40EF5FEF601E1FF02F1F50306F702060104FAF70109020BFB0401FB160C14EAF8FB050CF7FB0811F5DE06FDF507F70702F8FEF3EF02F80607
FC1B0302FCFD00E605FF0FF8FBE5F0FDF1F5F70604EFFFF901FDF5F50807F207FC0AFE0F0914EDF7F60705F007021BE0E60DFDF115010006090609EBFAEDFAF6
060DF5F8EB09F3EA00EF0AFC11EBFBF903FD02F305F407FBE3F4F4FC1205F4000300FC060F15E8EF0BF702F3F90325EDCE02F5E8110806ED0404FFF1F4F903F6
0521FBF3FBECFCE605FEF90105E8F40904FCFF0107F908F8E6FFFAF402FFF9FA05FDFC0E0218E3EF01FDF102FDF521F8E506F6E70711F9FB03FE07F6E80208FA
011708F6F1FA04EB0AEF06F718D8FB011AFCFAF50EEB0A09D9EBF3F409FFEBFF110EF8000715E5F6FAFCF4FE0A021A0AECFAF0F20210FD02060F02ED030B07FA
051CFD02F40104F700F7FB0601D0FCFF2400FD040DF6F204DCFFFEEA08FCD8031A03FC0FFD1BD1E7FDF9EB0DF6F81215F1F9F2EEF1FFF7F3140403DBF5F910F8
06110CF9F7FB03FDECF3F20809DD06F4200AF6F50EFAF202D207F8EAFF01E8050EF7090A022AC9F8F001E20C09FC0B230206EAFDFA06F4FB0E0500E001F509F2
FC1907F3F7FB0F09EDF6F70D07D708FF1705F101070303FEE8FAFEF8FEFCF1F611F80AFD0615C4FA070CED0503FD10351307ED13F40DF90008F3EEF2F6F717FE
FF0909FC04FB0717E3FEFF0703E111F41DFDE801061002FDF209F5FEF6FDE1FD1AE30804011DB9050002F0FC0FFCF8311511F216F308F80804F5ECF4F6EE2101
000EFDF80B05F91BECFEFD08FFDD11F5100BF6FE0510040D050EEB03FCFEF6070DEA0D14FF1BC112090BF4070B09FF3F1C13F717E504F6FDFDE1EDF4E4F610FA
F1F8FEF619FCF20DFAF3F10BE0EC17F8150CEE07FA14170A1913E913FAF9000508F70A130819D1120118FB050B13073A3421EC12F8FDF1F1ECEA02F4EDFF0B02
EFFCEFF517F2ED0A0D07F301E6F109F30D03EEFEFE080CFA17F8ED1409F90F01FDF218100A18E413FD21FF01031A022D192CFA16F3FE03F4E0F410030905FA01
F4FDFC0202F6F50B14FFE906FFFC04FC1708F6FE03081C0313FCFB1106F905FAFE090B0DFC12F60BFB0F01FD07130024162509FE03FF09FD01F910ED0C0CEA00
DDECF5F20AEFFD071308EA0A120207F81911F3000400180716E8FE0EFAF215FCFAFEF713FB090D0CFFFEFE000B1103180E1320080808FDF707FA1BEC0C08EFF9
D7EFF8FEEEFAFEFDF70EF2FC23FE03041E0806070B0009FB0B02060302EE02F21410F207F10F0A0AF0F20204F31F001D001A24080EFFFEFF1D0F10FE0BFAEEFA
04EBFFEEF9F5F9FFF30DFBFA16F6F9011DF2FA1701FD0808101314F108F3F1F71B11E00AEA120DF600CEEE00F90D03110B0F260912FCF80020FBF9F30103EBF1
07F400F1FE02051100EEF2090C02000015FCFAFF10F3E708FC1704ECFAF1ECFB0F1FEA0BDF0301F505C5FF01FB1C080DFF0A1D031CF8F5FA0CFEFAFBF700FAE2
12010AF1FF0FF80604E0040FF50004080DFD02FC06F8CD06F302FBEAF2FFF5F9021CF40DF5050403FFCD0703FC0CFE0A040416031301F9EDF503E5E904F6F3EA
1803FEEDED06F807FEDCF011F40400F903F4F4EF12FDCAF6E50BFAE7FDFDE0F60D0FF109EC1603EF0CD109FFFC1B0B02FF0913FD08FFF7F7F6FBE8E9FDFCF9F9
13F308F1FF0B00090BF0FF02EE01FD0C05ECEEF60D01DC04F107F4EEFE03DC000F0EEE09F204FFFF17FA02FFF70F0300FE001000EC11FCF4FBFAEDE7F9F8FBF8
19FF01E70418FD0F0AF2F905F402F905F4F5F2FA11FBDD0BE5FAF4EC0000DEFE07F8F50EDF0CF5F70D080109F81D0AFC09F61103E40AF9FAF70FF1F9FD04F4FB
0FF102FA0211FD100BECFD01FB07EF0F02F1FF010FFCEC06EE02F3E7110CE7F105F6F508F20EF3E80D11FFFBF909FD0702FE1505DD11F001000EE1F9FD0303F9
F2FBEDECF60DFF02FAF0F507EE0AF60FFDFE07F60B0FF1FFF9FAE9F40B02E5F6F904FFF7F906FCF0FF19F9F7FF0A0204FFF90D00ED07EF01EE0EEFF4EEFEF7F9
EE0C04FA0522F8FBFAF10802EEFFFB1A08F60FEC0902F903E2EFECF81301FEFC04FAFAFEFAFAF1E9050D0C05F80E00F7F8FE0A00EB0DE2F8F90EE7F6F6F802FA
E3F900F4F7100CFB0C01F3F301FBF91009EE0AFC0CF2F9F6F2F408EC0E06F4FC03FA01EFEFFE02DC011802FF0A0703FBFFFB1BEDF009F2FBFD04F1050A05FD06
E7FE0E01FF0911070D0CFDF70505FD0BFFF711F1FC04FFFBF3FB14F10DF6F70105F400F1ED0008F1F11E03F608090EE909F51D06FA07DBFFF4F2F0FE0707F10B
0A050DF8160000FE090C00F80BF8030107F0FF09F0011F0C140400FD030007F41700070501FEE3F2041011F9051407F2FA02F5F605EC011315120D071B13FDFE
000B0BFDFDFFF9F9130C09FB01F8F701F4F40205F2110F050B0402010A0F15EC0DFBFE12040FED04FCFC1CF4F50E1FFBECFFF5FC02F8050B04FC0307FFFCFFFB
F4100BFC010308F30F0412FB03E5F80AF7ECF403F0FB090E06FBFAFE05030EEB02000519090DD40007020BF4020418EADA0BFBFBFE01EFF40A0505FD070DFE00
F11AF8FBFFF505EE01F904F4F9E3FDF4EFF8F5F6FBF00B02F3F7F5FC0A0800F510010419FD15DCF7071008F305F714EAD8FCFFF008F504EF0CFE0602F912FDFF
0215FAFCF305F0F6F9E805010AE3F9FEF600FCF808EA050BDBECF5F713FC07010E08FF160811D1FEF4F603F8FCFE0EDAE10BF7E10906FBFB1000FFF1F0FD0F02
092503F7F6F2F6F9020302040BDFF9FCEF0CF8FB03F30304DEF30CF3000206001102FF0D0E1BD0F1FCFFFFFFF5EF1AEAFAFFEEE3080700030EFAFEF1FB0509FF
02230FF1F5FDFDFCF0F2F7F312E5F90703FFFD01FDF3FA0DD1E2F5F50500F7FA07FF04190420C3E1FF09FBFFFCFE14E400FEEAE70A0807F3090201E7F6FEFBFE
121A04FFEAF30306EAEDF90004DB020A16FEF7081CF2F60ED2ECFAEC0B00F00119FD060D0D21BDDDFBFEE60104F203EE0109F6E60C0E00F50E1000EFF6FF0DFC
07220608F6F50717DCF0FD0303E505FD1103F3090D05FC0ECC07F8E80BFEE4FD18F70112051FB8E4FFF7D90AFCEFF9F20E06FEDEFBFE01030905F7E3F6F508EF
FE0F0C0401F2071FEAF1F3000AE711071306FA0B0B0DF808E30A06EA0007D4031AF301090B28BCEFFC03D5F9FEFBF811120FF2EFF7FC01F30B06FDF3E7EF0CFA
0BFFFD0201FF0A19DEF4020A02F40707160AF6FCFC010204FC17EEFA0302DE040EE6040C042CC4EBFD09D7F40906F4171B17FBF6FC02EF04FC01FFFBE4F3160A
FC04FF0A06FBF90EF4F0FBFCE6F709081B09F005FA0D000B190FF7FD0006EC001BF91205F828DCFD0215D302FD05F11E1A21F4FBFB0901FBEDF50AF6F6FB0DFE
FCEFEDFF1E00F80F0DF4F60BDCF80E010C09F7FF060504FE1707DE120B0CFB040BF2160FF122F40C0212E30B0604011D2128FCF20004F3F0E2F407FD0806FC0B
E9ECF10616E700FB20FFF2FAF0F703F81601FCF804071B0215E9F315FBF40B0E07F70F0AF11AFF020B08E503080AF9171A21F7F605FD02F4DE0220F8110AF90A
E1EEF30412FCFCF212FEFDFF03F1FE0A120E010103F517FC07ECFB07FDFD0A0B0402FA10E80E0A0008F8E8FD0609FF0F081913F0110900F508080EF61601EC06
D2F2F003F6F1EE0105F6F900110006FD0D0CFAFAF9F41D0803E9010DF7EB0BF91708FE09E4171809F9DEE60AF11CFA15091F14F5170E07EE0A0A14ED10FEF205
E2FBFE06F9EDF6F2F3F5F40010F4010D0A0DFBFC0CFB0703F9EE010306F30A031910F217E9120CFF06E2EBFDFE11FF0A020F1CEE1905FFFA210F09EC0703F805
FAF205F6ECEEFAFCECEAF4070FFC03FF17F4F504FCFDF805F21111FDF9F8F8F62513F411DD1A04FC04D3FCF9FA1A010DFD1222F9200308FF11030101F002EFF9
10F3FDE9EFFD080400E8F20205F3FFFE0FEEFE0BFEF5E3FFFE170AFBF7F801012218F010E40702F0FCC70900FC0BFC11040F10F80CF5F9F308F4FBFCFB0AF7FA
22F603F8F4F5EF040CDC020AF60405FD0CF2F5F509F8BF09F41B00F2F9F7F903180FFD0CF40E03FF02CE0A020210050D00F80EF80002EFFD0305E5DEF7F7FAFC
18FC00EAFA0AF70C03E500FFEAFCFFFE09FCFFF508F8B3FDEA12FFF9F7F4E7FA1011F71CED1106FD07EA18FCF917F6090605180EF606FAF3F1FDECEAED02F501
200500ECF904FC0DFCE50606F1F901FCF7EEFBFD06F9C900F2FEED02FEFCDFFF10FDFD0EED0A03FD15F81304FB13F806FE0014FAE503FAF4F90BDEE3F504F713
18FA04E5F70FF60F07E6FC02F405F6FDF5F5010A0805D901E401F2F2FCFBE5FC06FBFF10F10FF7F1120F09F8F91BFF090BF51C08DD10F6F6F711E3F8EA0BF4FC
0D04FFF9FB05F50209F1FD06F703FF12F6FE01010C0EDFFAEEF2ECF51403E4F90AFD0315F70CFA01011BFDFCFA0FFF0D03FB17F9E00D02FDF40CE4EBFCFCF3FE
FCFEFDF5011004FE0CE9F9F7F307FD10FCF40BFF0EFDF5F9F2F1FFFCFFFFE6FF02FA000EF902F9EC0E21F9FFF509040EF5040EF9E402FBF9FD0DED00F109F3FF
E8FFF2FC021AF90C0B00FBFFFAFFF81DF7FC120611FEF4F9FEDD01F2FFFFF9020DF7F70D050BFBE60418FBF50616FFFB02F501F3EC05E9F0F4FBF1FAF401F6FF
E603FDF4E91E04070605FCEE000600130AF116FD06F805FFEAF504EA07F8F1FE10F5F900F1FCFAEA0D25F8FC04020508FFF81BFDFA0BFCFEF8F9F10001F8F805
E4F20BFDF61908F806080BF60507071D06FF190510000100FBF504F208FF010509F7EEF7F0FCF7EBF91D0306010AFBEBF3F41504FFFEDDFEF8FCFF070405F40E
0B18F90504070C04010BFFF8F8FFF3FF03ED0607EC041502150201FE0B0210FE1210FB0CFC00E7FC00051AFAFF1411EBF9F8F10B06F5F21212FC080D17F9F809
0C180DF70903F9FA02FF0D00FCF8F903F8FFFD01F0F8120A0F0B00F4021010FB07000419010EDD1003FD0CF704000CF4F905ED03FEFDFE0D1DFBF9020C0CFCFD
01260906F2080AF9F60100FFF6F0F8FCECF1F6FDEB051109FFF0F2FEF7F610E8FD0A00150505DCFAF6FD09F9000212F3FB0EFEF509ECFD080A00FEF90607FF06
FE24F703EC02FDF6F2FA07F406E5FAFDEE02F5F8FBEB0A02F3F801E706FF06FF0809FE1B060DC901FEF60DF704FC19EBEF0FFC0208FB00FAFB06FCF2FA060CFE
FD1EFFFEF8F708F2EEF6FBF00CEDFB02E60A09FA09EA0CFAECF1FBECFEFC03F9010403140E16CCEFFB040CF5FFF206D8FBFCFBEA080603FE110A02F1F30B0D08
0921FE05EEFBFFFDF9F8F5F408E8F204E3FA010802EC0A02D0F900F9FEEF07FD0AFC06120407CEFC030A130809EB06DA0B08FDE3000AFB0108F600F8EC01FD09
0C200002F9010002E5F5F6FE15ECFA01F401F2F803F20903CE00FDEE0EF804FB0F0A0409060CBDE809120B0B0AFB05D20908F8D6060A08070A0BF3EDF90005FD
051D0C08FDFD0707D9EEF5FD05E60E0AF609F90307F1F601CFFBFAF4FD0302FB100BFC0B091AB4E0FB01F70E07EB06C2130B04BAFDFAF8FE0A1200FFF5040AF9
050B0703FFFE031AD5EBFD000CED0001F7FF02F103FB050FE004F8F4FF01FDFF13060D090A19C3DB080CE8FE01EFFCCA0B13F8C703F5F705FF1201F7E6E8FC05
0EFBFEFEFDFA0815E8EFF6050B00FE16FF0CFCFD02FBFAFEEC1A02F90009F6001AFC1208060ECFDB0413DC0106F4FECB0D1600CFFE0300FEFA0701FBEFF703FB
0BFE080C06F7FE14E5F40402FA08F5120701F807080409FF0519FCFAF5FDEB0D16F5080AF812E3E9030AE4FF0EFCFBD9170300C80B0A02FE03FF00FEEBEE0A03
02FD02000FFA08150CED04F7F101FF18FA00F600FA030B071B12F4000004EB000C03110FF816F2F4020DD3FCFAFCF6EB1717FCD9060CF9FBDFFE0CECECF60DFF
02E9FA111807FCF925F002FBD8020017F517FF09050815F611EDEA100504E5FF0AFB110EEC220EF30412DA07080605F80F17FCDCFC0904FCC8090FF00407FB0E
E7EDFB09100101F62DEDFEFDDBFAFE0E000E07F502FA18F707E5EF05FA01FFFF0A020F11FA1A11FC08EFD6F602FB07F20A160CD10C0BFAFAD4060DF10311F701
EAF9FD0D0EF4FCF517EDFBFB08F5EE0D070201FF09F414FDF5DEFE12F8F509080DFFFA0CF31D08F5FFE7E103F9FE0704001417E8120104F012130B021007EF12
DEFBF305FE01F9F5FDE9ECFC14F2F20A081001EEFFFF20F7EED00602FFFE02070C050009F41415F70BD8DFFD040F0104FF0C1BED110A06F4120509F61404F10C
F5F9030501F9FCF5E2EEF0FF1CFE030C0EFAFEFBFEF60B06F7F3FD0809F819FD280BFE10FD160A02FCD9F8070005FB00FD0A0FF812FDFCF41D04EDFB0507EC09
07F807F2F1FCFAFFE8E9000C18F8F40105FAF809FA01F5FBE91504FAFDF407051E11EE11F71006F9FAC602FDF30CFB07FF1108FA0AF905F21903FAFAF700F410
170205EB01FF00F6FDDEF109FEFE02FC06ECF6F401F9DE00E3230408FD0102FD200EF512FE0407FC04CC0000F40FF404FA0C03FFFCF6FAF5F701F603E202F90E
1CF20700050303FB0BDDF60CFDFEFEF1F7F6F7F1F8FEB900EB0E0B0AFCFAFA001908F60D060F0008FCE502F8050B0105F40606FBEAF50CF6F800EBEFED03F812
16FA01ECEE03FFFE05E3F902F4FF01F2F5F6F2FEFEFDB80FF016FF00F7F2F50015040314FF0B0202FBF118FD0708F3FFFEFB0E09E5040BFEF710F6F3EEFCFC11
190400EDFE04F90303E5FFFCF6F80603F6F1FD0701FDCE0CF203F80902F9E9F819F7F51BF90A040606141BFDFE07FF14FBF818FCD60409F5F00BEBDEEA06F40D
190405F6000202050EE50700F1FB05FDEFF3F30701FDDE0FEAF4F8F607F5ECFE14F7FA10FD13060B0A2004EFFA10F304FCF913FFDB0805F9E506F5E4ED03FB14
07FB07F3FAFCF6FD0BF400FEED01F808EAFE05040D0AF303ECF5F4010F08E1040FF9071009150307002AFBF8FEFDF9FEF9FE0DF8DB0DF809E90CEDEFF4F6040E
FA0300FBF50D03FB0D0404FC0FFAFA0DF8EC0CFD0CFCF1FBF9F1F6ED0EFDDDF515FDFCFCEF0CFCF3F622F3F6FE0800FDFBF90EF7E400F8FAFB03EDEBF80AF408
EC09F3EBFB07F50B0CF7FDFE0208020D01F608F500FFF702FAF0FB020F07F3F710F4F10B06FE01EE051AEBF4FB030A0BFFEF0101E80A09FBFDFFE8F8F6F5F505
ECEFFBF7F60804000205FAF008F1060CFEEE0FF8000200FEF0F612EA00F8ED0317FDFD0A010BFCFD0414F4FBFCFCF705F4FB0EFFFC0EF7FEF9F9EFFDFFFBFE04
E1F8E7F9F20610F4080A00F70001FC1100FC1EF7090D0FFEF6F908EE070FF1F609FE05FFF505F9FCF21709FC11FB00FFEEEE09F90F04EE00080000FAFFF4F405
020515F613030E0C011208FA04FA06040CFCEF07F7FF0D1509FA00090A0F0CE9140D0615FCFBEA060C121CFD0F1FFB04F7F9EC1518F9FA0C0C13030D0109F008
03200CFC06FD0B06F90C0AFB03EFFC0CF6EBFD00EC080E0700010AF6FD0A05F90A0E0D18FFFFEAFD0E0716F4FD000EFAF603F4080AF20409110AFE04190CF208
03160F00F5F7FD05EE0409F2F7F1F600FBFFF8FBFA000212F3F900F304F80BFC050706010804D7FAFF0F1CF9FF060FF603FC030900EA050A1DFBF9F80A02F8FE
F0210608ED02FE08F00405EE0BF1F4F7E2FAFDF7FDFB0407F2EB03FD0C0100FD0709F909FE10C2F500041FF4FEF00FF30109FEF907FCFF0807FBFFF0FB03030E
F6260501FAF1F909E7FA01000FEE08FAE60EF7F108EE0508E2F5FCF203F108FAFB01FC140308E10307F81CF9FFE7FFDF020208F2020003F81307FAF8FA050004
F522080BEBF90601E0FD07F70BE0FFFAE708020208FC0A04E8FDFAEB05F3030200F809090AFCC9FAFE0924FD08EA08DF0906FDE00CFCFA0105FD0BECEF01FD0D
07140702F8EE0013DDF6F7F316F6FF03F2F2FDFC06EFFD0DDD0503E0FCF70EF503080211F707D2F501061301F7EF03C709FE00D00A040206130106F9EFFEF907
031406FBFAF40009CEF7F2F30FF30E02E5F8FE0504FEF50BDA0907E9FC020EFF0F0C0406F603C8F205031C07F6E502C11307F8C00B080602070508FAE8020407
0007FEF10200FD1BD6FB04FA0DFE0CFFF507FB0405FC0409E81402F700F615FD0E03080D08FFE4F603091509F3F401C50F0101C4F501FB06F6FDFC06E8EF0402
06F905FEF7F40A04E9F1FD04020AFD0BF6FC020803000D020022FA00020005030EFF0507FE02EDFD0D07FEF704F2F9C60AFFFBBE0306F7FDFB00FEF4EDEFFC02
04F40B0907FBFD0A05FCFFFEFE080202FA03090BFA010308041DF8F407FBF9020B020F06F90201ED051705F3FFFB01D203030BBEF703FB05FC1103F6F8F30803
08F705000BFE0B0110F4020AEDFFFB17EFFF090806030B080F0DF0F7050101030F010FFFF70402F40814F2FA09F403DC0511F3CC09FC04FAD80805E8FAF11102
F8FBFA0A13090A0035F20C04DEFE0014F70BFF0610F40EFF11F5F6000407090706FD0900F30E15F70403E3FD04ECF8DF0F0601CCFE0D0806CD0901E41202FF08
F6F700FE16FE02F42EFAF7FAF0F6F307F9110EF305F41707F9D0F40B050200FEFAFB0406F6090905FFEEEB0AF9EBFFE6FF06FFE20E0800F8E40D02E7100F0901
F001F7021105F3FE1AF804040CF6FF02FA0A09FF0DFC1AFFF1CEFE05FCFC13FD0101F903F70A15FA09D4EA0CFFFCF9EFFA0E0EF1020FFDF40D0FE3F5110BF510
F9FCF0010B01FEF6FAEAF4070E01F806F40AFBF901FA14FCFCD20610FFFF11FA0D07F409FB060EF806CFEF04FAFA04F9FA0115F90709FAFE1616E3FA0803F613
0400F1FCF80BFAEDCDE5FF0918FD0006F8F7FC0300F70106F3E90E0B000715FB1A00F710FB1312FCFACFEDFEFAF9F4FA07130CF5080606F11C0CE4F9F904FC15
100402FBFC09F7FDD7E9F00B03ED05FEFFF8FC0207F7F6FDF5140E0CFE000EFC1DF90311FD1505F6FDD900FDF500FFF9F3120603F90105FB0D02E103EF0BFB10
1A0500F70505F9F8F9E901FD09F0FEF4ECF0F102F605CA01FE2010FFFB050AF720EFF414FA08080300D506FEFEF8FCFEF61213F4E50109F50808ED06DC0AF616
1EFEFDFDF1FBFAFF09DD0008FCF508F9FBFBFA0A0003BB03F710080B0500FDF619F5FD15FD0D0BFC07E60CFA01F7F10400110501DFFB02F5F016DEFEEC080319
11F2FBF6F703F8F101E7051001FA0BEEEBF900F708FFD104F50F0104020200FA11F5F214FB0A0A0E080516F7F9F7FB12F30C1003E00109FFF10CEFF5E908000A
170400F3F904F8F102E90D07F1FD15ECE7EBF4040503CFFEF0FEFC020700F7F419E1F70C0D0FFB04091C1DF0FAFDF708FDFF14FED10201F3F30BE7E5EF09FD16
1206FBF5F00109F70CF80102FF0504FEF0F1F600F605EF00F2F20E0BFE07E6F314EE02100A09FE0C0B270AFEFFFD030CF3040C00E10C0BFCEF02EEF1F30AFE16
F70204EAF2F9FBF6FFED0B0401FF0C05F1FCFFFE01030108EEEBFB00FD04E40314F7FD050B0FF20D0723FDF9EBFD0208FC0A0A03F20F08FAE6FBECEDF705F406
EE0200F8FE0D03010CFE0CFD03FF0E0EFDF7120516FBF50807ED03F70706E4F60EF3F7010B0EF5F90226FB05FDF3F607F9FD1007ED0E0202EE11F2EE03FCFF0E
F2F7F1FCF813010016020CF9FBFE0404ED03120209040402F8EA05FAFD01E8FF11ECFF0AFE06F4FBFF20F1F606EEF305F7F510FA080FFC08EBFFF5F409F3F00D
DCFAF7ECEE0A08F60101F5E90DF0070D00FE180C0414FFF7F3F90DFAF7F2E4F81800F70AFC03FBEC091CFBFC09F8FA08EFF10D020D0EFC10F4FDFD010004F216
EBF8FEF8001716F7141508E506F9021EFDF40FF90CFF03F3ECF902F9F7FFF3031700FD10F7FD02F206120EF70AFEF905EEEE04021311F7FDF8060E0305EFFD12
111A1401121E0F0CFA1013EB08EC0C0B04F2F100E90D0F0C0B050D040A0404F21A0D001609F3E4F2100B19EF061F1300FC08F6120DFAFA0E1210FFFE1714FA0E
031411FF050E03F5FF09FEF400F80501F402F3FFEF0B0F0D0703090901F816F6060BFB0C0008E90107071EF406040C090208FB1311FAFB120805F7040406F50B
F8160803F4F9F908ED0801EF06F5F702FCF6FF01FBFC02FEF9F5FBF7070100F5060AFF07F80AD805F70315000E0403FA0009F50012EFFD0819040AFDFE17FE01
F8180D03F6F60109E50404F504EFFBF5EA03F302F2F3FBFAEBF800FE0A050CF107FFFBF5FE09CAFCFB0F17010B0006F6F60CFF040803010C14FB0AF6090714FE
F51CF901F8FDF80BE0FD04F208ED01FCEF04F906F5F71005EDF500EB0C060E01FEFD08050D0ED802FE071DFFFCE9FFF10B00F4F604FAFDFC1200FBECF6000107
F20AFFFEECF0FC0BDF00F9FF08F5FCECEBFFF9FE01F60802E5FC03EDF8F911F5FE14FF03FE06CEF8031413FA06EAFAEF0E0903F10FF6F7FE17F6FE01FB0E0006
FE1207FEFCF70614DC01FAFB0AF7FAFED803FF0AFBEE030ED70607F506F809F00A03FD010901D8FBF7121C10F8E7FBDE1800FBE7FD0200050F04FFFBF8F200FE
F70B08FEFFEF0416CD01F9FF0BF905FAE2FDF8F308F9FF0EDB13F5000BF105EE060AFF0BFEFED1000403210901EAFFCA0D07F6CA00F70A00140BF3F7F0F40704
F20206F106FA0217DD00F7000DFC0BFFE800F80CFFF70208FB1BF0FAFBF60DEB1410100F01FDE5F606121509F7F203D3051100C4020108020102F305EFF213FE
F6F40BFDFEF10903F3FEFEFE10020700EA02F701FFFF02FF0C2AF7F2F7FD0AFF08060FFCFFFAF9FD0010100303F5F6D90A0FF6CA03F8F901F70603F3FDE50DF6
FCFCFE0306F7040A0CFFF7FA08090505F803FB02FD0206FE021EF4F900F208F215051506F60407F6080D00F301FEFAD0FFFFF7C1FBFBF501F50F05FCF7F60E01
F4F702F7130B070727F70007E7030614F2FDFE0608FE02031611ED06030603000CF9070CFF020CF6000EFB00FFF6FCD0FB0AF5C211FCF705DB0507E40BF606FA
FDF807000D0E02EA3CF30008ECFBF916E80B04F9090211FB11DEF40C04F500EFFFFD0C0CF80F0CEA0E04E90400F803CBFC0803D50B0603F8D40E07E8100FFDFE
EBF405F60E0AFEF431F30903EA01FB03EE0907F10AFA0EFD08CDF30105F908F605FD0B05ED030FFE01ECEC0104F5F7D6F9050AD410F9F9F5F009F8E70A0B0B08
F6F902FC100FF6E912EFF90413FDF30BEFFC00F30E001AFDF4D5FB0500F2070008070304F41514F800E6F7FAFAF3FFF1FE030AFA110707041215E3F8070DFC14
F5FCF1F5061001FCE3EDF7030CF50710F3FD00F709FE07F6F8D80B0800FD030615070203FD0108F602D7FC0AFDFB02F2F51112EC1704FFF81714D7FD0C09FA0D
09FBFEFCFF0DFCF6BCE6FDFB19F7FC0BF3FFFBFF050304FDF2F9050DF8F503FE1407FA01040A11EE06DB06F4F5F2F7F3F90816F806F506F21907D6FC0004F210
11FEF800FE040CF4D3EAF60706000BF0F9F7F904F604E105EA24050BFDFB07F416F1F901FE0D0AFB11DDFFEEEFFBFDFDF6060805F2FD0903160CD40EEB10F21B
18F6F8FBF90704F8FBF0FC01040005ECF0F1FDFEFAFEC3F9EA210B01F6FD120615F6FD040E1505F404E10BFDF4F201F8FD100FF4D3F911FA0710E611DD05F018
15F9F6F9F302F8F301F8FDFDF6EF16F3F9F8F3040001AD07FB13FB02FB01FCFB1AECFE0A070E04F7100411F3F8F5FBFFF50904F7DAF40BFBF70EEC01E2FFFD10
1806FAFBF804FDE8FFEF09FBF90307ECF5FAFC04080CBDFDF0080D020DFD030516DBF80C0011FC00000B18FAF1F4F9FFF3FF0109D8F3FDF9E806E1FCE20D0215
140AFFF6FDFD060010F40A05F0F116E4F0FF06050502E00303FF02120302F3FF0EDBFF1107070A1003260EF4F3F7F307FE0B09FCD30413F2DC07EAECFB0AEE0E
140007ED0406FEFC0BE904FFEB0205F1EBF8FF0106FBE8FBF6F700030104ECF911EDFE0909140300052DFBFAEC01F60EF1000404E6100A03E816F6F2E807F41C
F6F602F2F3F901000BFB0003FAF013F0F6F804F80AF8FAF403FF01FE07FFDD031BFAFE0E0407F316F831EEFCF102F601F4050704EB0B05F9EA0DF5F6F7F2F411
FCFC09FEF7FB0AF912FD1705EEF90AFBEC090B0403FDF3F8F7F90309FD05DBF704E90706FF08F507F42000FBFCF9F505F603FE03FC0504FBF1FBF9F9FCF60C11
E6FFFBFFF708F4F703FF1AF2FBF9080BF00DFEF90604F6FFFBF1070201FEF0F717EDFF0C09FCFAF50C1BFDFB02FC0206FC000AFFFF04F708EA0FEDF4FEF00913
E50CF4F3FB0804FE0F0A0CFF0BF00511F3050EFA0D01070503F21706FB04E6030EF8000E02FA01F1071000FC0EEF0305F2FCFD0BFF110000FCF4F7010400F501
F1F703F3FC0809F41217FFDD0BE9FF15FEFA1202090800F8F2F91105F004EF0912F1F90AFDFA0EF3040E07FD08EE0FFA09F8FF040F06F20905F6FFF80003010D
0F1203FCFF02FEFEF208FEF30EF501FD0BE4EB0BEE111A0010FFFC0106050BF7040BFD1105FDF5F7130D16F606150F06F504F6140CF8F91713180905120EEF05
FD17030303010C0BF310F6F611F4FC020AE7FD04EA0F0F0504020BFEFAFE08E7070C0A0FFA14EBF715FE11EC0A05FB0D0618FD0A0AEFF51911090A111B1BE80D
F61909FEFB020300EFFF05EE0706FBF80601FA02F4FDF9F6F202F601FCF804ED010B01FCFE0FD000FF0709EF05020D0A0D0BFE1D0FFCEF0F10FCFDFEF90B0302
011A0301FB02FE09DF0702EE06FFFCEFF306FB07F1F902FEEE0606F80502FC03FC00FFFD04FCECF802060EF904F1F70E0B0CFF09FEF6060908000702050B0607
EF1A0509EE01FA14DD0204FD09FC02E7E50DF600F4F8FB01E707F70205F409FB0203FAFB0B00E707FD12120400E9F80E1408F60E07FE04041004F9F401081505
ED1400FEF1F3FC15D800F2FF1701F8F0EAFBF80600F40704EC0B01EDFEF20CF1FE09FFFAFE0EED06F90C0C07FDE7010615070006FB060A020A010303F2FD030E
F10DFA0201F5FD10D405F8FE19FAFDE9DC07F70BFEEC000BF213FDF40CFE01F30B110CF500FFEF0200071B0BFDDBEE060F0AFDF903FD050604FFF609F4030B0C
F203FAF2F8080C15D606FFFB0D040BF7E702050C0CF40511F9290AFF0BFBFFEAFD13FF06FDF8EFFA01062C1003DAEDFE0A01F9FC0A01FD00EF02F3FFF3011008
F1040AF4FAFFF408F603F9FC05030EE9E60505FC01F50707F4330510FBF615F2060F0200FBEF0609FA01251102E1F60807F802FF08000200E70501FCF7FD150F
F7F701F4050504070FF90004FF0806EDEFFE06080BFD07070D320509000318F40A04040900F406FFFBFF1A0605EC090A0DF902F904F80704E60801F50CFD08F9
01000AE9120807FD210007F8FB0108FFF001FBFB08F6070909210A0A01F40FF30108030DF8F8FE050808210802F0FD00FF07F3F00D060203D80904F108EC1407
FFFC08F1081604FD34F0FF07E8010BF8E80501FE01FD11FF01ECFFFD11FA09F609FE0607FC020B02040323FCFCF10CFCF904F703FFFB0AFCC90D0BED07F602FF
EEF507FA101AFEF340F30CFAEAFFFEFEF40003F50E0410FA0AC9FF080CFB05F00AFFFDFBF8F813F1FDF71C0800E4FFEA060CFBFD00FEFAFED914F1EF150D13FC
F405F7F6121A06FB29E50FF8F9050002ED0B00FD02FA12FC02BC0806FEF60000FCFBFF04FC070C04FBF40B0606DD08F40102010D00FC0402F215DEEA100D0304
FBFB0BEE0B10FBFAF2F003060CFCFDF0F806F60006FB02F6FAD6051200FA01F6FAF3F90D030207EE06E210FD03E7FFFD04080208FEFB05031B08C6FBFC0BFC02
FD0200ED0F0F0900DAEB07F815FC05E9E503FDFC0B080EEE03CD0B0DFE06FBFF03F7F400FC100BF101EC17FF07E809F2080C0607FC0109F31A16CAFE09030106
0602FCEFFF1CFDFEBCF007FB130007F0EDFDF90201FDF4F8F4FE001705FF0AF914E6F8FCFE0C09EEF7EE11F8FFE701FE0D130F0BE30208FA1A0AD405F2F8F616
12ED06EAFD0D03F5D5F403051CFD07EDE8FFF6F6F703D505F71C061501FB12FA0DE3F208F7110EF8FCF318F2EFE6EEF5FB1B08FFCAEE10EE1110DC09DF00ED13
18FA08E9FB0F06F4E2F6030A00051AECE501FB00FD08B903F42D151802FF0CF80AE502070A0A07EF03EC1CFDEBDAFEFAFC160E06BEF712F80A0EDF13DB0AF914
0DF901F2F301FAFEF2F4060705FD12ECE9F4FF0302FAB800F71DFF0BFDFE0A0211DCF90B000EFA06060E04F1FEEB0500F6110DF7CCF90DF3F106E3FBE8FE0016
1CF4F8F7F6000BFCF4E50602FAF618E4EAFF01FC0006BD01F9090014090607FF0FDF00020D07080DFF121BF9FAE0F108FAFF0600CBF70EFEFA0DF2FAEA070117
0DFF00F0F50603F107F6FEFB01F90FF1FAFDFD06F407D7F701000D04F704050813E1F211010D020C091DFAF1F6E9FA07FD090DF8D80508FEEF05F5F9EBFDF11C
04F9FFFBFA0CF9EE0BF10503EEF617EFFBFDFE0CF6FDDB02F2FDFA12F1FA04FC10E401120605071A0827EEF2F8EA0409F8060B03DF0A0FFCE909F4F1F4FBF81E
F9F7FDF7F90307F611010B03F8EF0AFAF90901FDFBFDFFFF00F7F30CF6FCF40C11EC0005100BFA09002DF3EDFDF2FA04EF06060BF40AFDFFDDFB08F80009FA10
F3FC07F6F2FBF9F210FC0EFEFAF40DF8020706F413F4F606F6F1FA00F8FEF20109F2FD03FE0600FC0025F3FBF0E2FF0FF4070404F50B01F9E701FEF7F8ED0106
E7F700FCF60C02FC14FF1500FBF40803FAFFFFF9FAFC05FBFFF80115FCF7F4FAFCF2FD08100D00FCFE1CF8EF08EBF30FEEFA06FBF9FFFEF5F3F80203FCF70A1B
E3F5F7F7F70910F7150D02F508F00A0FFEFB0DF9FAF51C07F7EE0F05DFF8F9FC11ECF704060800FF0B09F8FB02E9F80AF5FBFF0608050304FDEF0AFF08F6F10B
EE000BF7FF090E020F0A01E7F9E9081002000EF703140CFCFCEC0F07F402EEFD0501F90C07FC13FA08FB04FB05F50A0F0CFFFD0C010DF703FBF1F6F600F6EE11
140E06FE06FE000AFB0CFCF11603040713FCF60DFC021A1006120E02FEFF0BF308FDFB0F0007FAF5080411F008220A0F0F03EF0A08FBFD0D1A1316060011F30C
0516010100FDFF0EF306F8FFFA00FAFE08020002F304090904020CFEFAFB12EFFE05061207FFEE09FCFC0AFA031108050809FD1019F6FE0911FD01FCF60CF7FC
FB110600FB0FFF03EC0C01F90900F4020EFEFB08F5040CFE01140005FFFE0BF0FF0D0CFEF908F005F7160FF82108070B090DF61606F8F30C17FC04F90D0BF300
F811FA09FF02F106D7FF09FC13FEF2FA000CF1F9F9F9FE09F60D0906FD0507F6FB0F0007FE0EDE0DF8050DFCFEF8FE150C01F822FFFB00FE120609F9F70D0403
F011F300F907F306D7F805F80A06F5F0EE06030602F30707E614FFF7FE0BF8FEF90009F804F6EE09FF031608F3E307160C0FFB180200FF070BF302F2FDFE09F7
FA07FB03FD07F507E309FBF80AFDFEE8F00D0303FDF3F70BE61CF9F6F6FF0CFEFBFE03F7FB00F4FD0E0918F7F8E4001F1209061AF7F605FB0A00FFFFEBFC0101
F30B00F901FCFB16E904FEFE06F9FBE9F104F510FBF0F708F4210D0502F8FEF3F70206F9F601F60E03031409F2DAF913130DFF16FD000001FC00FD06ED020406
F9F902F40603FD0EE4F8F9070A0303DDEE03FDF602F90AFEF72F12020B01F7FCF81205EEFB0AFEFE03F51E03FDE4001D120C05210902020CEFFBFA00EEFB0504
EC0304FD020B01060F00FA04F707FEE4F109FA02FE03FF0BFC29090D03F408F70AF800FD0905FF0401FD2B0AF2DFFA1C0905001E0508F606E50503FAF7000B06
F20508F3FC16F80628F9FA09F30309E7FB0DFFFA00FDF90B0E1F09120D010AF7070CFD0602FE031402F12907FBDBFA160E01F31EF9F900FBD80406EA09011500
EC0013EC0909090C2AFCFF03000C05E80208FB0500FBFF0006110D11080108FF05FF07FBF7020F0101FD2506F8ED08140900021FFFFD0603DF0A0DFA14000C00
000201E9F817080A38F903FCEC0101E1F40B06F5090006030ADE130605F506EEFEF60804FEFA0309FE03350007EA042304FFF621ED030A0ACB06F3F914EC0E05
FFFBFEEA08160CFC42ED09F7E70C09E4F207FDFC08050603FDC60A1E06F402FF04F503FEFE080E02FBF73108FADFFF12F805F41A00F806FDD516EEF413FD08F4
FC00FFEF191C0DF933EDFF03F8FEFCE1F70FF7FC0D060F040EC3050E03F607EEF7FDFF0903051CFB01FA240F02E608FEFD01F813EF0108F30703DEEB12050400
0FFAFDEC0E1F0AFFF3F90502060207DFEC02F508FC04F700FCD1070F07030BF806EAFB010A021BF6F7F0210302DA0C01101AFF12D40602FD1B0CD5FD0A0703FF
0CFC05F2021FFC0CCFEFF804110B0ADEE3FE03FF040302F501E20514FF03050102F6F50405090E00F2F5210E05DCFDFB05060814D1FE13011C00C5F40B08FF06
0FF6FAEB0D150BF9CAEB0003130610E1F507000BF702E0FE01060A1A0E0E09FEFBEFFBFC080A12F700EC19FF00DB02FF0C15040EBFF907FB18FACE11F808F511
1CEFF3F30712FCF9C8FAFF0412F909DFE9FA0009F4FACD00F121030FFD0309F906E7F3F7F80304FEFEFB1FFFF8D2F10609190904B9F806EC1009E40BF0FFFB20
0BF0FAF1070E0AFBE9F9FAFB000414E1E4FBF7F7F400B0FEFC2B041603070CFE09DDFEEE0AFE10F7FC0014F9FCDBFEFE0515FE05CBF204F8070BE502E1F9F71B
03FEFDF8021107FEF4F90702F7F20FDEEE07FC0BFDFFC200F91D071C0906150B04F1F3FA0C11FFF8F506FAF4EBDE04F4040EFBFED3F70DF2F00CEF0DDB000118
15EFF9F9FF1306F4EFEBFFFE01F008E0F002FCFBF20CCCFFF61D1215F4FB10FDFFD9F6070204F905040DF501ECDFF800030C0A13D9FE12F8F3FEE9F4F1FDFB07
0BF204F5040BFFF1F9FD01FDFDF216E7F502FA04F0FFD1FAF50A010AFA000E1005E2FC020D13FEFA0119ECF303E0FD05FE010512E2FD050AE703E5FBEB03FB0E
F5F7FBF7EF0C08F8FCF706F908F214E80107F9F5FC07E10302FBFA07FBFCF7FD00F9FE0A0E0EF400F320E2F000E60605FB061302F7051200F2FAF4EEE5FEF40B
F7F10100ED0103F70E000E01FCF20BFDF9010B07F5F5EFF4FAFB0908EC01EC050AEAF604081202FB0420D5EEFBF2F71300080B04F2000CFBECFCF9F8F200F816
E9FC0BFCEF03FFFA0A011002F0F80E05F9080DFB08FB00FBF1F20A09F9F6EEFFFEF0FD01120AFAFE0E1CF4F1FCEFF503F3020500FF0E0CFBE6FFF8FBFBFFFD15
F502F802FAFA09F51CFF0CFBFCF00900FFFF07F6FDFEFD02FC04020FF506E60008E9F5030D0805020616F1FD05E6080FFD01FD010C10010BFFFE0AFEFEFAF607
EAF601FCF503FFFF0E060CF006F804FFF6000407F8FEFFF7F3011215EE01FE0101F1F7140AFC0BF80808F9F8FADEFE06F60306F60D020204F4F7FE0B08F8F51A
DF04FF04040103FD0D1303E704EB0C10FD0C04FDFF070D0702F30416EE0BFBF50CFAFB0C03FF07F0F7F9F3080FE9FD030909F0FB0404FD0D02F1FBFF020AF81D
0D17FEF811020B12FB0205F60F0204F7FFF0F4FEEB0F2018130E150FFF05FEEF0800040401F7F1FE11F006FA08160E0E1002000FFFFC071B150F16080F0EF7FD
1A100CFB0D040A09FF0702F00B08FDF60A010402FB070809080EFF0AFD0A06F80D16F6FDFEFFED0509F7FDFD051600080A0DFC0A05F6F6070A0B0C0E131AFCFA
FC0D00F90804010FF70101FE1601FFE9FCF7FD0BEC090F01000B0001060702F801F80206FF050000F2FD03F10C08FA0D070DF80E03F103000E02040FFF130604
FD02FEFCEF10F80EEAFD04FD0701FFF8FEF9010CF5F70006F2190B0BFBFA08EA040906F90700F5FE010AF4EB02F4F911090AFE15F9F9F5110DEF06040115FFF8
F50FFFFEFA12FFFFDD020B04FE08EDEFF202F508FEFD0400E81AFF0400FEF7FAFDFC13000307FCF80F0306F9F7EEF80D0C08FE28FCF8050AFEF1FCFC00FE01FC
EDF9FF0CF201E70FEC0401FF0605FAE7F907FEFAFAF7F50BEB24F808FD00F2F7FD0605FEFE08F7F703FAF9F5F6F2FE0E0D13071DFAFEF4F6FEF9F9FEFD030AF6
FCFEFC04EA01FB00FD0203FFF90CFEE5F810010EFBF8020FF41F0FF9FFF9F2FD000902F50102FD05FAF80D03EEEB02150EFF001AF7FB0106F00305F8F5FDFB0E
F5F502F7FC09F70E0EFD03F7FAFFF0DFF211010FF8FDFC0DFB320C03F8FB02FD04000401F2080303FDF0150BF8DCFC1E0E0C0525F60A020AF006F9F8EA080507
EF0006F10010F3041001FBFD020908E40214FBFBFEF705F90125100E0CFAF7FB02FE0FF9FA0609FB06F51306F3E5F919FF140D1DF3FCFF06F40106F0FD0C100C
F3000DFA010502031EFAFC08F104FADFF603F1F40A06F90218170E040605F4FF040506FEF104060402F01F08FCE6FA1511090826FAFC01FEDBFF01E409081404
FAFB02F2FE07040B27F6F801EFFEFDDBFD0C0604010904FB07FE12040104FAFD00030D00010D100AF500160FFBECFE1906090220FB0A01FBDDFA04F30FFB0405
F8FFFBF00C0C090C2AF4F4FEF10D03DFFD08F50109FE0D0408DB06150BFFFFFB0303FFF4FD0B15FBF6012310FFE6FA0F0A02012EE8000806D3FFF4EE13F81202
FEF508F50E15030136E60902ED03FADCF004F0FD12FD130608D0051107FF00EFFFFB0901FF0711FD0A003112F8EDFE0C0E0E0425E2050500D709F2F40AFA0CFB
07F20CE60D10000622F7F706F5FD02D5F40DF80D020D09F307D2081B01FAFC06FB00FAF7FA010CFCF7F4280A01E3050A0E09091BD201F9F9FE06E8EE090306F9
030008F80C0CF9FFE4F202FFFEFAFBE0EC080004070806F10CD4FF180C1002FCF9F701F90A060F00FEF62B0E01E303FF02180511CBF90003110AD4E608000401
0EEA05F803140900D5F8FEFC12FCF3D2EC07F3F5FFFD01F9FCE4F712000CFAF7F5FFF6FFF3070BFBFFEB1D02FFE50C030A07FD12CEFE060919F9D9EF1209FA0E
10EDF6FF0A1304FDCCFB09021407FDD3EF09F7FF05F8E0FF0503050B090CFEFAF5FF06EA0A000D02FCF52607FEE406FDFF0E0706CDFB02FB0901DA0AF908F504
06F201FA03080302D4F3040B0B06FDDCF104FDF9FAFCD705F71C0C090D091500EFEFFAF5040D0CF7F9E912FE01DBFDFA070CFC00CEFE0BF30D06E2F8F7F6FB13
FEE9FCF9020C07F5D4F8FD02FCF8F8E8F90BFBF90A03C3FFEF22FC1502F80CF6F2F1EFE2050B03FCF1070EF8F9E9F903FC070D00DB0409F603F7FE08E3060104
03F4F7FA0307FEF4E0E801FBFFF800F0F80AF708FE0CC4F5EB20FA0BFEF70EFFF3F5F7F8FD0AFF00F30CF7FE01E7FFFBFB0D0800DFFE11FEF6FCEB0AD702FF19
06F209F5030A13FAEDEA040902F4F4E9F00301F7ED03C4F8F11C1301EE011601EEE8FFEFFD0806FDFF08E6F7F9D9020A07100602F0FE0FFCF3020102F207F012
FBEEF3FEF7FBFEF0EE01050605F4FCFC01FAFEFBFBFEDD02EF1202F0F3F809FCF9ECFFF806100108F61BE3F005DFFE02F50D0E0BED010E01FBFCFFF102FDF40A
FFF7EEFEF7FEFCF6FEF3F903F4F602F1FC050DF6F802E404F60206FD000204FEF9EFFE02080F0303FC1EE2EC0EED0413020401FA01FA0CFEEC00F7F4F2FCF608
F5ECF9FBFEFE03F20E06080BF6F502F5FB000D0A01FFF0F4FBFF08F9F0F8F706EBECF0F8100BFCFCF825DDF70FE7FB03FA0709FD0C0AFEF9F9F1FDF0F7FAF20C
F3F7F604FCEF06F305011307FBF70804F1FE00E8FBF8F8FBF4000E0CED07050FFCF6F5060AF7F1F90817E0F1FDDFFA010201FDFE08040702F0FC0207FB020413
E8F40106F4F704FC0B0201F5EA02F702F80E08F008FEFBFEF7F8F90BE90EF80AF9F4010910F6F2FE070EF9FE00E7F909060803090B08FFFEEBF303F1FE06F608
F3FDFA00F2F9FF070E0B04F7FBEEF90501080FFBFC11F907F2F70608F5EFF5FEF4EFFC0C040101F9FA070105FCD90605080209FC1307FCF5FDEC0BFB06F4F111
F402FEFA020408F7100CFEF7F7FCF516FA0704F8FE0609FAF8FE0D12F608F906F8F0F60A0204FD0909FDFBFE03EDFCFD090A01F31B1301FCF8E703FAF9F2F61A
0D100BF60D0B0D0D050109F900FF0D030BEEF603F40B131013130A01090E07ED15100F070100000B10040EF4081D07110B06EE0D0D01F916120D0B13030D040E
091306F7110D0104FCFFFCF411FEFE110FFBFB05011303FE080EFD06FD0A04E80F03051604F6FB0315F606FB011A0605080EFD1404F6FC140C070112FC110305
FC070303000AF601F7FD08FA0406FA0613FC010CF50604090C12071303020EF50D0515020807F0030200F9F1060807190E0CF613F9FFF91007FFF50DFBFFFDFF
07FDF3F5F704F90802FC04060914FDF3FD03FAF604F40BFA060FFD0EFA03FCFD01010AF504F1FD03FFF1F1F6FF0A00FE19110B0D03F4F6FD09FCF31100FAFC09
FEF80607F80CFEFEF1FD02FC0515F5EEFD16FD06FE0B00FF001B04FA0FFAF3F506FC05FDFA03F50DF7FAFBF8EBFBF8131405001D0307FC0204F701FBE918F3FE
F2EC00FCFE04E50100FC04FB090DEFFA0409040CFB04F9FDF423F41101F101F4FA0302FD040D07FFFFF7FBF9F9EDFB071506071FF400F00705FF06F2EFFF0305
03F90105F907F3020CF9FB00020AEFE3030BFAFE00FC1205FA21FD04F204F4F2F30500FDFFFD0A010707EFF6FEF0FA0D10030C1FF6FCF803F6F105EF0407FC01
00F8FD01010003F20D02F9F702FAE5E8020AF603FFF9FE1403250404FAFDFEFBFB0311F4F50105F705F0FFF5F3E604160C080122F3F80406ECF804FEF90AFDFE
00F3FBF9FE07F2030BF6FF0DF905F7F7FA11F30406050403021B08FE0001F3F506F3FFF5F3150AFF00FEFE04F9F7FE020109FF1BF1020309E7F804F2040D0604
F7F505F8090AF6FB1E09010701FCFBE5F90AFC0106000CF90B0A150DFF02FFFAF8FE0FF2F31019F804F40603FFFEF90905030518F003FBFFEA0000F409FA0408
00EE01FA0811FF0320F9F801F6FEF4F000FDF6F3020304010CF50907FBFFFE00FBF506F900070A0403F50CFE00F3FEFDF80F0715EBF709F8DC0306F117FA09FA
06000CF80C0DF9F621E6F305F40B01E9F004F6FA07F908FC12D90305FDFD010104F906F7F4030B0207011806F9F901FEF70E111BEFFF0201E9FF02EC0CF30801
05F4F4FD0512FCFF21F1FA04E307F5E4EC14F9FBFEFC0B0506D4060A0B11030B0102FCF1FB0613FA06FD120CFDF300FC02020815DEFAFCFCE801F2E809F414FB
08F80AFB150AFB030BF1F508F609F3E3E60500FA0F090DFB09CB0709FB06FBFCFE0AFCF5F10303FDFAEE1B0001F80901F810020DE4F6FDF9F803ECE011FE0E08
08F8FC030C0DFFFDE3F6F100FD00F3F2F2FDFE01FDFCFF0D03DEFE08F707FE0302F4FBF7FA0413F609F11405FDFEFB060409F80ADAFAFC0E1300D8E50303FDFF
07FAF4FA080A08F5D7F801FA0405FEE8F704FC060400F70605ECFE090906FFF9FEFB00F9F60511FDFEF207FAFFF40D04F9080507D6FB00001406DFE9FF070400
07FEF80409060EF8C103FBF604FFEFECF302F202F2FAECFBF402FD0D06FD00F702FAFEF0FFFD1408FAF000020D0306F6FB090707D300FFFD09FEE5EAF701FFFC
07E8F9F8090A00FECBFBF8FE02F9F4E7FAF4F702F6F9E5F5FA1E0D0201FC0CF4EEFE01EA06080301F702F2FB02E9F8F9F210050ED9FA060012F2EA00EBFA0406
04F6FAFF01F6FD02D6F5040704FEF7F606060100F6F4CBF2F620FCFDF5F816F9F504FFEF01030D06F9FEE6F006FFF9F405130E0BE6F40AF80AFCF9FFE004F10B
05F0FF0305FD02F6EBF3F7FCF90BF2FBFE0600FAFF06CE07F529F700FEF30B01EDF1F4EFF90B01F80411F6EEF5ED00F7F40BFD08FDF5FBF4FAF9F4FFE1F8000F
03F6F701FFFDFCEBE2F30600F0F9EF04F50D00FCF502CBFDEF1D03FEF9030809F8EAFDECFD00FA03F41DE0FEFCEBF5FDF31A0209F406010BF3EFEF00DEFFFA09
F4F6ECF9FBEFFCF8F1E9FEF7FDF4EFFAF60701F0EBFCDEFCE9110A03F2FA0D05EDF501FEFC0EFAF8F91CD7F2F7E10A02021902FB04FDFDFFF8F3FBFCEF01F60B
F4F2F4F7FDF5F7FBF5EFF500F8FBFEFA070312FEFFFFDA07F70700F2EAFDFBFEEDFBF508F413030A001BEEF8FDE70007FF16030006020600EBF800FBF601F905
F1FAFBFBFAE0F90009080BF6F9F2FB04F5130104FA02F206FCFAFA06F206FCF4F5ECFFFE0911FAF8051CDFFA06DDFC07F704000A0B0902F8ECE9FD02F8F7FF14
F0ECF4FDF8F400F30E0D0501F1F3FEF4FE0E0008F702F800FA031002F405F9FEF3EEF9090709FDF10B0EE8EF13DAF70B011403FF0E09FEFBEAF90908FA00F713
F502FCFEFEF702FD06010D03F8F8F9FA06050FFCFC07FBF7E9F10F0BFF09F903F1F5F3041100F304030B04FCF9DFFA000002070215060504FBF4F9FFF7F8F819
FBFCFCFC03EAFEF4130D0601F2FD030D000F0407F7FE0DFCF7FCFF20F908FFFCF8F2F0090306FD03FDFE04FDFDE0FEFE030B0D021917FAF9FCF9061000FCFB11
F206FB0101000CF8070EFAE7FE03010702000B03FE030AFAF4FF090FE7FCF101FEF6F80F06FC06020102FFF004E9040C040B030D11050603F1F0FEFE0000F217
0A0B00F419180A07FB1201F80AFB07060CE9FA01F2142217110D1A10FD0105EB0D031208FFFE12F507FB11F50E1907020709F71017F309201108110C140DEA14
121603001312140A0E0506F90800050408F5F2FBEE0D0F110F05080DFF0809F60D0D0D0FFEF5FB0015F4FEF50C1D0C051200F30BFDF9010A0805070D081BF509
02FF04EF0D0EFC010412F6FBFA05FDF9170502FC00FD11070B0B0410F3090AF305FB0F00FDFC04F80CFFF6EDF10BF70412070204F7FCFD0D05030908050BFD01
08FA09F80308F90DFB0604FCFE09FA010312F3EC03F806F6F40AFB10FBFE02FC06060600FCFBFB0015F9F60210FD000D080CF109FA00F60D03FDFFFCFE110A0D
F9F90401000DF60004F80504FF07F8FA0415050207F30301FE0DF2080C0505FAFBFC19FEFFFEFC0709F8EFFF050AFE0E1C0FFB050602FE02EBF7FCFAF80B0308
08F1FA020200F70301020F07030FF5EE041402010105FC07FF25020C03FFFFF402F80EFAFDF5020104F5F1FF0BF6F3FF090B0A13FFFD06FCF4040906F00C0CF7
05F800FA0203F2FF06FDFBFAFAFCEBFB00090204FE08090904170D0303F6F505F6F908EC01040E0309F4F2F505FCF2130C0C001FFAFAF807E7F70302EA0C000B
02F5FDFFF202F2EF1701FE03EE00E1F3FE0EFF040410FDFF021D0FFDFFFBFBF7F9FE0EF90406070505FFEDF9FDFB04FAFF03090DF0FBF6F5E2F402F2FF01F704
03F901FBF408F4F919FF0C05F00CEAF7060AFC0302010EF60407030A040DF3FFF90705FFFA0D10FD0E02F108FEF6F50C060DFB1B04FE0201DE0103F4040701F9
0702F9FB01F9F3FE1DEE0008F508F3F80116FDFC11020B0907F50CFD030D01F9010105EFF6FF140103FAF110F3F109FB0402FF0CF90502F5DAFD07F3120107FC
0BFEFDFD081403F416EF0307F102F102F50CFCFF10FC07030BDF09130CFAF402FC040B01F0FE0FFE03F8F8FFFAF4FE070BFF0120F40C02FEE2020AE401FD0003
0DF609F4000EF9051FF3F810E608EDFEF31106FF13060E0C05C6FF0408FF0101EBF708F3F9FF100306FDFC14F6EF0504040F041BE806FFFDDFF3FFEB0BF00301
0FF5FBF4040D03FF18EF08FDE907D7F1E81004000409130F0BC8070D0CFFFB07F5F40CF8F7000CFC04FCF408FBF00FFF03060416ED080809ECF7EFE20BF201FD
0EEFF9F50D070CFB06FEF50FED07E8F9FC1103FB07FE0D0E07CD08000F0FF4F7F90AFCF8F1F40A0AFFEFF3FDFEF002F8FD0D0209E8FE0AF6FCF0E6E109F50DF4
0AF5FE020008F9FEDFFA05010802D8FEEE09090009FB06FE04DCF8FF0B0CF301F0FAF9FCF9050505FFE7EFF804EEF5FAFC07FAFFE603F3FE0AEFDBEF09EE0809
0AEAFCF9FE07FFF6CAFCFD0E0A06DEF4EC0FFF070406F0F809EAFB06FF0906FAF504FD02FEFF00FFFAEBF30100EFFD01F2FF0905DCFD0CFF0EF9E0F3F1F80A01
15F3EC0A04FAFFF5C2F1000503F5E1EE0204FAF80BFEE3FFFAFCFB09020A080CF10BFDF2FFF90A05F9EDF002FDFB0106FD00FD05EDFC0B0401F2EEE8FAFBFFFF
10F9F8F901FA06EBC5F80402FCFDE9F8F710FA00F4FED8F8F318060EFBFCFFFEF8F800FAF5F30D04FCFCDEF302ED0902F20A0C08EAFB00FE09E7F8FBEEF9FAFC
F701F7FF02F2FFFECCF6ED080302DEF6F90AFF04FA06BEFFEC2201FBEF0304F8F3FEFE02040D0909F807D7FA0AE90EFB040C0B0AEDF90FF406F0ECF4DD0CFAFD
00FFEF06F90505F4CDECFE05FC05D90DFD0700F6F6F4BF03F323F505E9F60AFBEDFD0200F70C0A00050ADCFD05EB0104030DFF02FF07FFF8FBE201FCDEFCF501
F300FCF9FCF907F7D9E60304F901D90907050202FEFECFF7FB19FEF8FAF80DF8F200F1F7010804FCF318DD050FE70201FC1A0D000802F903F5EDFDFADC01FD00
F1EFF1F9F0F301F8EEFCFFFFFD08DF01F80309F9EBF7DD04EE1500F3F7F702FCECFCF5FA021804FAF719E3F904ED08FEFF1308F30B0900FAF0E509F7EB08F50F
EEF6FC01F9E700F7E9F5F8FFFCFBE6060206FA05F7F2DD07F2070802F3F9FEFDE8FCF7FEF70E03FC0515E8F1FCE8FD070116F9FC0D13FFFAF3E7FFFCE9040303
EEF0FFFBF8E7FCF6F6F804FCFEFEEE060202FD0BFCECE513F407FA04F40FFDEEE7F9EBF1FC03FBFAF023E7EF06E7FD05FB0E03FD110A01FFF4E20001EDFD030E
E8EAF9FFFBEE02F50F00FA00F8FBEAFB01FE040AF2FA09F4F506F813F606F2F4F4E8F6FC0E160302000BF5F9FEE5FE12F7141801110D0AFBF6EE06030102F00A
EAF7FA0800F5FEFCFFFA03F7FAF6F60EFA06F4F9FD05FAFAFCFF0411F312F1F9E6F3FDFC0B05F7FE000A02FAFDE7010404160500150C0903EFED09FDFDFCF910
FAFD12000FF704F90310FCF5FBF3ED060302F6FFFAF0FF02F8F40009FA05F9F7EDF7F0FE100B010204FB0EFD08ED0B04FA1802F5181701FDF7F3FB0DF705F11C
F7F8040309F709FB060AF1FD0404F70AF40408F0F806040403F80E21F1FFFF00F8FEF30810050A000BEC0201FEE8080EFF0C01F71100000AF4F6140A0106FB0A
0D0708FB0A0C05170108FCEC090B09F807E5F606F90A120A0C0B1008030101F1180C0C0904FD05030AFC08EA071201021FF8F80B08FB0A15100F1C0C0912FE01
12FA03F602070B080F1901F9010EF90313EB0009F80D140B11070E02F4080DEC070A0C04F9FB0C0010EF07F30D1C06FCFDFCF8080A0208170A0D0D0C0505050D
14FD0BF602FD02020C04FAF0FF0AEF030EFB0209FC0E0609FFFFFD0CFDFD04FE050406FF06FD070814FBF3F00D160A070AFFF10307010203F7080206FA06FF16
04FA06FA010C0C0405FFF6EC0704FE020DF601FFFD070A0CFF010012F6F802F207100B0F01ED08FB18F7E8F10507FA0707FBFE0400F30402EDF90008F601FDFE
1000FD01F70BFEFD1206FCF9FB18F2F3000803F1FB0814FE020B0708F70403FC05080A0708EC030116F6E5F60503080A19FDF801FCF3FF0FEC01FC05FE02FD08
0AF8030403FCFFF9100BFFF5FB0CF8FE0712F906FFFF05F402080006FBFB16F4FCFC03FA0305070103FDDAF50C02FEFF0910F80705FA0004E8FF0806F7050516
19ECF5F8F006FCF8140B01F7F80BEE0C1306F8FBFE000908F5030608F6040C05FFF90903F50C11F816F5E3FFF3FE0B0007FCF803F406F50CDFEF0AF50108070E
07F702FCFCFBFCF922020206EE0AF201FC15080A06030309FDFDFD080504F807020309F4F1070701FFFADB01FEF0FC0603070101F80A0007D4E90CF202FE000E
16F3010501F304F11BFC0304F00AF1FC0010F8F60C0E03FFF4F80108F7F800F9FDFF0DF9EFF811FA0EFCC5FF07F50302FA0CF8FAF2020104E5F016EE050808FD
0EECF408FFF801E514F503FBE802DA0603170BFB14FCFEFDFED7FE0702F1F70BF80C01F201F31403FCF6C80B020301FAF609FBFB00F80709D2F8FDF806FC04FA
04EA01FE0AFFFCFD1CFDFEF7EE03E102000D08FA0C03080600CFFA0AF8F9F409F7030FF9F6FB0FFF09F9D30208F9F7FFF504FF0CF5080102E0ECF4E806F70209
0BF3F9F909F001F415F5F001EA05E002FC14000207F3181304D00602F6FAF8FFFA0106F5F4060E030204D601F402FAFEF90608F9EE02F906E9DDFCE901ED0A0B
04F0F001FDF1F30412F8FD07F6FED108EE0C0CF40A00011712C900FE090BF501FAF805F0F7F915F708FECC0401FCF9FDF902F7FDF30002F7E6F6F6E60AF109F9
0EF3F3FBFDF804F800EEEF01EFFFDDFFEF06FA01FEFE13FD0CD5FA00F404F4F9F40408EFEF0B0DF3FBF5D8F7FD09FDFEF70D01F3ED020402FAEDE3EC0FFCFF03
02EEFBFAFEF60700EAF6F104FC01DA09FA0C020800FA000501E5FF02EFFAF30BEC0905F0FAFF13F903F3D60101FBFCFEFA040BF9F401FDF80BECDCED0700FD04
06F1ECFD01EB05F2D4F2F1070305D40FFB0DFFFA00FA02FCF6E805F7F4000005F803F8F7FC0109FC03F9C8F704F6FCF8FA08FA0304060A0710E5DFD9F4F60205
01EBF7FB03E803F1C5FDF2070007CA11F8010C04FF04E7F9F70F04FFF6F6FEFCE9FBFFF7F60E0703FEF0D6F00EFD0509F8110BEFF505010F05E9E6F4E4FCFFFE
10F3F1090BE00602C5EFF3F50908DB0D01000408F001DFF3031B06FAEDFCFAF8EAFBFC01EDFD0C040AFFDCFC00FCFBFD010606EAF9010E030CEFE6EAE405FFF7
F8F4030607E7FCF8CBEDF4FA04F8CF0905050900EEEDCB05EC21FDFCEAF602FDEEF5EF00F506FFFF040AD6F705F100F9FA1305F9FAFFFE010DE2FC00DD050202
E804F1FBFEDDFCEDDFECF0FEFFF9D40B0401FCFCFB03CEFBF72500FEF1F30BF7E0FFF8F9F40608FDFB13E1EC0AFBFD01F80C0DF00005000403DCF800E2FC03FD
F3F6F8FEFFDBFAFAD7E50104FCFFD60AFE040404EDF9D800EB0F01F9F40308F3E4FCFCFFFB0D00F70C16EDEE0AE706FAFF190DFA12FE0104FFE2F108DCF4FCFB
F3FBFDFE03D903F6D6EEF8FFFF04D511F40A0F03F5F9DA02F00FF807F3F10AF1DC00FBF7FF0A00050512ECFB06E30502FE0916F715F9F2FCF5E1F9F6E6F40107
F0F5F6FC03E604F4EDFCFBFEF1F8E309F80202FCF809E1FAFA11FD05EA080900E2F8F2F1F810FDFF0520FDFB01EE0A08011506FC190D02F9FDDFF8F8E6FDF802
E6F6EAFA01DCF7F4EBF0F4FFF1F3D50104FF08FFF804F414F4FCFB0BF20BFDF4DCFEFBFB04060C02011301F003F4FA04FE0E0EF70C15F702F1E604FDEFF7F409
E2F1F4FD0EE503F5F107050400F3E50AF504FD03FAF6EC060107FB0FE7060402E5F1F0E8100E0004FB10FDED02E6FC06001B11F10913FD01FAE5020CFE090305
F2FB0C00FFF8FBF2070806FEF9F9DF04F8F6FCFB0203FB0602FCF712F912F6F7E1F6FCF7080A0501F90F07F307DFF803041414F515180F0305EE09FB0200F10F
F9120DF909FAFD05060CFDF4F4FCEF060500F9FAFC02FD010002000EED0105FCE903F81604F90A0807040DF2F8EF040C120C08F6170B1E04FFF61107F500F718
01070DF612F500030A0CF6E9FCFEEEFE0705FCFDFC000C080C07FD1CEFFCF6EBFB07F6FE0A070804FEF90CFC0FEE03FD071A04000E0D040000EA11010608F60F
180505F5030DFD0B030EF6EBFFFD00FF15ECFA00EE07210E0D060E11FE0501F0FD03080EF9FD0B081EFA08F30E1C051A06FEFB091406061A06051210FB0EF716
0FFDFEF9060707031015FFF4F60703000DF5F603EE07131119051F16FA1108F40A14080E02FC220313F2F2ECFB1903011502EFF916FF011B100B1212060CF70C
15050204050300070E0004FB0304FF1002FC0B00020D0705010703FCF2FD08FDFE0110FE07F80B0104FCF9FA011300FF0208FEFD090308FEFD070A0BFEFEFD06
0D02060200FF0005071104F30009FE1011FFF103F70C0A0406F9FC0BFF0C1201060C0907FDF7030307F4F5FA0B0705F500FDF7FA02FC050FF90B0F0DFE080716
10FEFC050900020111FFF5EEF713F30B0CFD08FFFB02090CF8F40602F1010A030B0B0801F5011C0208F5E3F41B1301EF11F7E8FFFA030017EF030900FCF7000F
0BFE03020504F7F81709F2FDF712F00CFD130A02F80A05FAF8E8FC0F05F8FF06FBFD050B00EE0AFF11F9EF01080A060404F8EAF007FBEB01E0EE110401FA0015
0FE8080104EB03E81A17FBEFEF0AF504010FFB06FE0D2004FCE8F907F3020F11F6FE07F7F6FC11F916FFDCF513FEFAFE0900F1F1F1FFF516D8ED01FFFBFDFE12
0BF6060CF6F201F6261004F2EF08E50A0813FBFAFD081501FADB0717F7FE1504F1FDFF06FCFE21F20102D2000F0304FEF9FCF2EBFD04FE05E2F60C02FD05060A
11E8F8FFF6F9FCF21F04F7F4E509E50CFA19F9EA0801FFFDFFC40101FCFBFE10F003FCF6EC021CFC0002CA0CFEFD00FAF302E5EC0604FAFAD2F30EFFF9FDFFFD
15E4FC0900E8FFE612F8F7F1D406E0100C1A05F502FB0D05F3C4030BEFF70508EAFA05FDF6FB17F2120BD109FAF5000304FAF6F6F405FF13DBEAFDF40400FC0D
09EBF80500E803F1160004EFE50DE21A071BFCF7FAFA0204F2C40104F7FD0C19EAFF04F6F2011CF812F6C6070E00F50CFC03FBF7F9FF0006F0E700F7FE060407
08EF02FD0FE502FCFFFDF8F0EF04DE22030E01FA0102060CF1C0060FEF060603ECFC08FAF5F317F405F9CB020CFC02FAFF06EBE602FEFDFCE7ECF4E101F50500
02E0F1FF07DD04EBFBF901FAF305CD12FD1A09F5070B040E00C5FE01F5F9F50BE1F9FCFAF106180107FEC1010DFBFC01FF07F6F408FC080AF0F5DCF001F10303
FDE6EE0502E8F6FDE6EEF40CE8FCDF12F80E03000F05070500C9FA09F600FBFCEAFAF2F6F3F50EFD06F0C6F6F5FA02FDFB0100E705FA01FAF1E8ECECFDEE0402
14EDF108FBCEFAF4BC07F8F3F0F8CB12000CF806F8F3FF03FEDB0609FDF2FC10E8FCED00EE0C13F800F3BFF209F5FCFDF3FFFDEC100004F90FE6DDF3FBFA0602
00EAEFFD0AD6FDF9C1ECF9F3FAFFD01DF4090704FA01E60700E60401E7FD0206E8FDF7FBF3011BFF10FDD2FD01EE000EFDF80FE9010107F605D2DFEEE501FF0E
FCEFF7000BE005EEBDF5F3F5FDF7DC18FA060F02F1FDEA03F5FFF7FDECF5FA06E4F6F3F8E7040DFA05FCCEF204F10606FD0605EC06F305FD03DCE8F0E80300F2
08EBFE0605D200F8C8F8FAFCF20BD21EF60C0CFAFBEFD2FCFB1104F8E8F907FFEDF4F0F6EA080DF50F05D3FB02EFFF0BEC1514F30101FFF602DBE5F5DC04F7FB
ECF5EE0A10D40CF9D1F704FFF6FEC215050A04ECF9F1CEF8E612FEF6EDF41703DFF8ECF6E10E10FC0013E5EB0BED0807FE08FFF513FF040506D7F303DEF701FA
