D8030B07EDFC0A0D12E8
D90EF70E070ED60E1107
D0E62115E0080BED3601
11090ADEF1EAFDF80BFC
01F5FD01F11BD8EC16E7
12C60312E3EC0A091C17
16C3F3FCFA11E70C041D
0D0407D3F20BF3F4F5F1
130403CAD7FA0A0B0905
D1EE190225E8F620F8DE
FE04F2FB0910F7FFE301
EFE20B080BE916FBE910
03F700D21E150FE6EDD3
0EF61413C80D1BFDF1D2
080ED70BF50D040EF9E7
CAF621E0FEDE181212E9
06F6E1ED1A1B14D312C8
CFFB21ECEEF91B1301D4
07F7F804FB05F90AF702
0903E5F5081303D00C16
F110F407040CFB00EB07
FD04F5F9F60209F5E101
FE0800F401DA05EC1110
DFEEF40A22E503100DE6
0A1206E00F04FFF8DBEB
0A010ECAFEF6041E0AE7
0707FA071113D4F4EBE5
0414E9F3FAFA0A0D0FF9
E705F31106FDFC0F01E7
0B0DFD0AF9E70E0204E8
05DA1309EBF7F712D809
0ADE0504CA13F0131C17
0A0500DD10FE0B07ED00
F50AECF409F2060108E1
080DF9EE0FF4F908030E
F50AFC0BFFFBFAFCE113
EE0BE90DFDEC0E0C0FF7
07F91BD621D7FF0707F1
0F0802FDE70DF2FDE90A
110D0BEAD808FD0D05F5
14FA11E21DD1F3E91509
0B0E03F711F0FFDF05F6
0E0F07F5D6031404F607
070FF40B0A0301F9E50F
F9FB00FBF60605FA05FA
F60A10F3FE0A09ECE502
F514E20109FF0809EB06
19BFF2EB0910F921D9F7
EFE6E20D0D0BF91BEDFE
FA0BE411FE01F00EFCF5
F5060CE80A030CFFE903
0DCA0901F012CEF2020C
0E1204FC0AFBF8EBE4EF
FC0ADC0608E9F6FBFB0C
1CD517EDD51CFFCE18FA
BF1817E7CF05EB3201CE
D3150F00030AED1C03DF
E2DB2A0F0EF416E13209
D9DB04163281020C0EFF
EA12F31A0712CEEE0FEE
F4DF07E922F0EA221AF1
F50AF00CDE0905FC11F9
EF0E17ECF5F815120DE4
07FD07EAFDF70BECEA0D
0506FDD5F70F01EAFBDC
0C040B0DF3FE0DFBE40B
D80D0A0C1017DEE0F8F8
00060B0EFD0105F9E40D
F5050BE2E2CD0A190019
0B0BEE09080D07FDE706
FAFEFDDF13FE130CE3FE
030BDE14FDFDEC041001
0506E6141104E708FB13
0D020AC605EE070BFBEA
05F516DBC9FF0FF814F8
0AF4150BEFE2020DFA0E
F005010306E900F4E605
FAF31A19DE0FD10C0409
0A00EB0CEA05F604FBF7
DBD013F111E60B072514
BFE90C0AF204061709FF
110205DE131402D0FFE0
F10FE904F111F608ECF4
17DFCE170A0EEC11F4E2
0505ED15F8F300EDFF0D
0307F6FB08BE0114EE15
10FA142BD8E1FC17FEF5
C5FA1A0701E4060C12EA
0EEC120C17FAFEF0E0F6
0FF813E4D3EA0F180CF8
070FCFD10800130608E5
E4D6E70733C401051C08
1900FCF8CDF3F715FE12
F203FAFD06CFEAFB0D12
11F9FB10D917F2E60712
F10C05EF03000F010AD2
F90FF1F8FFD1FB03FF11
F60314E7F809D2F51D0E
F107F5E80A0F0C040EDE
04030BEDF8E214F7E203
1AF9D7E4160011D715BA
BAE80CFFE93811E41DF2
0EF3090619060FCAE0FD
09F7FFFA0206FC09F8F6
E6DA0EF90715F81AF70C
F9110319E9FFEEF7E3F9
0D08080710F807F6E1FA
FE0AE40E0AF008FD0EF3
FE0211E8EC08E80EE617
0EFD0ADE08C8090AEC18
02EF0FFBFEF10609E816
FB14E010080EE000E2F7
05F01703130D10C00B03
DDFC2018F70AD8161303
F912E4FF00F4FA06FE0D
0FFFE70D0AD70D04F414
11F608F3E109F80AFFF6
22FDEA212502C3C510EF
D0EEEA13090E1412EAF9
06EE15C02008F506E1FE
23B2DDAE2BF225CD01B9
E90007F7FDFEF30BE405
00DF10E4BF0FFD0C2603
0503E50EF404F01511F1
010D0CE5070512EEF200
08020310F002F8EFEBEE
F3FA13111911D2EF1BF8
F4D80FC6FFE22421EEF1
