0503FEFC04FA03FB000303FF05FEFAFAFFFEFE05FA000605FF01FF0405000403FE0300FA0103050501FDFA0001000304FDFBFBFD04FE03FCFE04FD030200FD05
FCFFFCFE01FDFDFD05FDFC050301FAFD0000FD02FCFB0500FFFF00FC01FBFCFD02FA01FDFCFB02030500FA01FF00FD05FDFBFD040305FE04050001FE0500FA05
0505020006FF05FF04FBFCFBFB06FEFD050404FC0400FCFFFF06050300060004FF010601FE00FCFCFB03FC0003FD030200FDFCFBFAFF0105FA020502FF0103FF
FEFBFCFE05020006FD01FD04040005050403FC02FF0504FCFCFBFBFC0201010102FAFBFCFD0502FDFD03FF0505FE0205FFFD03FC0404FD040206030000020106
FFFB00FF05FDFCFB0204FC010203FBFFFDFDFEFD03FDFD05FD0602FE030300FA010304FDFCFB00FD050504FDFEFE06FD04FA06060100FD00FAFE06FC04FEFDFF
0001FCFDFF0206FEFE03FEFE0204FC06FCFCFCFFFC04060105FEFFFEFB0603FFFBFE05FEFC06FF0205FFFE0300FF03FC030102FEFE01040103FEFDFC03FC0601
03FCFD0202000204FFFB05FC00FD06FC03FD04FC04FEFB00FDFE0104FE02FAFAFF020503FD05FA030203FD0605FC01FB0500FDFBFEFBFE000104FDFA0101FDFD
0402FDFAFCFE05FCFEFBFC04010105FBFC01000305FD00FE00FA0105FE0503FE0502020301FEFC00FB0004FCFF04FAFF05FF05FC05FEFBFEFE02FFFD02FF0404
01FCFF00FE05FC0500030500060101FC06FBFEFDFC03040501FB03060000FE010000FEFE0002FEFA030105FB010005FF05000606040000FA02FAFF0200FD0305
FD01FF0200FC01FF01FA04FA00FCFB0606FB030406FAFF04050200FD030501FA0601FCFD03FE05FC00FC0302FE0505FDFA03FEFFFF03FFFF0602FD00FB03FBFC
04010204FFFE0300FB030305030405FEFB0004030504010606FBFFFCFD05FFFF05FE040103FDFCFDFB0405FE02FCFEFEFFFE04FBFE01020304FA000500000405
0400FC0203FAFCFB05000605FAFD03FDFDFA0303FE04FC0503FB01020206FB04FE000102FE04FAFC0501FB00FD0200FEFF0002FFFDFFFD04FAFD05FBFFFFFA01
01FB020503FCFFF800FC0105FFFE0803FEFCF90408FDFDFBFD00FC010402FEFDFD0508080303FA01FE01F8FBF9FEF90403FDFBF905FD00FCFB0400FE05FF0006
FC010803FFFC02FE0400010804FE0406FBFAFE01FEFBFDFB03FF0408FF03FD0202070707FA0300FE0300FE04F903FAFE0102FEF8FE03FDFE020506F905010203
FB03FA00020105FD0103F9FFF80801FA0305F8FDFB0005FCFBFB0400FFFF0304040602040101FBFC0202F6FA03FE08050704F8FDF9FEFC090603010001FBFF07
FE07FC0205FE04FB04FD01F8FB08FD010A06F603FDFE04FBFB02FCFFFDFE0704030507020AFBFAFC09FAFBFEFFFD050104050005FA0101030308020205010703
0005020103FCFCFDFF01FE020500FBFFFEFB0605060500FF00FC0001FCFD05FB0001010303FF00FC000504FE0100FB02FAFE030202FC0204000602FBFD00FF05
020302010501020400FB0006020006FEFBFE02040503FAFE0200FBFD0104FDFEFC02FA0103FBFAFCFF05060204FD02040005FA0405FE0100FE05FE0505040201
06FEFEFBFDFE0203FAFCFB02FDFC01FD060202FCFC03FFFE05FBFCFAFDFEFE0104020103FAFB01020303FF000104FCFA0001FE01010406FEFEFA03FE0500FBFD
FD05FF00050106FD04FE060200FF0303FB05FB0200FC0402010304050004FE05FE02FD0604FDFFFD0600FBFE050002FDFC0100FD020501FE00FEFD0500000302
FA05FE00FCFBFEFC010000FE0301FD02FF05FFFEFC04FEFEFB0405FFFB01FC06FBFCFE02FBFC06FB00FAFD02020303FB060305FEFBFD01FC0500FCFFFB02FEFD
0001FA030505FEFAFF03FFFB000505050205FC0501FCFB04FE01050605FEFBFFFBFFFE000105FE0004FE06FEFAFEFD06FBFAFDFCFC03FFFBFE050603FE05FBFF
FF010504FC03FFFF0502050204FB02FC0002FBFEFB050202FF0201FCFFFDFD05FCFDFAFAFDFEFA00FEFBFF0204FF0402FB0300FCFCFFFA01FEFF0506FEFD01FE
FDFEFF0001FB0104FE0206FB06030503FAFFFAFF01050505050600FC06FFFD010105FCFD02FFFCFBFDFDFAFAFBFA00FDFC0500FBFC0402060101FCFE00040304
02FFFCFF0306FC0105FFFAFBFFFE030201FCFF0203FA0304FEFE020005FCFF04FAFE0503FD040002FD05FDFE0302FDFBFA04FD01FDFF0501FE0305FFFA0105FB
0600FD0401FEFF04FFFE00FC04FFFCFA0200FFFB02FA06FE00FBFF03FBFFFF040203FD06FBFDFE01FAFFFCFC00020503FF04FD03FCFB010105FD010301FCFCFD
0402060302FD02FE02FAFB03FB050500FE00040103FBFDFE01030202FAFE04FCFC02FF02FB0006010506FE03FA040401FDFBFE05FEFAFBFE05FC02FBFD02FDFE
FFFF05FBFB05FF03FB04FBFE0201FD050603030306FD030006FE050604FCFF060002FFFCFBFBFB0302FDFCFCFF0104FD0505FE00FC0005FE00060604FEFC01FC
05030505FDFF04FE04FE0103FB05040405FFFDFF0102FFFAFF050403FE060301FF0105FBFE04FAFDFCFDFE0505FFFCFC0301FEFF020201FEFC0000FCFDFE0201
FE00FA00060401FB02FB0305FDFC00FB03FE02FA03FBFFFC04FEFD0004FEFAFDFEFF030600FA03FBFBFB0601FDFFFBFD03FA01FF00FC04020204FE06FFFD02FA
FA06FE050001FDFDFBFCFD0004FDFDFBFC0001FA020506FD03FDFAFC0105FFFA04FEFDFEFE04FF040402FD04FD02FB010506FF020005030105FA04FCFAFC0305
FD00FB04010000FAFCFC02FF01FC04FDFC06FBFCFBFC0205FF00FDFE0305FF00FE0600FEFEFF04060002FFFC030604FBFB05FDFF030301FE02FEFEFDFD05FFFB
FBFF05F605080A03FFFF070503FB0607FF0100FB00FE01FCFFFBFB0009FEFFFEFF040202FC01FE06000303FC010004FFFCFE05FEFDFFFEFEFC020407FC010503
FDFF0AFE020603FB04FB0804FFFA0701FB02FE0309FC09FEF9F8FD0509FFFF04020A0709FFFCFEFE0505F5FB02FBFA02060202F900FD01FBF6FD04FCFD0A0805
F7F709F9FF0C09FBF8F708F9F9F90908F0FEEFFE0CEFFDFDFBF7FB10120201F7000F0A12FDF002F90B03EFEFFBFBF8F801F6F8EC07EDFDFDECFE130006070109
F3FE11000C0D0EF3FCF40AF5EEEF1205F4FBF1FE11F000FFF5EFFC100FF9FDF001140C1101F3FCF210FAF0EFFD02F5F3FEFFF7EB04F0FBFFEDF712FFF00E0911
F6F405F9070D0DF2FBF70605F2F10D08F802F9040CEFF8FBF9F3000911FBFFF7010B090DF903FCF105FEFAFFFB05F2F902FCF5F20DFAFAF7F5040A02F70A0808
FAF30FF7081209F5F3F7040EF7F30805EBFBF00111EEFCF9F3ED050A09FAFEF2FA08080FFC0EFAF80601F603FFFEF3F6FEFCFCF507F9FBFCF8F40CFDF4101107
F9EF15FC090B07F5F4000913F8F60A0AF6F3F1FC0AF40005F5F3FE0607FE00FEF9090803F80BF7F30602F6FCFF04ECFBF90302F40BF0F7F4F6F40AFFF70A0306
FAF708020C1108F5F5F70F00F40002FFE605F10111EBFB02EEF1F8070C02FCFA0E020700F5FCF0F00806FB07FE06EBFEF2FEF8F812F4FAF9EF020AFAFB0F09FE
04EA0FFF0D0A11EFF3F20DFFF8F90A00EA04F70314F2FC02F4FCFD1316FFEFF8060D0601F6F8F6F50B01FEFCFE05EBF8FAF8F7EF11FAF9F5ED0912F9F6130D05
01EF15F70B1414EBEFFA0E01FEFA02FEECF8F6FD1FEA0004F4FBF90B0F01ECF20C050207F400F1EC10FAFB000304E8F6EFF9F5F40EF1FEF5F2060FF4F81912FF
FB080201081A03EBEFF503FCFBEEFCF7F2F3F701FBFB0806FEEEFC03FC0601F50AF9FD010203FDF4040DF300FEFCF9F803FE00E80305F904F0FD090106070905
FC040911041714EFF7F410F7F501FBF1E704F6FEFEFD0510F4EC071309090AEC050307010CF0F7F4140FED00FE0402F502F8F7EF09F1F807E4FA20F501161013
060FEB16F9231205F0E909EEF1070809F510F1FB0200EB0FF5EC0317090404FB0513050703EFFAF4110AFD06FC0009F70AF8FFE90EF50308F1FD0FEDFF0B100F
FDFCFB04081F18F5F9E70FFDEFFE0B0BE80CEDFC0EFAF204F6E300180EF9FDF20C150200FD02F7F31305FF04FAFCF8FC10F9FFEB15F007FCEE041CEDEF120C08
EDED14EE0E120AF2F7F61614F7F00E07DEF4F5FD0FF30FF8F6EDFE0910FBF9EFF9060F0AF010FEF007FCEDFDFFFAE8FBFE0204F211F2F6FDEDF81103EE191807
ECEF0EE4131014F4FAF71615F2F40E06E3EDF3040FF214F9F0EFF9110DF5FEF3F909130DF606F6F80700EFFA04FEEFF6F90109EF0EEDF6FEEDFD1202EC0D120C
ECF218F00C0D08EEF9F31315F4FD11FCE5F6F2050BF217F5F2E7FE110CF901FBFC0C090BFB00F5F80708ECF50305E6FAFCFC08E90BF3FCF4E6FB0A07EB0F1119
F1F00DF2120204F3FDF61012F5FA0709F2F8F6FC11F211F9F7F8010F0BFC02FBFF070D11F7FE00F30701F2FBF706EFF4FBFEF9F609EF02F8F9FE0DF8F40B0808
F5FA10F40E1105FFF7FD0F07FBF80807F104F70411F20101F1F3030A0C00F8F7FD0F0C08F7FDFAF70D09F2F3FA04F9F900F5FCFB05F3FFFCFBFE0CF9F2100604
FAF809F9090500F0FDFB0D06F7FE0A13EF0BF7FE0BEB0A00F1F4060709F905FFFD0B1212FAF7F7F80502F2FAFCFCFB00FFFEF8F601F303FDF1F60FF6F50B0F0A
FD02FD0305FDFD05FFFA04FDFEFB0604FD0401FFFF0504FC0403FB04FCFC0502FB0302FEFE0303FC05FFFB010504FD00FFFCFF04FBFF05FB00FDFEFF02FBFCFB
050100FA0304FE040006FBFC04FB02FCFCFC040005FBFCFC060403FBFB02FDFCFDFDFE00FB01FCFE030105FB050301FC00FAFA01010404FB0605FFFEFEFEFF05
01FCFF0206010001FA03FDFD0501FEFEFBFE0001FEFFFEFE010600FE0200FB03FBFC060100FEFE040302FC00FD050303FC02FEFEFFFD0302FEFFFBFB04030102
FF04FEFAFBFE04FB0200FE020106040401FD04010202FB06FB0300FAFEFB03020305FF0502020500030504FA01FCFE00FFFDFAFE040504FE03FE0404FC02FD03
0101FD0005FBFD05FFFC04010502010105FB02FAFBFCFD040005FEFF05FB01FBFCFA00FF0404FF0303FE05010405FEFFFF0402FEFE03FBFF010004FCFB050202
FFFC0501020206FEFF01FC02FB03FAFE0602FB01050001FC01FFFAFE00FB050103000200FCFFFDFD0505FFFD05FF01FAFAFEFBFA040201FC03FD030401FFFA00
FDFA03FA00060302060506FC03FA050200FCFFFA0206000302F8050504FA02F909010008FA00FD01060003FAFD0200FBFB03FDFF01000503FD0008FCF808FE09
0503020702060B0403FE08F0FB04F4F1F20AF3060D020708FDFD110B0B0C05020D0B0EFCFBEFF4EF080F0B0001FB020105FAEFF70BF1FBFAFA0812010EFFFD06
07F80AFC090C15F9000613FFF4F700FEE401F60614F81314FBF4080E1608F0F8081811FEF7F1FCEE1008F8FCF9FFF6FCF7EEF8F413E7F5F1F00B20030F140706
EBF415F90A0909F2FCFE01FCF8FC1112FAF1FCFB0BEA0603FBF4FE080DFCF0F5FF0D0F11F3020BF507FAF600FAFCF600FB0806FC0AF9F8F5F6F90DFDF1100304
F5F304FF02140FFAFCF70DF4EEF51309ECF9E8030CEEF9FDF5EB000D13FCF6F4030D130F0205FCED0CFFEEF2FDFEF6F0FB0D0CEF09F50001F4F91200FA110A13
EAF316FE090F0BFCF6000C02ECEC0E12E8FCE9040EE9F301F5EEFC150D06FCF20510120DFF00F8F213F9F3FBFDFFECF7020CFDEF03F203FFEBFA15FDFF0C0E0D
E8F906FEFF1607FC06F90907F7E82017EA05E4FC0FF3F2F5F4E7FA1D1B01FCFE021A1B16FE0F03F11AF1E00301FEF6F506130BE60FF204FCE7F90EF7F0060F13
DC00FB0AFE1A00FCFBEF00FFEFED1F1FFD03E20106FEF4EAF2E5FC1E0FFAFA000D1E181FFA0A07EC22F3E1FAFC0405EB081C0CEE0AFD0400E6010BFCF9FF0E13
E7FF0402081CFFF0F4E00FF9E8EB1F1DF202E0FD13FFE8F1EAE2F12911F3FDF90C272421020606E81DECE3F0F007F6E2FF2202E00FEBFF02DFF217F7EF030B21
F2F6070D0A200AEEF8EF11FEF6EA141BFD07E4FC1104F5F1F3DCEC2619F4EBF20A232722F90A00E71EE9F1F0F502F9EB021C0BE11AE6F000D5F614FCEF070417
EAFC0D1018100EF1EBF60DF4F6E91216ED01F1FD0902FCF2F1E6F7270DF5F8ED18141D14FD12F6E41CFBF3EDF7FDFBF40A1400E311E5F4FBD2FD15F7F1090414
EB06171119141BEBE2EB05EE03E708FBECE8E7FCFCEAFE01F3EB1013F9FDF8E91CF7120C0709FAE114F7EFE1FCFF00F513130CD6FBEBE7FBE00A15FD051A1519
EC070E060B2011E6E3E7F7F403E80A0BF5F1EFFBFFF9FA01E7F60818FCF0F3EC1204151BFF1AFAE30DFBF2E5EDFEFFEC10151FD801E9E4F5E80613F8FB1A0921
DF05130F152519EDEDE503FCF0E90D04ECE8DFFEFAF5FFFBEDED041BFAEF02E409061E1A0713F9F31FFDE8EBED000BF80B0D14EEFCE3E6FEE4ED1DF8FA1D1225
F2070A14142C26E9ECE50FFFE9F50E02F7EEED04FBEF09EEDFEAFF15FFF60CF109051A190704F2F31DFDE5E2ECFF07F1030702FBFDE9EF00F4F113F5FD180B21
EFFA070F0F2F21F5FBE2120DF6F11109F1F8F00002FA04F0E9EC021302EF02F9F80519190204F3F32EF2EAF3F804FFFB030B0AFB01EB02F3F5F405F1F3130003
E5F6FD001037130607DB2316EEFB190EE803F2FE0EFB0AFAF5E9F71005E60CF5F6FF0F1FFEFDFAF527F7E2F3F300FAF4F30BF8FD07EE03E8F7F003F8F3020AF7
EFF304F90B2B12E806F8270CFCF5090AD5F4F2F910E605F1D9E7F20E07F3FEFB07050B0DF20CEC031EF3DFF3FDFBE602ED0500F90DEA03E6E1F60C07EC060FF8
ECF017F30D1A12EDF9F61D0800F60E0FDAF6E90309F106E6EEF5F91805EAFFFE0C100F1CF909F2FE1BF2DAEFF9FEEB02E60E08F315EBF2E7DFF61009F4030F03
EAF419F00E1D15EEF5FF22030CF40E12CEF8EC0616FAFBE0EE0AF01316F1F7FA0E0C0F15F813E7E918F0EDF6ECFDEAF2F21510000BEBF3ECE903110CF0060E11
F2E81DEE19181BF9EFF719010CF00E0CE0EFF7FF19F603E9EA03FC0D1AF0F7F50F091310EC0DE7EE06F5F6FBE502E3F1FD1007F70AE8FEF1E7FB0F08EE131A0D
F3FA15F308130903FDF819FEFFEA140EE7FAEE060FF6FBF2F6FBFC1414F8F4EF10141813F205F5F214F7ECEDF105F6FBFA0EFBF011E702F7EE000E06EC040B14
E60503070209FE0308FA01F303FE0A07FD00F106FD00F7F80504FD17FF0905FF1610091100FE0C0617FFF7F2F50508FF010EFEF9FBFC04FEF3020D0CF7FDFC09
F408F90CF600FA0BFB01FAF50603FF080C04F402F606FEF106F80508F60B0C040A05F8040702090704FCF5F3F1010DFE020A05F9F904FC01EF03FF0BFFF40303
FF020500FFFF05FBFAFDFDFD0300040500FF06FB020000FC060300FFFE06FA0003FBFBFFFEFD040100FB03FB03FCFF06FD05FF03FD0103030500FDFDFC000503
FCFD00FF0401FB0405060205FB00FE00010103FF0000000005FA00FAFB02FFFFFCFBFAFE02020205FBFE03FA0500FFFAFF0502FB0302FA00030001FF05FD02FE
030404FE0204FCFDFD0003040305FA0200FE02FEFF01FE000305FE02FEFEFBFF020102040102FD04FE06FD020601FBFA0302050100FEFEFF0504FAFE01020004
FBFDFC020300000200FE05FC0000FB02FD0605000402FC0001FC0605FD00FBFCFB040105050603FD0206FCFD0400FF01FE0405FDFCFC000105FB000301FDFBFF
FB0F080F00FB01FD07FFFBFBFA00F6FBF6F9F0FEFC0105000FFB0405F5000601FDF5FEFF08000DFA0C07EBF50A030A060EF40301FDF10308F90010090E0E090C
03FE030503100BFE0BFF04FAECFBFBFEEE0EF5FE0DF70B1200EE030307040400030309F5FDF9F6F3100904F80103FF0313F8F9FE09F406FAF9030DFA03000B01
F7FC0CFF0A0E19FEFB031310F0F90E0E0202F5FE0FF11101F5E9050F0908E802EE081316F813FBEF0F04EC0702FEF40607F9FFF31802FBF5F1F11001001905FA
FF030BF9F90712020AF8FDF9FCF609090904FDFFFA0EFAF1FDFEF411FAEF0705011314180003FCF00CF206F500FEFD02FD1F0AF512F2F8FEE9F900FAEF0EF313
F1011900FC0B170B10F4FCF9EDF60F13E5FBEDFB030BF2EBFFEAF51905F00803FC0D171F01FFFDE90DEDF7F00401F8FF081901E504EDFEF8E7F312F6F018F31B
FC041CFC031610F7F901F7EDE4F8050BE000F5FD0109FCE9EEEAEB1E02F2080904021F15010100F80FF0FFEFFD0000F70A0F03DA07EE01FFD2F41BFEE50CF018
05040A03FA1305F0E2F0FEEDDFFA0804E810F5021505EBF2E0E8F71B09F50B0D070B180CF807EBE309F80BFAF2FF00F4110D08D10CEFFE00CFF80FF1F402F214
EE0B0105F51DF9F6E7E409DCF1E91711F215EF050BFDECEFE7E0F5230BF4030504081E1AF80BF9D81DF1F8F7F3FB02E70315F9D108E80605DBFC0EFDE3FAF816
FE0AFD07F021FAEFDFDB08E8E5F40E11F816F5050606F5E2E5E3E42712EE050C0A081111FC09EDD518F10205E5FB02E8081400D60AEDFA08CDFF0EEEDAFFF60C
0605FA05F60E04E2E9E300E1EAFD0C180821FF040D11ECD9E2F0EC1E16EDF702080B18150309F2D310E90E08EE0604F60D14FADF17F4EA07D20B0CE6D704E712
0A0DFE0DF10F17E4D0E609EFE6FE0208FF0C06FA0702FAEBDAE0FF1E05F1F8FD08071B0E0409EAD305F80CE9F40606F91603F3D611EAE80FC80614E6E503F217
0208F310F11C19E5C8E010E9E5F20A02F30B00FE0606F2EBD2EC061A0CFBFCFC0E0211090B02EBCD070007F3EEFA08F41801F6CB07DFDE04BD170FE3EC0EFD0A
0503F905FF161BE9D1E709F4F5FE0605021104FC0A03FBEDCDFC001315EFF9FB110904FEFD0AE6D6080613FEF0FB09000B08FCD410F4DAF1CC0E0FD9E809F807
0C08F906F8161BE9CCE30402EF0306FCF60D080103FC00EFD2F1040D0BF003F41103080805F9DAE7040708F9FBFE06FB0AFFF2EA0AF6E2F0E40DFBDFF812F806
090CF707F30D28EBDCEA08FCEAF901FB000A010405F8FCEFDCF7FA1105F50BF3090304FF02F2DEF40B0704F6E9FD0EFC04FCE4F709EDE5F1F30DF9DFFE11F50C
0D05F001000B21E7EEE806FEF0FEFAFAF70906020AF607F0EFFBE90F0EF7FFF9030706FC08E9DAF10809FEFAF2FA07FF01F7DF0A10F9F4E7F204FDEBF60EF603
0005F801022B15EEF3E31110E5FCFAF7ED0D080218F10BF9F7F0ED110BE904F1EF03130402FAE4FC10010104EE0205FD04F7E70C1AF9FCE2FC06F1E7E906FAF8
03FDF9FBFF3519F4F1EF0E16F5FCFC10F40002FB0EF105F5EDE1F90D08F0FCF8F502080FFD08EFFD1701FEFAF1FCFF07FFF7EC1217FF00DDF10601FAE306EFF4
04FCF6EE01331BEDF0F20B19FC08F6110003110514EA13E6ECED09FD04F10600EEFF0309FB04F2F41AFB05FEF702000D03F7F10B120301D9F7EEFFFBF0FDEBF5
F5F0FCE9FE2207FDF5F20C1C03050C14F80509FC0FF513E4F3F106FA0CF70404EFFA0213FA14F8FE10E8000CF9FCF202F300FD0500040BE1FAF30A00F60305F0
EEE706ED0E0C0B0BFBF2111417F40D12EF01FAFB1DF806EF01050AFA12F502F8F6060713F51A04F80DF0FC10F200E3FBF9040305010807E3EDED0707F70513EF
E5E60EEB22030D1406F11C1513F71A02E2FFF2031D0709E7FE01FD0F17FEFEF6FE0D100CF90E04040AFAF80CF6FEE6F2F20A01060A02FBF5E9F8060FF6090EFB
F6F607F0080E0D02FFF41205FE040710F402F0051204FFE9FDFCFE07050903FD0609FC0EF70A0D0615FBF700EBFFF4FAFFFFF9FF0FFFFFF9EC03FB0D04FD03FC
0806FA07F609FF0106FBFFFF0304F4FE06080103F90B01FE010007FAF90A02FEFAFCF2FC09F30BFD02FFFB0005FD0BFD05F5FAFCFE070EFDFF07FAFA09F0FCF7
09FB04F6060706FA030906FFFBFE020BF9FDFFFA0306FB010802080800FCFE04080307080001F6FCFDFF0605F6FBFAFEF9FE03FB01FE0100FAFDF9FEFE000807
FE03FC04FAFDFBFBFBFD03FFFAFAFE0204020203FCFF03FCFEFBFEFE0100FBFD040404FA06FF01FC0300FB000405FE0306FA0504FC0303FCFE0001FC05FE0201
02FC06060406050605FC00FBFB05FD0501FE06FEFB000104FD02020204FCFCFAFB0404FFFF05FBFCFDFEFB0301FF0200FDFD02030405FC050505050501FEFE02
03060803FAFEFDFE0009FBFFF9FFF70005010B01F808F706FB01FD08FDFBFF02070404F6020203F9FA0409FD06FD01FE0B01FFFB05FAFE04FFF8FBFFFEFFFE00
0317130CFDEF08050FFEF2F4F70CF7EEF8F90BFDF009060109F8080DF6F603FF07FC08F216F00AFDF90C06F3050610010FFC0400F8F0F91000F20709110F0A0C
080F10FB00010DFF0603F4FDF90EF2F701F80FFD0505040206ECFE05F8F8040902FF09FBFDF7F7F8070508EB02010A0F0EF8FF0E04FA050A05F704FCFF0FF807
000117F4F5F70EF5F206F0F1F9F7FA04F8F501FE0512F5FDF7FEF80301EFF9FA010411010005F3F0FDF205FC06FFFF0C0008100110F4EE09F7E70D02FA12FA0C
0A0420EBF0000FF10CFEE9E4FDF20501FCF80200F410F6EEFDFCF221F3E805FC07041D0F0AF7FAEA03F20FE904020506081209F613F0F008EAF504FED90EED17
FB0611FAE506020005F8E5EBEDFB0307F109FC03F70EF2E703F5EC1FF5F30C0A0A07141D17FF00F212EE03F005000603001903EA0AE9EF03DF0218F4DA00E810
05040B00ED00FEFAFEFAF1EEF5FF0300F40D05FDFE05EEDDF7F9EB0CFAF30A10FEFE060E0502F5F00DE80B01F601FC05040F03EAFCF0F200E103FFFDD5FEE507
030F1BF7F4FE0402F5EAF4E7ECF10909FE0E04FDFB17E6DDF4FDE41805EA00FD04F9181110FEEEDC0BED0201F50401FDFA14FDEBFFE2E310E2FAFA04E3FCE813
000507F5F8050908E7EBFEE4EFF0120AF3150104F708E6DFFEFDE31802F6090D03FE0D0E11FBF4E20EF30503F501FAF5FF13F7E508EEED0FDF05F9F9DDFCF50F
030702FFF3000600E9F4FDE4E9F80C0BF018FFFF0210EFE5F5F5DC25FFF0080F00FE100D1BFAEEDE0CF70307F2030502050FF1E80DE8EE0ED300FDF0DBF9EB12
090DF90FEE01FBF9E0F606FDE7070D03EA1A04FB020CF7E5F9F8E50DFFFC1017FCF90C0C0E02ECF009FD0507FF02FF0E0502EBED0DFAF312E70905E3E9F5F305
0A10FC11F5FB01FEE8EA08F9F60B08FAF31108FFFD0DFEEDF801F00F02F8170DF9F60809160BFAEE0401080DF9FC0001FE08F1F009F4E913F40502E90301FA06
08130B0FF1FE0BF9E6DF07F4FB0000FBFB0DFE01FA0AFFEEEF04F708F5F90FFE04F10607150CF2EE05F90000FDFEFFF90701EEF304EFE60CF10604EB0713FB09
FE100905F7050AFCDEDB0E02F0040EFAEF0CFFFD02FEFDFAEAFF080904FE12FE02ED0B0612FDF0F20102030803FE05FD0005E5EE02FDF705EE0DF8EE0405FC06
09080006FD0910FBDDDD0F03F00802F4F30904FF08F507FFE8FF020405FF170307ED0A0413F6ECF806060709000503FE0600D2ED02FEFAFFF60BFBDE000701FF
020D07FE030712FDECF21202F30907F6EE0E0B0402FE02F7F9FCF81001F219FD0DF10AFF0FFAECF30601010900FC04FB0501DAFE0BFDFDF5F301E8E9FB07FF0F
FE0FFD0600130F0103E61703FC0A08FCF71506010AF4FFF4F8FAF1060AFA15050DFC01FF0FFEEAF90AFD070DF40308F50301E303080809E6FF0CF0F0EF020302
FC0C0301020C11FA09F21200F6070CFDF61308000DEC00F2FAF9F4040BF80E0B0FFF04FE0EF3F1010BFC080DFFFD0FFC02FDE2FF13070AECFB1AF1FAF3F60105
F40C0DF9071206F50C080EFDEF010903F60CFB0509F003F208FBED0706EF06040BFC010306FCFBF80CFA0304F40408FA0A01EF050E0000E0F808F50AEBF3F909
F9FC0BF6000902FF09020E00020809FD030402FF0EE50FEA0700EF0705F106F705FCFA040310FAED07F7FD0CF10202FF0B0DF1010509FFDEFF05EB08ECF200FE
F4F401E90C140A01070608090E070303FDFF06FC0FE012EB04F802F309F609FE03EAF404F517FAF507ECF916F902EC080203F009091008DBFDFBED0EE8FA0BFF
F7EDFEEB0C150F140203FC031006FBFDF9FA110209EA0EEE0503F2EC06F601FFFCF5F801F2110003FEF0FE13FDFCF206FE08FB0F080BFFE2FEF7E50BEAFB05F4
E3E1FDFE1A1004150AFEFF0E1AF80C0FF5F5FDFB10ED12F5F700F3F306FC04FBFEF6ED06ED1A09070CECF0110100E807F004FB14071502E5F6F6F417F6F316EC
F2EFF5FD0D0CFB1D03EFFF1FF90F0406FE131202130A11F1F1FBFCE3030A0C0FE9ECF203FB1B031601EA0A15F806F00BEC02030AFE1B0DEF0EEFEAFBFBEB0BE3
F9F9FAFC0618F51D08EF071FF60A0302F814150308150AFE02FD00F604051110EEF2F8FC050B0F1006F3141FFAFBFF0FFF02F5FEF6100CFE04EDEFED05F00DEE
040202F00E19FD0C09F8110BF1FD0BF4F7110E03190E04FE0B05FE0F12FE06FEFDF80D010DF2060901040C14F0FFF5F6FA05F4FAF501FD090500F6EE09F60B05
F9FC0CF014FCFE0302EF0804F5011103F401FC010B0FFEF1F60DFF0D0CFEF8FE0A05090AF601FE06FAF40C0AF3FAFAF4F61302FA08FEF3FFFFFCFDF902FD040D
030604FAFF04FEFFFDFB02FA05FC0102FEFD060403040505060001FBFC03FA04FCFD04FE05FDFD02FC04FFFF00FAFC0200FF00FE05FFFD04020103FB01000602
FB05FFFBFEFCFEFCFDFD02FDFFFD010602FEFE0402050402FE040500FE0604000200010001020102020000FE0204FB02050203FFFD0104FD00020503FE04FEFB
F618161215010AFFFD04F9E702EC0506E9F6E703EE04000708F10723FAF705EE13FF180E13F5FCF018FEECED0CFC11031B0CF60406DFF018EBFB19070A110521
06070D0BF90000EEFA0BEFEEED08F905021500FCEF0AFF01FAFD000EE9F40110F7F5050311F7F8ED0A040AF70A0105FE0C0105060C01FA120A01F605FE15FE07
FFFF24EDF0F403F80506DFE3F3F0060CECFD0001F210EFEDF00DEA1607EB00F9070819050FF7F7EC00030AF60AFBFD0004110EF910F0ED13F3ED0B00F610EE17
131117F0E60410040A06CDDFF508F8FCF0EF0A04DF12ECEBFF02E50AEFE408FCFC0815FE09F3FAEF04FA01E7FEFB0B08130312030FEEF10DF5EAF305F108E219
071311F7D8FD17070A0DDEE3F203F2FDF6F40A06F015F8E30C06ED0AFAEDFC02FCFE06070EF7FAF400FD06F5FE040F08080019F609ECE804ECF6FFFDF10DE60D
08130CEDDCF906090AFFF1ECF10AF9F4FA020E06F914F4E601FDE90BFFE5FB05F6FE090400F3FBEC02F309FCF80008FEFC0612F3FAF7EF08F4FEEFFDEAF8E40D
060D02E4E600070D0D05EEF4F30FFDFEFBFE14FBF404E1E20409E3FD06ECF905FE0BFF09EF02F8F0FFED0507E6FD04F3F9FE16F90AEDF3FCF004F0F0E9FCE507
0104F8E8EC0402120A0CF6F4F70DFB01FB010B06F00CECE2F8FADDFF03F7FE0EF501FF08F30BFDFF07F4FC0AF5FDF8FBF5F20AF7FEF5FC08F906F0F4E8F2EDF8
0607F0F6E20A0105F9FAFEF3000404FCEA060802FE06ECE0F4F8DAFFF7F80111F0FA0101050FF70106F5FF06F505F80DF8F8FD0004F6FD0BF410F9EDEAF7F3FB
0405F40CEDF3F90E04F70404FD0A02F2EE0B03FC0A05F4E00703EFF8F604101CF4F2FCFC050FF81102F1FF0DF403FC09F4F8FB010502020E0813F8E9FCEAFCEF
FA02F40AFDF6F9080BF90506040107F6EC0E06F90A0BFDE40808EDFFF6000C12F8EC0A03090C040B0AF4FF07FE030307F6F7F001F806FE12080AEDEE04FA03FA
03FFF70CF90010FD09EA110A070A09F5ED03FD010409FAF0FB0FF8F5FE0B050FFEE60AFD0F01F3FF0AFE0204FA04FCFFFDF6EBEFFBFCF710040EEFEB100C0BF8
0106FB0CFB000900FAF7090A05060402F80904030903F9E1F90FF2FE07040602FEE207FE0703F0FD08F9020508FFFFFB02FAEFF8FE04FA09030CEFEF060C0806
FE05030FF80B0CFCF3F20B030E040C02FDFEFF03010AFADFF90CEB0103070605FBEF060316F9F3EE0C020801FFFFFAFC09FEE9F1000AF209FF0AF4F40A12F902
F70CF905FE0C08FAF4F90701FA0B0C09FC0EFE0209FAFDE9F604EB0707010E0A07F5070B17F9FBF70D01000702FF0AFE0102EFEE010DFC03FF09F0F40307F40C
F606FAF6041203FDEFF5120DF30F0FFD001006F90BF9FCDFFEFFE70A0A06070417FC09030B00EF000E040414FCFC00FEF905FAF80010FBED0412EAFAFBF7FE03
FC0C0AF7FD1403F5FBFA10FDF6010E030813FFF906F804DC00FBDE0B0C09040A18FAFD0510FFF4F80B050105FBF905F4FE0DF0F40C09FEE80019F7FFF5EC0106
F30107F70B1009FE0CFF10FDF60608FEF911FBFE0CEF07E404FEE00905FE050017F2FFFE0CFFF8F50A030B0F020406F5FE0BF6F2080AFFECFE16F10CFADE0305
F00301FB0C11FFFD06F61707F0010EFC021900FB06EF0FEAF8F9E50BFD0112FD13EE02021206FCFB0CF90215040404FBFF0CF704020E05E1FC0EE405EEDE000D
EAFC07FB0B13030007040E00FFFE06FEF90DFAFC05E106EFFEF2EA04040C10FC11EEFCFB030201000101F411020004F8FC0DEF0A06090EE4FF05DC12F2E5110C
EFFA00021118000B140303FA0003000BEB0306FBFDE102F401F7F4FF04000AFB06EDF207020C07F8FEFAFC0C09FEFB10FF06ED0B0B0A10E6F702E111F0EC1005
E0EA00071A1508161304F7FC04FE0211F7FE0402FBF304EC00F9F1F9F2FA07F503E6F10DF60DFCF807F5EB0C0805F416FA02FD0A071009F2F9F8EA17E0FE0EFB
E0E800FA272102180BFE0506FC010F07FC01020200020BEC03F2F5F8F4F90406F4E4F714FB1305010CEBEE0E04FDE918E807F604FC0F06FBFAE6EC11F3F61BFB
ED02FCF3181504270FEA0D15EF161400FB210F031F1311EE0EFCFD060B030D10F1EC0009050C0E1704E90525F000FA13EB08FB00FE0F09FD02EBE6F807E91FF6
FDF602F9170A0B01FCF2120DEC000A04F80EFFFD1A1008F601FE05130AFA010200EE0B11FE05FB0708FBFF0CEDFEFC0AF107FEFE0D0507FDF3FBF8F601EC07FA
F1F902FD0B020D00FCF8110AF6001413F904FDFC0CFFFDFCF5FE080A0BF8F8FE07FE060FFA06FB05FDF3010BFAFCF401F50C02080601F8F90300F905F7F8FF11
FD0002FCFA040501FB01FC01FE01FFFC010005000203FE0505FEFDFEFE00FAFD01FFFFFDFE02FBFC01FE050300FBFCFF05FFFEFC05FC05040302FCFE04010501
020707F8040704FF04F8FCF6F10BFA06FE100404F301F7F6FAF7FD0D03F40E00F9F708070CFDFCF70E090302FA060F090CF603010BFE0005FCFEF7FEF2FE0107
0F03FAF7F50A01FA0A09FF150D19F6FFF3F71003F5000401FE050EF80BFEFF0A0300FBFAF1FDFC180908EF00FA050D0515F60D0D1000FEF4040202F0FCFC0BF4
101001FAF9F409F90614E6F0010CFCFFF3FB0A02E20D010803040F0CFCF2F5FF090F10F9FBE407FB030E02EAFF030CF40DF213FC11E9F821FCEFFFF8140CF816
041515F5F3F30CF70E00DFEAF807FE13F0FF07FEF119FA03F803070BFBE3FEFB020B0F0DFAEAF7F8FC090AF8F7FD0C03130F11FB0FF0F415EEF7F7FFF818EB1D
061A0AE3E402130E11F6DAE70415F307E9F90F02F201F3F6FBFF040300E0FD00FB0BFB09F4F6F3FB070001F9F3FD120E11FD0C020FFB06F9F2FCE907EA06E909
04110DE3DCFB070E1402E6F1FC0DF0F7EB0116FFF301FEFA0301010207EA03030104FFFEF2E7FBFEFAFA05F7F903110404FF11F703F7F905F7FFE700EAFBEBFC
030709E3E502FE0C140BF0F6F20EF3FAF6FD0B06F902F9F207FDF70408F603FFF106FD00F1FBFCFCF6FF030AF10408FFFCF8100104F2FAF9F204EAF5ECF5EBF9
050800E6ED0404121605F7F9FA11F4FCF6FF1105FF0BF2EDFFF9EEFF04FA050AED0FFDFEF30AF80BFCF1FF0CF105040102F60F0006F6FEFFF805EEF8F6F3E6F0
FF0C00EAE301F70C1606EF02FC0EF3F8E8FD0600F70EEEEAF9FBE300F2F80D0EF50C0202FE05FF0C03EBFEFEE202070002F41B03FEFF020902FFFBEFFDF1EBFD
070FFAFCEA03F00E12FEFDFD0205F7E8E10700FFFC09E8E9F703E6FEFA000D16FAF908F9FE08010907EFF9F7EDFC09020DF30AFDFDF7030A080AFEEB01EFEFFE
0808F60AF2FDF30A0EFE010A01FEF9F6E700FE04FC07F9E9F604EDFC03080A11FAF604FAF507FA1206EDF8F8F2FC080A03F407FBF9FE0510050603EC04FF00EC
0308F305FC0EFE0F0E00070B0BFBF7F2F2FE02FA0E05FDDFFD04E6F6FD05020CF7F50AF7FD09000E04F304FEF704050004F4FEF7010504120C09F8F10CFD0AF5
0B0DF509010E03F708FC060903FCEFF7F8FEFBFE160DFAE70112E6F4FD09FF13FFF108F502FFFE0C08F507F901FA060306F4FCFDFF08FB0F071001F00E050BFB
0508F112FE1EFDF3F9FF0F0E0BFBFEFAFF06F5FF1203FFEFFF11EDFDF50F0014F9F40AF604FC060D07F10EFD01FAFDF708F9FCFBFF09FE160A10FFF71812FFFD
0007F011FD1FFBEBEBF7111500F800FF090AF8FC1505FFE8050EE7FE01160016F4F50FF20D04010D07ED0501FDFE06EF0D0208F7F209F10D0C0C08F51217F003
FE03FC0DE81EFAECEB07080DFFFDFDF90703F6FE090F06F70913E6F8F615FE17FE0115F3050506070DF409FBF7FEFCF204FB09EBF505F3170D0E07F91800EC06
0202F5FCF221FBF5F6110E160200FFF10CFDFEFA0D0303FE0211F0FF0116FD150D040CED0805020AFFFC0DF8FF02FCF508FC10EDFF04FE021705FEFD1CF1F1FF
0A01FD01F319FBF4F4070E08F3FFFAF60801FFFE08FF0F04020CEFFFFE0CF91213070FEB0502FF050C0703F4FEFBFDF203FE09F3FE0200FD100BFDFA15DEF8FD
02FD08F9FA16F9FA1005120AEEFBF8F0020808020FF418F5FD05EF000407FA0C1BF107F0020908070805020401FE03F8060508F9FF080ADC0C0FE60203CB02FA
FE04FFFAFA17FBFC09020B06F307F4EC0107070205F317FE0304EEFD0402FE0017EF02EF00000E04FD0502FE01FA0C03FE0300FD06050EE40E0DE60606D7FDFE
020001FDFE0D03000E06FDFDF204F8F100050D0406F506020807F3FA0A09FD0413F8FAECFEFB0B02F90F0208070301080902000306080EDE010CE808FEE9F905
02FDFAFF081308090A0103F5FA04F8F6FA09110202E804000004F2FA0607FBFC14F6ECEEF3FAFD02F911FE0C0301FA0A0405F907100C1CDBF708E00CE9FD1002
F9F0FEFE1B0606161FFE0101F9090500F106120507F402EE0402E6F90005090003DEF0F5F706F1050001FC1D0EFDE816FF0C0009070C0FEB06F6D910F30412FD
EAE6F6FC251B141101FB0E0CF5090511F40D0C0311ED12F2F0F0FCFBFB05140CEED7F10BF311010C0EEAF01000FDEB1CEEFEF1070F1421EFEEF3D413ECFA17F9
EAFEFCF32B21222103EA1623F0081710F21D01022B0D13ED00F4FE0C060B1810E6E5071D031809140FEBF421E103F713E401F002FF0D1A02ECEEE1FA01E42DFC
ECF8F90111141407F60B090EF210021A0505FD0310040BFC00E90CFDF3000D0EF2E7FB16F212FA1205F6F407F9040415F0F9000A070A10FCECF4EF09ECE311F9
F7F104F01812FE09FD04F902F2FE1007F009FA03041307030A07FC160700060A02F90F09FA00FB0AF6F5F906EFFAFC01F50EF2FFF702FD00F4F3F806FAF0180A
000301FA03050AFF090200030800FB0305FF0201FFFB0704FEFC07F9FC0202FF0607FA03FA030403FF00FE0600FCFB0604FC010403FAFFFAFDFC01FFFCFA02FF
10110A00F5140C0A15F8FFF8F00EF9FFF30C0EFBFA0BF8F2F5E9FC0900F40C0CF3FD090A09F9FBF4150A0B00FC0110140AF50F060FF20603F3EFFCF5F60EF910
0F0BEAF4F3FDF40E1303F40F1215FB03F9F41100FC06FD04081A14EE05FCE700FE0EFC03EBFB0F130606F2FBFB020AFF14F7130802FF12FE0B0004EC0B0109FA
0F1E04EAEFFB03011D0EE8000912EC01F6EF0EFFEF1902030E0B180000EDF3FD051506F5EFDD08F7FF0B03EFF5FB1FEE16F715FE0AEB081D13FAF3F6100DFC14
01201CDFEDF60A0717EFE2E40002F30CE6FF05FEF119F9F90103021A00D803F80F07120B02DD05F1FF090BF9FE011FFB161106EE05ECF91AF505F904FD13E91B
020C0BDBF2F1020512ECE6EA0717F3F9E30F15FEF50DF1FCF6FC000704E602070E0AEF06FEF9F8FA00FA090B06FF0D0B0B000004010A0004F403E503E401EE0A
050AFDDDDEFD02060FF3F0F2050FF1F5E30315FFFA07ED01FEF6030107EA02080811FAFCF1F300FDF400FD02EEFC15FF05F806FFFDFF0302F60EE6F8F1F7E803
060A00E4E80705100FFCF0FCF60BF5F7E3020EFEFB04F5FCFDF3040406F30DFEFF0600FDED02FE09FD03FD0CF4FA07FF05F5080300F405F2F101EE00EFF7ECFE
FF0702EAF007FB130F01F506FE08F6FDEB0E050601FEE8F4F8F3F400FCFC1110EC050A03FD120314FDF4F90DE4FF09080BFD0B0DF8FD0200FEFCF7F8F8E3EAF5
0A1304EBF70DFC08130BF902050DF3EEEBFB07FCFD04F3F2F9FBF3FA02F80A11FF0E04F8FC06001008F50301ED010A050CF905FEF3FA0805FBFDF5FB03F2EFF7
0216FAFB030AF60F0C08FD0A0303F9F2EF01FDFE04FFF8EFF6FBF8FD08040A0A04FAFFFAF308040A09F8F702F20116000EF10405F5FA100A000AF6FD06FB04F5
090CF300FA19FB080F00070E08FDFAFCF402F8FD06FD00EFFBFEF9F60204FD1106FC03FAF5FFF70509ECFEF7F10114090EF50405FFFA10010517FDF602F810EF
0814F9FF0222F80307FF071309F8F4EAFF02FD030AFE05F6FE09FCFDFC0C011101F509ECF6FC0A030AEA05F9F703180212FB17F9F4FA0A0AFF1003F109FC0CF5
0B0BEE0A001CFDF809FD0B0D03F6F6F401FFF4FB0F06FD010A0FF8FEF511F81C00F907F602F514FD08EC08F8F40414FE19001104F1060E190B1008FE11FC03FE
0504F40C032F05ECF2F8110D0BEFF9FA03FFF6010906000C0A00FDFEF50BFC1CF8FC0DF5FF0306060DF706EEFBFB02FF13060FFAF8000915060E13FD0F0BFF06
0FFFF906F333FBEEF0F90C1203F2FAF00704F6F8150A06070912FC04FA15FF12F9FE09EB0C09061100FB0EF105FDFEFA0B050802F7FFFC0D0D0612F91309E804
10FAF20AED2BFDEDEA10140F01F3F9F704FEFFFF0E0606100709FCFFFA0FF40C00090CED070C0415FCFD03F801FAFEFE06F50A00FC0305120F050EF91503E8F8
0AFEF903F024F5F4FA0E010FFF03F9F30AF801FA0F070D14F91201F70010FA0F1205FAED0204F815FF0806FB0003010210EF0206FE030E0918FF0BFF15EEF5FA
1200F9F8EE22FCFC060B060FF409F4F608010A000C040B14FC0A03F70C1101051FFE04E60100FC0EFB100DFFF9F904030EF60503FE0018F61209F30612D9FFF8
0E0100FAF71302020E05050AED00FAF6FD010B0005F80F0A040600F70807FA031FF1FEED06F90807001108FD07FC0D020EF905FFFA0019EC1707E70415D1FB03
05FE06F3FE0EFCFC0D080107FBFEF1EF05F9070004F70C0B050802FC0305F80716FDFCF2FCFB0A02FA1200FC00F90E0D0A0001FDFE0518E6080DE80908DBFDFD
FD05F9FF0302F9000EFEFE07FCFFF8F8030300FFFEEC030C020805F70008FD021CF804F1FEFF1103F80B020701FE090B08FF10FD020A1DE00B07EC06FFE9FDFD
FD06F41010FDF1140BFCFF00060AFBF6FF020DFDFFF0040B000504FE0C00FE050DEFFDF1FDF80B01FB08060AF7FDFF0D120607FE0C061DE0FE04E002F4FB0607
02FAF3FC1BEE011D0CFD05060410F5F0EF0821FB0DF514FE0500F6F3130A080302E7EFE6FFF7FF0CF90C0F180903EF0FFF02FB1108171EDD0905D10CFAFC13F8
FEEBF6EB25FB110EF6F3080DFE0A0F08FD1013FB25F707EB03FAF1ED110D0607F0F5EFFFF905EF0E01F40122F7FAE012E303F61A011D1AE7F801D5FCEFF515EA
F4F7FBF22310190BF0F10F19F7081512051B05FF20070EE506FEFBF60A0E1213EBF7F61E000AF51708E40928F703F31BDF04000D021D1602F200D9F6FBE81CF8
E001F4011413140DF705F90D000601170AFB00FF02FE07F1FBF802FCEEFD0A0DF7F9F416F214F80C0BEDF906FCFDFC16F50101160A0F10FAFCF6F50BF2FA08FC
02F102FC130B010D0309FD02EEFC0C00E7FBFB060509FDF40809F908070202FE03EB0A0DFA0101FEF6F7FC07F001FBFEF10AFFFE00F8FC01FFF8F001FDEA1107
11FB0AF6FF030901F3F906F5FC0DF60BEE0A03030BF2F1F7F500F603090DF7F01001F2F8FCF0FAF3030A0D0A01FC040207F2F704110CFEF8F4090BFDF604FDF8
0B0FEA09ED07080F150001FFF90503F2F7EE1400F7000C0D0AED0B0100FEEFFB04110C02EBF508FE000FEBEFEA0217FA0DFC09F60DF10B00F6F304EB051AFD0D
1001FEF3EA01F8081CFDF7031415FC0205F81404000AF704FD0A08E709F2E5EA0012F6FDEBF90B04020100F90305050C1701110E01F91AF211FFF9F7FB03FEFB
0E180FF3F5F208080E02F7FD0213F2F2F0F81001F71500060A0402FD12EDF7F0070E00F3FAF006F50A0D0A01FD010DFA12010FFA05F8F90E09FBF7FA0711F111
FA1C15EEE6EE001423EFDFE80D08EDF5E70107FBEE1EF7F10207FC0EFDDDF7E9080C1308FEEE09EFFF030B01FC0111FC14040DF1FFF7FD18F406F4FFF911E91D
FA0D08E7F1F2FD1415EAF1F50B10F9F0DE0712FFFC08F1F90304090107EDFD01FF0AF409F507090101FCFC0C01FD0AFF100003FBFBFC040A0109EA0BF8F9EB03
FD070AEFFAFAFA1005F1FEFCFB05FBF9E1071006FD03F704020302F90BFB0303020BFDFFFE030918F605F90BF7F903F004FAFFFFFBF902FF0CFCF50609F9F0FD
030B09E6F8F8041114FCF0FCF10AFCE8E1011304FA08F503FDF702F904F70C05FC0904F7F0FD0919FE07F60AF8010FFA0AEE0C03EEF40BF908F3EF0501FCF108
040BFAF3F80BFB0D160CFC0D0504F9F6E9F907FE0103F0FF03F3FFF602FE0A07FC0C03F6F00B071100FBFBFCF003100A12EE1107FBF80CFA09FDF70B05E9E5FB
010EFEF4000DF50E160E0F09F708F8F2E8FE02FB0AFCF0F9F903FBF9090102050A0C00F9F606040B03F1F602FD02110817EB050AEBFD0E070706F70002E9FD02
0C0BF8010218F9020D060500F80201F3F50700FE0805FDEEFA0200FA0C09020A07FEFDF7F5FE040D0BEAF70304041A0617EC1405EBF80B02FB00FFF905F31003
0B09ECF4081FFA0D1004090F000CFBFC000101FE0CFA02ED020106F80507070505FC02F8F2010C080AE6FA05FCFB18FF19F81B03ECFD14FFFB04FCF6FFED20FA
0C09F4EF0F21080814FB0C080009FDEEFE0A09FA0505090106F90D070E080503FEFB03F8F4EF0BF804F70103FD021CFD16F918FAF20216FFF701FFF709FD17FC
0407FFFE092311FF0BF40E05060604F9000506FD040A0D0B0E000A07050AFD08F9F809F7FFE010FAFD0005FF01030CF51B000EFBF204140EFF020900050D0CFC
0D02F806002D0EF205EC050207FBFDFC030702FA000E08170F020F07FF0CF812F3FD08F4FDE70BF9060E06FC040304FB16FB0BFDFC011219080E1C060A18F100
0F03FC08F51D0AF3F40203FFFFFFF5F7FB0104010314FD19060F0EFFF80BF40AF50705EC02FC0D02011608F608FCF4F817F9F90509FF132205141A030F16E602
1505FB01ED17F9FDF7020800FA00F1F5FD0904000C140121FB1018020511EF0BFF0403E807F9F90AF0110A010203FDF913FFFB10080019160E150CF414FCF007
0D070009F1FFEF04FF0F01FEF207FCF6F9FE08FF040C0125F3071306030CF6071AF9FDF404FAF208FD1905F608F9030113FBF30B07FB1B0E0307FD040EE0FC05
18040907F4F1F8050C10FC05F30AF6F7FF07100005080F1FFA110FFA0006FC0F17F7FDEF0CFBFB13EF120F0307FB0F060DFCFA16FD01250D1008F00013D802FF
0C080AFDFDF7EFFC050A010AE405F7FFFB0510010A080910FA0A11070A09000A1DF6FFF609F7FB0AE4110C09FC020E0D0CFD050BF9FF1FF60A05EAFB0FCEFF02
0D05040203F5000709060105E708F503020710FA07FF0B11FC0311030703FC1013FA01F5FDFB0700EA100C0106040C100AFA0C10070827DF030AF1FC07E302FF
07FFFC0706E8FE0508F9FC07FD00F901FF000BFD0CF60810FF0C11F80B05020C18F9FEF3FF000308E7100903FF0309130704180D0B0A1EDB060CF2F900F6FBF5
0C11F00C0CE8FA0804FD0002F413EEF7F50811FA08F1040D01020F070200050508F1FCF009EFFF09EC13090903FD070D1AFF1C130D0326DAFF08E1FBFFFE0302
0BFAE40B0AEDFD1B10F00408F619F4FAF2181E010EE4060009050AF312160D10FEF1F7EF02EC0015F408021BF4FAFA0C00FB0B15031023DB0E0BD2FAF3060DF9
FCE9E9F81BDA0F0AF1F11627F223000BFF2025032AEA20FD030113E4191F1610E8EDE6F8FBFDF52DF6FF04250902D819D4FAFF23022428DC0E03D7ECEFF91ED8
DDFAF5FC32EE1A0AEFF9071EF6190C13051722FE1FF911EF06FE07E6FF0C181BE3E8EB10F40E052304E3032F08FCED20E101FD29FF251FF91208D1F8EFED1AF2
E009FFF92903071501F6080EF40919FEFF0D16000D0209F911F802FFFC00190BF4E8FB110A0A081307FA0A23F903030BF70C0315F40F1A0809ECE9FBFFF21800
F802FE0A0703FC0809F70D0FF60E05FE020BFD0508050B07FFF60A080B0E100FF0EE0D0709FD061500FD0112FC00F9FD0001F4FBF7FE08FDF7F6EDF507F712FF
0102F60000080E030C04FC020204FDF9FDFE0203F7FF080201F902FA0AFBFBF9080507FBF4FF0CF8FC01F7F8F40201010502010102FB0CF60004F3F5040303FE
0F08F500F70808091A04FA060B08FAEFF9F01103F5040D1506FC0CF103FBE9EE0A0DF9F4E8F40FFFF913EDF2F40108F705F011FB09EF09F306FAF9F1101CF702
0906FCF8E7060A0E1AFAF2F8FB10F1EEEFFE16020505FCFE000302FC0EEAEFF20201F3FBF5F308020A0705EEF8FF0D071402140505F812F4FD02F7F1FC11F8FB
071A00FBEAF3090A1500F3F6FC11F4F5EBF71002F019F5030D070BFF11F7F4FA0B0B02F004EA08F704090CFCF4FC150515FF04E90FEF0412FD05FFEE0715F907
FC140BEAE8FC0F0D19F5E6F60308F0F3DEFD1106EF13F3F803FA0C080DEAFFF00D0F1403FBEF08F80605FDFB00FE01F0140008F00BEE0611EF08FDF9001EE71B
F90A09F2EAF6F80A0DF1F2FC0909F8F2E60307FDF60CF7FB0700FF0003F4060502110105FF011910FB0EFE06F0FD01E702FAFEFDEFF40F0C0206FEF901FEEE09
0606FFEAFCF3FD0E02EFFF09F008FDE6E6FE1005020CEFFA06010AFBFB091207FB0A0000F5061615FA0500FBF2FA03FC10F51205F5F90C0809FFFA0215FBEC09
020C06E8FEFE0603080B0404EF02F7F6E80003FEFF05F3FF01F40601F40513FFFB080A03FC0A0C0E0300FAFCFD0109090BEF18FDFAEE02FE01FD03070BF9E908
04FFFBF6030B091205060F05F70AFBF1F00102FA09FFF6F800FB000204080803040B03F6FC0E0E1405FDF8FDFE010B0816F613FDF3F503FC03FB01030DEEEC08
0903F4F70707FC0C0E0F0B0BF10AFEF7F5FE010305FDF5FCFFFC0501060F040C0606FDF6F2090D0DF6FCF90301F8020910F91908EC0507FF030003F602EEFDFA
03FAF1F80208060310050C0AF80C03F60302FA0400FE08FC00FE09030614020808FF01F5FB07120BF7FAF1F909FCF90303F215FDEAFF09FF02010AF604F010FA
FEF5F2F3050F13081504060BFD0C04FE03FD020304FD08F607F710FD0B0A0901F303F8F9F4FC1507F5F4F00108FAFA02FFF514F7EE031EF6FB05010001F921EC
00FAF3F30510210519FAFBFE040C01FC0506050004FF0E06070225FC080CFFFBF407FE00FDD92101FEF5FB0303FFF9F603F615FDF7052001FBFD02FB06091CF4
05F803F9FE122E000FE602FF070C04F40C0106FFFF10050F08001D07060405FEEB04FEF9FBC72AF9FC08010401FBEAF1FAFB01F9FDF71B1000F816010D220A02
15F5090EFC041FFC0EEAFEF8080EFFF1FB0105FCF811051F0A0625130304FF01E60E09F7F8CD21F5001604FA0E04E5EF05FDF4000AF31B1C00F624091330FC0B
0DFF0E10EEE703F6F60EF3F20600F4F2F8FFFFFFF910FD2207071D0DF6FDFD01E40A0BF7FFEB19F7011304EA05FAEFF50C01F70D0BF51932080717040B0FE70E
0FFD1013E9D5EA01F917FBEDFD08F4F7F5060DFFF30EFB20FD011605F2FEF40E05FFF9F20CF006F9EF150AF205FDFDF108F9EC130AFA1A2C080E020509EDE90A
0E05050CE4CFE70E091AF4F8F30AFAF5F70109FCFB0EFE26F50C21FEF508F6111A00FAF40BF803FDE9140EF803040BF60CFCF615050016220A08EFFE04DBFBFF
1009070BEBCCFBFE0A0CF2F7F212F9FAFF080FFD0205FD21FB0C1C030009FD172600F5F604F1FDFCDF110B0109FF0CFF0B02F611080520111209F6FC01E10A01
11091102F4D5F8F90707FB04F20AFDF9050B18FB070E0312FB0D18070C0005062108FCF606F4F506D815190404030A030801081309000EF8120BFBF30BE300FC
121000F8FDCFF5000504F904F20BFFFF010C15000804060EF90D14060AFBFC0B1900FF030AF9F405E00D130F03FC0D020C01171206050BE60F08F5F102F2FA06
0B0FF10105CEF8FF08FAFC0CE710FD04F60B1A0102FB020BF80511020900030709F6060601FBFB02E40B1406F804030A04031F17060912DCFD04ECF205070005
0F16E50301D7FC0204FDEF01E70FF5FEFA0D130002FA060A01FD120DFE0405080DF502F80AF2FF0AF017150707FB0A0F09081D11FFFF13DB0AFDDFEBFC06FD0C
0207E90213DB021503F6050EEE12FAECEE1118030FE70B0109060E0A0E0D0D0804F003F30AEA0218E40D0C1600FCFF08FDF81215070F13DC060DE1F7FD0608F9
FBEAD70A20D21A0BF3F71727ED15FBFCF41B1DFD2BDF251407FD19F31926110EECE2EAFDF8F80A20E713FA2217F9D810DEF0F8200A2519D9FDFED9E2FCF61FDB
DCFEE00F2BE9180DFEEC1225E9200812F21823FD22F72C1507E51D0008162313DDD3F811F707132C02F9F923F804F414E9FDFF27031C10F207F9D8E9F0EB28F2
DB13EF081002002009F70320F315FE060012140402061AFE11F907FAF610130DDDE7FD08040A2220FEF5FF11E9010F0201000E06E811031209E7F0F10BED170C
F70BF20EFA01080402FAFDFAEE0DF40115FD0D01FBF9060C07F610FEF7F8FC040501FBFBF7010AFE000BF5F8EEFEFD0C08FA0310FCFD1114050605FB0AFE0003
0506F605FA03030A0C050100020AFF03FAFC0C00F7FC050703F707FE02F3F3F9FE0807FFFA0104FC0301FCF7FA0107FBFD03020003F707FCFEF8F6FB090DFCFF
0B07EF03020A08091C01F6FE070101F7FAE20A02F1F0172108F60AFA08FCF0ED0A0DEDF2EAF811000610F0F4010008FC01F607F408FD13EF0C02FCFC0F0C0601
0C04FD02ED110D131800FDFFF817EBECF0F112FCF2FF020800010BF80CF9EAFB060EFEF5E7EE07FB0914F8EBF9FC08F90CF406F519FA18FC010E05EE041BFCF9
0F0904FCE0FA110410F8F3F1FD19EEF2EDFD12FEE520F10005F605040DF0F705111503F7F7ED01ED050E0AFCF3FB08FC07FC0CF50CF6FF17F10BFBE9010BF105
020003F9E7FD08100AF5F202FA0602F5EF041005F503FBFF00F7090207021402FC020F06FDFA04100009FCFCF501F6FB040707FE02FB18FCFAFAF8F80B0BF406
FFF300F7DDF8FB1110F4F003FA0408F9EC0A00FEF803EEFA08080103FF070E0C060E0B02F6001D0F0404EB00E803EDEB000806FDF2FC1603060605F80A01EE04
01FCF8F4F6F9010B10F80200EAFB07F8F801FD00FA0BE7FE0CFB0A00FD110F0CFB100601FE0319150302F3F8DA00F0F501FE11F5F2FC11090CFEFFF711FDF0FE
06EFF7F801FD081005F70AFFED0A02FAF0FF01030BFBE80504F80E0408110703FC0F03FEF6100A15FB06F7FAEF05ED060BF71706F3FA03F805FF0AFB1204F507
05F0F5FE0204060C0A030C0EF60B02FBFF02000306F2F40008000BF7010C0D0804070204F7150E1CFDF9F8FF00FEEB0F04FA1B08EE0504F80804000309ECF603
02E6E9F808FC020C0F090E12F50D03F404FDFF010FF700010A0018F80D110604FDFEF8FCF21E1917F202F1070202DE07FCF91507F70F12F60A0BFFF308F008F3
00E1F2F704FB110B1CFB0910FA080AEE0802080007040A0812FD1EF9090C06F8F201FFFBFC19280BECFEF0FFFB01D7FDEBF60D07F50112FE09FCF8FC0AFA0FEE
F8E4F8EE0BF2230818FA0706090F03FA070305F9FDFE08FF0A031FF9050707F7F00AFBFCFF062707F5FAF307FC04E4F4E1FD05F5FD0611F2FD0401FD040F1FE7
FDE4FCEC11F334FF12EB040A0F0805FB0F050AFE03FF050503042B03080D11F4EB0BF401FDE733FCF7F7FE0DFF01D3F4D9FCF9F7FF051DFF00EF060BFA1B19E7
10E706FB03E33A030CDA0503100EFEF2040509FF040A101CFCFC32120E090FEFDF0A03F0FAC228F2F80DFE0201FBD9E9DAF5EAF017F91A07F8EE1E020D2F10FC
0BF20F0805CF13F3FBE70502060AF2F5F2FF0BFDF506132B00FD34170C080AFFD10C0EEE01CC1EF5FA17FEF20B03E6DFEFEFE3EA14F51322FEE2240E1428FE12
13FB051FFAC3F5FAFB16F3FB0A01F1F5FEF809FDF3020D2905F82602F3FDFBFBE50105FAFFE61FF7F61AF4ED09FCFCEEF7E8E6FF11FAFF2504E911090E07F20A
0D040219E5C6E705FD1FF2F5FF06F3F3F4F801FCF904FD1700FD16FFF0F9F50903FFF9FAFFF30EF7FD0E03F506FA03E605E9EF0609F7FE20090001060CDCEA01
0C030A09E4C6EC010B14F5F30806F5F8FEFD0C05FF0EF91200041401FAF6F70522FDF9F900EEFBEFE70A0D010CFA09F304F6ECFF0705F61A0309F0FFFEE3FC01
080716FDF2C8F4FE0510F700FE0CFAF6FD070601040B0018020519FE0600F2082309F9FD09F5FDF5D8091007FA040BF305FDF805030AF7100E0FFAF803E600FD
0D0E0AFCF2CBF7FD0805F704F910FAF0080213FD06180314F710140701FE01FE1E0807F90EFBFDFFE0080C01FA000FF1040B0C060803F3070E04FDEC0AF6FD05
100CFDF9FAC7F9FFFFFEF804F012FDF6F40517FBFF0F030CF70A1C010300FE09110A0A0504F2F4FFDF161202FC0102FD05FF1E0804F3F0EA0C0CF3EA0A06FE08
0504ED0103C4F1040801FAFFEA12F7F6F0040DFC05FA0B12F50B100109FFF5FF1805020001F6FA03E2110206FCFCF8F10800210F0200F2E4FF0CEAEA000B0B01
180BE4FD05C2FB0604FAFA0BEB0EF5F1F203160404F7040F030308010609F5030DFC04F20CF5FC0BDA150D0513FA02F402FD1D0C06FCECE4040DEBEE011009FE
0405E8FE08C1F8FFFCF2090AE3FE00ECE4100DFC14E7130EFD030C091310FFF40AF0080107F00413E21910131603F7F5F6F90A020509DCE5000DE8EBFE0D0CF6
FBEFD1141BC60902FDF11C19E80B0AFEE7180EFC2DD7201AFDF31D011C2212FFE9DBF909F3040118EA08F71E06FBEA03EFF4FC110C1AF0DFF203D8E4F30116E0
ECFBDF2A0CE41500ECFE0F1DED17EC0A000708FA12EB2826EFDA26F0EE191E17DEE6ED0CEE110A2403F5EB08F101F50FF4F1F827081D0AFFFAF8E1EBEDEB03EF
EA08DF1CFC020D0FEDF40E1AE318F004F91506040200151DF6E71DFDF1121C0FD8E9F70DFA001A1FF5F8F309EEFF0B14FFF1F0180813130FF800EEEAFEDA12F7
E90AFE000305080DFC00FF08F205FBF507FE0F06FD0614070EFE03FBF002FD0300FE04EDFBFE08FFFC0C01FEF601031008F9001AFAF211120909FFFD0CFC0209
0F03FE02F8041107090CF5FF040D06FCFAF80F04F9FE0E0B0DFE0CF80EFDEFF6FF07F7FEF5020B00FE0DFBFEF904FEFF06FF0F0005FA11EF0400F5FA0708FBF8
1809F803FB08120404FF00EDFE17F3FEECF61505FDFE041000F713F914FCF3F1140CFFF2F2EA02F20115FCFBF7FB09F004F403F314F410FAF107F9FB061A0A05
16FCFBFCF7091D090D05F704F81DF6E8EBEF18FFE50508130AF21BF605F3EAE8050E0BFBF0EA07F90615EFF2F40304EF0AEF11EB1DEA0CFFFB030BF8081D00FF
1B0201F8DDFD0F010905E9FCF615F1F1F4FF1CFCEB1F040A01F20C0707EB0503FC0A0BF5FDE203F60A1005F4E5FCFCF808FD18F61AECFD10F804F3F10611ED06
07EBFFF5E3F90D090301ED08EB0303ECEEFA0BFFF80C0004FFF30E0DF508170EEF050F0704F61B0FF700EFF7F3FDE3F5FB060EF9F8F50C0202F501F00E04E5FE
F1E101FBECF9000D0BF40112E7FB0FF2F004F601FD05F1F80B010604F912140FFC000810050E1C1EF6F7EFFCE4FCD7F0F20F1402F20110040FFEFFF209FDF300
01DFF6EBF7FEFD0E08FB1004ECFE0BF8F809FD041001F00609090FFF06190102F906050302121815F4FEF2FFECFECDFAF2011009F6040FFF150701FD0C05FBF8
04D8EAED03EE04150FFF0F08FAFF05F7FB0009FF0AFDEA0710060DF50C0B00FCFC05FC00FC0F0B1EE907FF06F802D400F0000F07F80506F60FFE09FD180404F7
04D8F0F203F200090BFE121501FBFFFE03FB020111F6FF01150D10EFFF15F8FBFF07F9F8FD1A1424E7FAFA01F801CC0CE9051610F90C09FA0D0802020F00F5F6
FBDDF5E905E90B1018060C13F9000EF90204050408FC0502170810FA0A0502F906FAFD01FD26181FED010006FEF9C203E0090606FC0A06EE0F06F9FD060805F5
F8DFFEED0FE526FE0EFF020F050A04F802FE0EFDFDFE0901180B0DF0040601F8F801FBFDFE231C10E4030904FFFFCA05DCFEFD0A030901F112F70303041405E7
04E6FFE611DC2F0607FCFA06110608FB07FC0EF902040B070B0419F4090705F9EF06FAF8F8191D11F0FF0402F7FED5FBD8FFF4030C0807000DF7070C031A17EA
04E907DE1ED62DFDFFE5F7022714FC03130714FC05050608010A1900030607EEF313F4F4FBFA1CFFEDF00A090302D800C5F0EAF614020A050EEA1311F62917EF
0EF815ED1BDA1BF7E7DB0D0B0B0AF5F4FDFE15FA0DFF141EFEFF2C0B0F0515F7E21010EFFCDF0FFBF40D01050FFEF0F2C6E3D6E324F4F40101E017100A221C0A
0A01120108C900EFDD051212F806F2EBF6FC0D04070D212207FC270E030219F9CD011DF00AE10FFDFB1BFDFE090401EEE6DBDEE017F6E6200BCC140F1A110C1A
0DFC021304D3EDF9EC23FC0B0A06F1F305EE0BFEF801151B08F71201F80006F7D5FE08EF04FE0E04F90E00F0060402F2F4D6F3F804FDE61A10D90A1112F9F60D
07FBFF06F0E6ECFE0522F60811FDF7FE00F00000F60A110D10FCFDF7F4F1FEFBEDF705FBFD070D06F60BFEF403F906F5FFED02F6F8F7F0110AE7FD0C05DEEFF8
11040AF8E9EAFCF6FD23FE021505F2F202F80BFE06150E070803FEF6F5FAF70CFDFB00F309FEFFF9EA0F08FB0C0301F303FA01F5FFFCEF170BF6FA0002E2F9ED
050C04FCECEB00F4011AF6060C09F3EAF8000E0004150A0E0AFD07FCFBFFF903090B03F8070504F4ED0C03F806FF01F8FD0613ED0DFBF01711FF0BF40EF1FCF4
07150AFCF5E2F6F2FC04FA06090BFDF6050A0A05FB1D0411FC05FF06FAFFF90C0E0C06FC16FFF200EB090DFDFBFE09F4070B22EF0304EA05070E06EE04FFFE00
0F0E01F9F4CFF7FCF907FCFFFD03FFEAFAFF0000FD130C14FE0B0408030BF40D111610F80EF9FC03EE140EF506FCF6F7FB0825F6FCF5E10010130EEC1606F801
0201EF03FBC7F3FCF102FFFFF5F803F1F4FB03FB01F50410020C0707030AEDF7141508F30CF8FB09DE0E02FBFEFEF4F5F6051FF502EED6E1081201EA0A070700
0506E505FFC4EC00FBF600FFE6EF01EAE5FB040305EE0518FE160D00090DE5EE100C09EE08FE090BDA1103F90B03FEE9F8FB19FEFEF0C6DB0B0BFDEA111404FF
00FBE10E0EC0FE00FCEA0C09D5E806EFDA0EFCFA1BDA1116F7FD110D1814F9E20AEE140005030715E412021106FFFCF0F70000F3FAFCC7DAFD0BF0E50B0B14F9
FB09D51415D30504ECE8241FD2F00EF1E027000023D9211CF6F20C11192000EBF1D60F00FE010016DE1102250C0303EDECF8EBFAF512D7E30000D7E2FFFE21EF
EC05DB1E02EAF8FFF1F01721D9130C01F51F05FC12F01B24F4DB1907FB2113FEDFE3010D08000D1DF304EF0AEDFF040703F3F020FD1A000402F5D7E201D61AEB
FDFFF80209F3FB0CF5F61922E719FDF1E41F160012001B17FAF01804F61C1716D9DC02FE01040A22E409071912FF030BF6F0ED17031210090AEEDBFB04DD19F8
ED05FF0AFB0F0606EA09F901F6F1EEEDF2F102FCF001101703ED12FFFFFF09F8F9FB0EF5FDFB12030414F9F6010408F607EBFB0509ECFE0E04FA02FE100CFF05
0304FD02030509020209F6FBF701FAFEFCF20B03F4F6070706FC0BF805FAF5F80004F3F9FCF80CFF0301FCFEFBFC080405F50BFA04F902F8FFFBFDF90009FDFA
0401F2FBFC0F0E0A0D0DF9EEFF09FEFBF7F710FFFA09080E0CF90AED0AF9F4F6061100FBF4F80EF5010BF1F900FE00F9FEF60EFB0FF80805030305F80B0EFBF9
0FFCF511F10A1D140A17F2FBF217F8F1E9ED1701E40C13140EED16EE11E9E7EE0B1007F9EBEB13EA020CEBEAF704FAED03F316F518ED1400F6FD06F61316F8F9
0AEDFEFAF3030A050E0F080CEE0CF8EDE8FD0CFDEA0C110B0AFD0FF80C020DFFFC060FFB05F3FD0C0B06F5F6E102F2EAF3F813F313EDFE06020EF8F41614FDF9
0BDAF1EFE4EE05050A06F517EDF9FFE7F3FAFB06F8030C0712FD0FFEF8140808FC030DF506F81012F408EDF2EB04D0EAE8031201FFF80A00090101ED19F8EEF3
02CD05EBEFE8030206F4FA16E3FC0CF8EF0605050304FAFC0704050104130B06F1FB050502010F1BE502FFFAE204B8F6E20E1403FFFCFDFF0E01FFF51103E9EB
09C6F5DEF9F30BFA00FA110DEEF80D010601020216FCF006020706F90213FC000206F7FBF90D0316DE010300F1FCB308D40708120B0408F1160CFDFB1407FFDB
02C9F3E707E510051102090BFDF807FD06FE02F80FFDF80E0D0E0AEF0E10F8F1FA0AFBFE0014FE1FE708F804F803C30CDD0009190D0C09F70FFF01060D0B05DF
FFD3F3EA06F0160A120A090B04FC07FD02F202F804F9FE060A050EEC040BF6FA030CF500FB1E071BE5F8F801FAFFC606D0FC0119110507F81A07F70B0E13F9E5
F8DEFEE307E81FFA0204060902020D0202FB01FA01FEFC040E0D03FF0105FEF401FD02FB011CFF1DE9FB01FAF903C40CCA0EF5060EFDFC000EFCFB020217FDEA
FBE7FEE10CEB25FBF60B020F1502010711FE130201FCFFFE010E05F5FFF802F9F201F404F620F313EA000E0605FDDB09D1FDEF0B0B0CFBFA08F4F80FF41AFBF1
03F10CDA1AEB1EF0F2FC04082E0F00120C0912020A0203FEFD0202F603FF00F8F90EEE09F524EC10F8F60F100802EC0FCBF6E6081A0BEFF807EF0B0DEA1F13EC
07F810E81FE615F4E2EE06071F140414120D110202FD03EEF304FD0906FC05F5F708F3040009ED0AFCEC15111CFDFF06C7EAD6FE1F11E5F5FFE60B20F11D1AFE
0D0214EF19E3FCEEC9F014080A0AF81005180FFC14040E02F80207150A0511FCE00111010DF5ED0701F8110F27010804DAE1DAE914FEDA09FBD6101BFF0F1714
0D0A0C0A09E2F2E7D2190A07FCF8F6FE080006050711171701F9030DFB001204DB0421F714F403FE02090CF61AFC0D03EFDDE6EB0CEDCB1A04C91116120B1019
0F0C0C0D09ECEEF6F12BF7170AFEF8F911F606FCFF10150D0F00F9FFF5F604F7D6FF18FB09080501060AFCF811020BFCFCEC08FAEFF1DD1F12CA041812F5F40D
06021200FBF4FAF70422F11013FDF70109F90DFB001F0EFC1402E5F8F4F1FAF4E3030FFF01110102F40002F10A0201FB05FA16F4F4F4EA180BD5FE1505EEF004
03FE07F8EF0607F20322FA020F03F6F106FA03FFFE1809FE110AEEFAF2FBF904F7020701080C07FCFB0305FA0C03F7FEFC0511EEF8F6F31F0CE701010CECFEF5
0E0007F8EA0707F6FA19F506180DFFF70AFC0A05FE170DFE0E01F500F8F5FE0E060906F90D0801FEFB0507F604FBFCF7FF001EEB0000F40F0DF10DF00D00FBF2
0704F7EEF0F9EFF1F50300011307FDF0060D06FB0B1700090A14F901000C0013080B05F71310F804F70C0E0300FBF6FEF9091CF4F304E90015040BE70803FFFD
0706EFEA08E9F8F1F900FB08FFFB09EBF903FE020C0505FD1011F7FE030D00110D10FEF61002F403F60507050503F3FFF50923F1FBFCDDF10D0D11FA0E060704
F801EEE70ED7EB01F9020203F7F312E9EC05FD010AF8FBFF0F1DF1FA0C0EF1FD0F11FDF8040AFC0CF60AF7FEFFFDFDFCEC0A1CF9F3F9D9E1101301030B070DFF
FDF6F4E106CB01FFF7F602F5F3E70FE7EAF9FE0108E8ED040828EFF80D15E6E916150CF7F00AFD04ED12FE0709FDFAF0ED080BF000EDC1D5080E07FB101312F2
03F5F3E112D30AFFDFED0B00DFE115E5D902F8F818EFFD05041BF1071B15DEDD17FC0FF8FA050609DA0E060C0D0201F0F10403F9FEF0C0E6FA1104F10A1010FE
F006F9FA11D90612FEF30CF3E7F219F2DA21FAFD1BEBF1FAF40CEC1B1B03E8E015F10BFFFF0500F5EA0E0B29010718E5F808F0EAFAF9BEFFFFFEF4FBFB133010
E112DB09F9E1FD1A08FCF804E3FF0F00FB12FDFAF9F8FF0EFDE31515F7FEFBF4F5F0060700FB170BFEFBF30BF5FC22F10CF7F0FB02FEEB1404F0E0E405EF110D
F709E60EF4E5FF07F8F70005E30DEEEF010FFFFFEFF40F1BF6E91401E9171304F1F1F403FCFB1F190002F2FAFDFF1002FDEDE7FE090904110CFBEAE30DE0FEFC
F5FFEF10EB00050BFC06F700FDF7F7F6FDF10104F1050E0C0EF30502F606FCF9040814F5F3F21304000BF2EBF9FC08F905F105FBFBE9FF150AF80CF6110AF10D
06FD0606FE070500FA01FCFC0000FD05F8FCF5FFF5FEFE08F9FB0004FE04010302FDFC0800FD060004FDF5FCFCFFFFFD06040004FCFE0107FA0505FC05FC0404
06F7FE04F5100E011012F7F9030BFC01F8FB0606F8FE060306FB08F508FCF1F70B0CFCFAF2FB07F6FFFFF901FB05F7FD0AF803F605FA0BFA020903FA0C0C01F6
0EF4EC15F21017120E13F2FBF716FEEEF0EB1405EB040B150EF319E10FEAE7E10910FDF4E8ED15F2F80DE8EFF3FB01F40DEB19EE11F10FF9F1FE01EE1016F9FB
0CF2FAF5F50D05010813040EEF09FBE9F5F70400EF11100E0FF30900050A0F05FD0206F808EDF70B0806EFECF403F5F0F1FE08F809F0F0030403FFF9100E04F4
11C7EEEEDCE4FEF801020315FAF7F7F6FAEFFD01FF070B0A040B00EAEF0EFB0DF80905EEF9080610E7FFF5F1E902C6F8CE07170A05FFF8FD0D1208F21803ECD9
06BD05EBF5DF140504F7FE07EBFE0401F6FD0B030BF8F706F80B04F70409FCFEFC02FEFBFB15F514E306FF05E902C009D00C15130C03FBE80D0203FF1107F8DF
08C404E4FEE521F50DFCFEFFF4F503060CF709FE17F3EF0BFE0BFDF20CFFE9ED0507F9F7FB0EED0AE20BFF06F205BA0CC70304170C0AFCE4120400050B20F7DF
0FD6F4EFFAE819F8030A060DFBFE090C17F501FD12F1F6090408FEEC0910F1FEFF05F7010012E415E7060202F704CC12C906F91A1008FEFB1CFDFF010510F8DA
FEECFBF103E414FBFE0AFF0604F8110B08F7050304FEF50A000C00F50609F6FB0305F8050712E416EA0A05FE0001D20CC608FB191402F8FB10FDF8080518F5E6
F5EF04EB08E221FD0004FF090B020E0707010BFA0AFDFE00FC0CFBF605FEFDF2FFF9F8FE0416E813E8070C0B0500E60DC809ED0E0E0CF6F408F9F40FF81FFFEC
F5F3FFF20DED19F4F600070D18040A0C070809FC13F3F401F10CFDF10B03F4FFF509F7FFF121D815FDFC070B00FBEF19D505EA0A0F13F8F004F3010AF621FBE8
F2F804F414F20DF3E5FD07091D07081D110E13FD11FEF8EFF605EBFF0605FAFFF20AEB0DF21EDE15F9EA0F190CF90314E0FEE60C1011E6F208E4FD0EE91011F7
F9050DF71CFDFEE3CAF70C04100F072412160A0614FEFAF1EC00E6100108070CF806FA13FF0BCF0D0FE60E1128030D1CE2FDDFF70E17D9F4FDE50810EC07160C
FF11160011F6E5EECD02150CFE000414151800FB070E04F5FFF6E619F8030C0BE909171815FCE40A14F30E0024FC1513F504E3EC0402DE0FFADB0A16F9FE161E
FF15081016F9E8F0E718040BF8FD070A0F07FBFD0319120B11FCFA11F5FD10FFE509201217F7000812040DF416F90509000302F8F9F9E51A03D7021D0EFD0D1C
F60C110411FEF2FEEF21FD1104F8050212F802FF012110FB1802F304FBF209F9DCFA1B0D1006030204FF04F816FDFC05020E12FCE9F8E71815D1FC170BFD0205
FEFE1800FFF9F7FDFF1BED0B12FA040C0DFC0D00FA1C08F61810EA00ECF201F2DE0013090E020503FAFB04F709FA020EFB0522F4EFF1F1170ED0031105FDED04
FF0007F8F409F5F40522F2FF1906FF0A130105FCFA2003F4100AEFFAE8F1FE00ECF90302060506FEFE0008F80E04F508FD031DFDF4F8F8190ED604050BF4FCF2
05FE04F5F906F8F6FE17FBFF1E0FFA03040506FD051EFFFB1313EEFCFFF7FD14FD08FFFF0F0FFAFE0A051602FD03FB02F40420FCFDFEF61113E00AF409FDFCFB
01FBF7EE000DF6F2F40CFC071D07FFFA030705000D0806FC040FFBF70402021BFD020601140DF70C0802040500F9F607EB0F1EF9F40AECF7120310F5030304FE
03FAF2DE0E04F302EE0DFC080BFC07F1FEFB040308FC08FC090FFEFC020AF813010AFA00FD08FD100CFFFA07F6040802EA062101ED06EFEB180B030012020800
03F6E6DE05FA01FFF902FE0205F405F4F1FBFBFF0CF1F5FF131FF6F4070AF208080CFDFEF011FE040007FCFEF8FF0703F60220F7F804E5DF0D0C0D0D0E040901
FCECECE70AE60303EEF505F3F4EF16FCEF06FBFF0EE8DFFF0921E7F7100EEFF7131103FDED14010BFA06FC14F507FCFBF10901FAF8FBD3E0001607FC05030FF0
F5F0F7EAFEEA17FAEFE909EEDEED1208E909F3031BECDEF5F80EF00D2003DDE50F080807E20902FFFA060519FA0206F8EF03F6F2FF00C3E3F20910F6F51A1100
EF05F4F9FCEF1010F9E503DDE5F80D08EE16F6FE04E9E1FCE808F61516F3E0EA1C0E0B0EE4FA07F102080111EC011AF2FEF8F0F8FDF5C303EE0610EBF20D1B16
E80BE609F6EAF81306F2F3EFE5060A08FE0BF703E9FFF2F802F70B0C02F4F5F110030707F3F319F900FAF60BF0021BE71009FCECFCFCDD0E0CF9EEE7F9F4101C
EB0CE31CE9F9F02901F5F3F4DD140C03070FF901E2FEF8FA14EF0E0DE50E0F05050C021405EC2702FFF8EDF9F8FB1AEF0306F0E9F303010C0AF6F3F2FFE71119
F403FC08FAF7F40FFA0205F8F90110050B0DF2FDF00DFBF712FCFB04F10E0CFF09090D1005F311FE0900F8FF01FE0E04050FF6F8FBFFFE0EFF0906FC01F51107
FD03F50005060C000501070EF70C0309020D090405F30A06FBFD01060E0E030BFFF9FD0AF708FA070A00F108F605FF0403FCF10A080C08F6FCF2F4FFFAF70800
080101FDFAF603050307F809FD0BFB01FDF90A010409090503FC06FC02F407FCF60200FAFDFFFD01FC07FE010905050211FE0B040AFF00FF00F503FB080700FD
0CF9FE03010A250D1911EDEFF61EFCF8F1E61E00EEFB14140AE913EB0DE5EBE00510F6F9E9F30AEAEF0BEB00FEFFFDEE0DEA1BFB12E614F6F9EEF1F6081304FB
01F705F805FF03EF0512F306EF01090B09F8F905F117060911F40702ECF80B03FA030A0B05FFFD080CFCF6F4FF05F3F0E60A050310FAF3110F05F9FF0D08FBF5
10EAFBFEE4E8FEE8FC06F502F300FF0714F10403FEF904090412FEE8F50CEF0F0905E9FAF714F408E9FC04F8F1FCDFFBD6060A15FA0EEF001D18FF0806F2EFDE
08D8F9F2F4D510F903FBF702F7F7020FFDFD0E0109ECFD0BF80AFFEE0706E7EE0EFFE902EF14D708E70E0506EFFCE004D70A0C1E1205EADC100CFE0A0513F7E3
0AE5F9F6FDF110EF03F4F6FBF6F70C1110F6FAFB10EDF004F910FCF60901EDF8140AFF090116DB03ED0901FBEA00EA05C90B01180E0CF2F21504FD030714F1EA
0FF0F5F3F3F308E2F702F9FA00F5090F19FE03FE0CF3EA06FB16EFF20B04EB021909F101FA0EDC0CEF0A0B03F6FCF30FCD07F61D0910F0FB110CF6030114EFE2
06FC040001F717EAEB09F90606F6100B11FC01FB06F1F403F813F4F603FEEEF01306F8080212DC10ED0B0307FF04F715CF0BFA170303F2FC0BFEFD010219EDEF
FCFE090100F311E0DF0EFB020FF510100B0001FC0CF3F8FEEA0FF7F70BFCF3F50101F409F20ED408F7FE0110FEFE001EDE0DF11A0804F1F205EF0303F921F0F5
F0F5FBFD01F800E6E007031018FD12150A0E08FC13F0F202F004F9F611FEECFCF80BF201EF10D418FBF7071502FC0811EC06F413FC0DEEEBFEE00F0AF81602F7
F00508F90FF9E9EAD10B060A14FE131D0B170B0116FDF3F4F00AE8031A02E8F9FB04FD0AFD18D118FEEF09160F010E0EF614F8030215E4FA09E30C00F1FE0C07
F80E0D050AFBE7EBD8070B06FD040E1B0D1D0501130DF4F0FB03E1120000F902F505041303FDD30708EA0F1222FE1D1D0110F704000EDD0104E9020AF4F41417
F4180A0E0900E1FFE9140B07F7010B131117F8030A0F02000DFAED1503020503E80C171C13FEEC0D09FB0D01180217100710F900F400E31301E90A0D00F01A1B
F71A080D1A01EC01FE16FF0BEE0310000B08FBFDFF1515021800FD15FCFC0BFDE101202014F9FF0312FF00FD1702131A08111203E9F9F31102E5051D09010518
F40A0E021407F4FCFD22FA06FF000B0F13FA0700F81809FC1700F210F5F602F8E60B171211F70106020200FA13FA01200215180BE0F4F70A01DEFD170201F807
EF0310070308F2F90122EF0918F5091921FE0301FB1801F31807F300EFF605FEE8030E0E070901FE04F5FFFA0C00021301161A0AE6FFF4100DD3FC1207F0F6F8
FEF70002F3FAF2020020F50D1C04F91717001506FB1805F51313F8F1F4F1FB07F6FC06FC0A110C02FD010F010BFD0305FD0B1C0BF608F60E1FCFFE020BF8F5F3
10FCEEF4EF08FAFC040CF2102A08F90614050EFF0906FEFD0818FDF8FFFBF208F7120204FC10010C12000E04FB02FD04F3081A05F9FFF10213E40CF70200F2F7
0BFEEFE6F5FBFEFE000DF20B250704FC04FE100209F804FE031701FA0802F1050116FFFDF103F80B100603FBF1FA06FCF3FD20FFF6FFF2F4120108F70A08F5FD
0EFEE7DCF60702FEEB02F5FB0AFD06FCFEFE03FF01F100F9FD1403FA080AF503081BFD01E8FF0002110AFBF3F1FF0CF7F4FB1301F705EEEB0C1511FB0106FC00
08FCEDD8FD080503ECF803F6EDFBFDF8F2FFFD0307ECEF00FC1601F9070CED010B120301EAFB05000E0D03FBF7030DFEFBFA03FA04F8EBE5FE151700FE06FBFF
04F2EFF5F9F11611EFF507F2EF010004F6FDFDF80AE8DF01F30D01F60C04EAF00E1D0205DF1204FE00FF0108F7FC0702F6F801050CF8ECE3F60A1102F70C0001
FEEFEEF2FAFD2C06EDF0FEEAE3070111F801FC010AEFDFFBF400FD031A02E7F206140109D704F901FE07F60AF10305F8F3EDF5040CFDDAF0EA0913F6F71505FB
03F3F1FBF7FF18FFF7E707E2E3120410060EF4FC09F3E5FFEDF7050F1A09EFF80D14FD06E301FCF4020AF40FEEFF0FF603F0ED0408FECFFAF1090BE9ED0F1703
F208F1F9EBFCEC0D00FAF7EBEB071414120FF5FCF605EDF90801FC0D0801F2FC160E070BEFF20CF207F1F002F00214E21015FFE9EDFFED05FDF306E5F5EF1216
F00EEB1ADF07E71E0AF4EFE0E1101A0E251CE2FCE716F3F819F10E1FE8160D13161A101D0AE424F912FCE9E4F3FD15EB0F21E4E3F2F70419F70DFEE206E1191E
F804F310EF0DF310FC01FFF2F9FB15131307F000F6FEF4FD12FE0409ED0F08FF0D0B001310F80CFD0BFBF4F8FFFF08F80C09FAFBF200060C040C06FAF5F01708
F506F9FE01070C030603020A00080205FC02060108F81004FEFF06060C060800FBF9F506F209FF0A0506F306F1FAFB03FDFCF507030613F8FEFAFCFBF5FBFFFB
090D08FFFBFA0802FA08F6FF0B02FBF906FE05FD04040502F8FB0307F9F50C04F90204F2F4FFF506F5080DFD04FF0D0E04FA07FF07FEFC09FAF306040500F9FD
F7FD1EFF08F51CFA0706DCE2081C0310ECFE19FEE5F9FEE9ECE8F30213E006E10EEFF30FF7FCFAECFE0C030F1105FC0E0B010B0E11FF02FCFAE7EB0AEE1A0607
F7FD0706FEFE03FB1500EFF8F603110D0AFA0900F20AF7040CFCFDFDF7F104080501FE0A0CFBF3FA0FF2FD06F402FBF3E9100D040506F009040AF4FBF90D0500
15FC00FBE6E6F5EFFC01F6F9F30503121DFFFCFE02FA000A0A0602F0FB05ED1406F7F300FE01EBF6F50910FEFAFBF8F6E80CFC0E010EE0F60F0F0209FCF9F9F4
0FFEF002EAEF09E8F9E8F6F4EBFF03161604FBFE02EAFD0DEA0C04F50204DBF91206F604FD05D8EBF81408F9F4FC05F3DB0DFE0D1404E0EA05160300FD0AF0FD
0712EBF9F7F80BE4FCE9EFFFF8FA0C1012FF000304E4040CEB0808FA0701E4FE0C07FF0EFE0ADAF6F908FEF9E60617F1E31005120BFEDFF70B06F7FFF90BF002
0705FAFBF7F809DAE7F1F6FC06FB090D14FC00F909ECFBFEF012F6F80B00E5F61F07FD05FB0CD5FCEE070C01EBFF07FBE907F11EFE09E3F70A02FD08F512EAF2
030501FDFB0506D1D102FBFC0CF20C0812F7FCFB0BEBF007E61BF7F40CFDE8F119FEF007FA16E308EE070707EAFA1206EC0CFC24F40EE8F90CFFFBFFF814F4F7
FB010703F8F601E0CC1100050DF10A120A0805000EF0F407EB11F9FA0E00EAF30CFCF905FD08E50FEE06FD0DF5FC0D11FB05F828F209E5FD0DEA0BFEF41603FC
F8FB0106FDFCF2E2C51506081BEE160C0D0EFEFC16F0EE08E90FFEFA1802EAF20606F1FEF503E610F6FE0917F60214160609FD27EF09E7FA04F012F6FB020600
ED0401070101E2EFCC100F0C0EF118101315FC001503EFFCFE06F7070BFEF2ECFD09FE04F70AED05FEEF081707001915080D0125EB0FE9F601EE1701F2F51A12
F208070606FAE302E90D0F0CF3FA10100F1DFB061208F2F608FEEC1C0800FFF8F2030B190B00F810FEF3070C1EFB16200D150619F208F0F909F10F08F6E91B1A
EC14130D0FFBDF0D00130B00DFFA110D0217FAFD0014FEFF13F7F127FD080F01F7FF1E1D12F5040407F8080D1D011721181D0C05EDFAEB07FFF40A1302EE122C
E819111021FCEA090D12FD03E4F71A030A08F9FBF51407F413FBF21AFDF91AFBEC05231F14EF050705FDFB030F0414200B160D0AE000EB0D00ED0213FC0B081E
EF0E0C081004F2030913EF0906F811102201FF03F60F06F91B10F210F9F502F6ED1211170AF70908FAF700060500071A051A1604E6FCF0100BE0F30C05FCEC0F
EE03050400FEF603011AF30B1BFB082328FDFA07FF0DFAF5110CF5FFF2F203F7F309031C03080900FEFCFFFB0EFAFF1000120D0DF000F80615D5FE15FFF8EBFA
02F8F0F5F0FDED010713F10D260503181D0107FCFB05FDFF0D1BFEF4FFF6EB08FC120507F70E060904F3090509FDFD05FC041A09FA06F80C17D402FC03F7F7EF
0DF6E8E1F503FAFF0306F70F2305FD0A12FE08040AFC0601FB1007FC06FBFC0503120308EC03030A16FE07FCF8F900FDFBFD16010305EFF90CF308F002FAFBF8
0BFAF2D2F00000FAF7FFF304180A020308FD02FD02FD06F8F915FDFF09FCF30A0B1F0E05E900FE030EFE0FF5F5040AFAFD001200FAFEF2EFFE080DFBFE01EF05
0EF8F4C7F50008F6F3F7FDFDFF09F9FEFF0007FC0CFF00F8EC1201F80A03F206111E0900DDFA01F6110A10F8F6FB02EDF3EE0FFEFFFBEEEEF81110F50104F8F6
0FFEECD8F1020BFCECFDF9F2E505F805F7F5050202F6EDFBE604000208FDF1FF0C2304FFD8F806FD08FCFFF6ECFF0EFBFBF30C0005F6F5EFF50C11FEF806F405
0B01F7E6F0EB110CEBF9F1F7E610F509F8FC14040900DEFAF313FEF90DF4F1FB0E200102DF07FA06FC000604F2FB0E01F0F1020B05FAF100FF0606030211F900
0EF3FBF4F1FA1F01FFF0FCF7F111F713040B0DFF07FFDF03F6F305FE19F8F002FF0FF603D504FB060004010EF4011100F7E7E9090EFAECFDF8010901F60AFE06
07F9EEF7EE131CFFFFE803DFD810FF19011BFAFC01F1E509F0E7F8141909F80B060EF60BE2F100FA0D0D000FF0FB12F405EBE1F309F9E8FCDF0D13EBF4FD1410
EC01F9FAEB0DEEF7F2EC00EDE602281E0C16E7FE06FDEAF2F4F5F6160BFB08FD0C0E0318FAFD00F615EFED0FF3FB08E40313F2E6EDFF0001F0FA0AE8EEED210E
F109F214EB0CE90EFEF6E7E5F911120C290EF9FEE70CEBF5FD000105E809160F1A05F41703F317FB0BE7F6F8FAFC1BF9132100F9ED100D150B1CF4FBF9E50410
EF09F417F305F809FFFBEBEDE9FC17161016F3FAF30DFBF20A02FA0CF102050E0815070F05F80EF50CF2ECEBF70312F40611F7FBFBFE0812FD0809FDF6EC0D16
0D02FDFBF6FB07040B08FCF8060801FEFAF30B01F508FEFF0D0B02F3FCFBFAF9FE0500FCFCFB06F40204FBF6F3FAFDF6FF0506F702F4030D08FD05FB0B0EFE05
050A06FF0AF8FE03FA07F900FB06F5F5F7010B030B0C0DF600F7FB09F4F60D09F6000EFDFCFEFCFFFB020BF40A050E070BF4100001F9F70AF9F904080C040003
0F0D15F204F704F7FBFFE5EAFB05FCFAEEFF0EFFFB1801E5FDEFF312F6E415040AFC0FFF0CF201EFF90810F80D03120716FB08FF09EDF818F0F5F5FFFC0B0113
FA0DFA05F90203F809FAF7F4E80406100B10FA02FD0A00F704EEF310F5FA111AFAFB061417F7F7FE08FD0903F7020CF0FF1006FE0C06F207FC07F1F5E803FC01
1307F0FDE5EEF5E5F8F7F6F0FB08FA051C000402FC050B03F8FDF800FE06F7190A04FF030EF1E6E5090D0EECF90510E8EF0605F20FFEDAFAFC0CFFFD0000EFFD
0D12E201E7EC02D6E4F0F4F0F4FBFA1522FBFA0104E40A0BF108FCFB01FFEBFC1507FD0BF803DDE2051201F9F10114D9F905F9FE0705D9EEFE1206FCF106EC04
FF15EE07E9EF05DCEFDFF8F9FCF004101EF800FF03E20F0EE806FAFA03FBE4F80F10FE080307E6F6F909FFFBF3FF1BDBFF0A040FF507DEF60C0BF8FDFC0FEB0A
080DFA06EFF909D5D0EBF4FC01F0FE0F20F10B0200F3FAFFEC1CFEF007F4DAF3190DF609F505E5EDF1050209DFFC16DDFA05FF0BEEFCE1F7120400FAFA0FF309
09FE0C00F2FE02CDB6F3F00610F306001AF707FB0BF4F90AF722FDEE0BF8E4F00E08FC04F40FEAFEE5080311E5FE16E5FF03F719EF07E60111020CFD0511F801
FC141003F1FDFDD8B7FFF4FF0CE90D090D03FC0102F9EF09FA0F05070EF5EEE9120D00FBFFF9FAF3ED0B030EEAFD23F70C05F624E905F40B01F911FD000B0B14
FA0B0506F705EFECBC0706040BED1703170EF0021306EE040015FD120AFFE8EC0F0704FC02F9FB00ECFE0809F7F911020B12FB26E404FB0BFBFC20EF03F41B0F
F80A06060110E401DD0617020BE6160E151CF7FC1B07E9030608F9161004F0F0040A070AFFFEFCFDF6F3061103FC111108180220E604F6FFFBFE1EF3F6EB1E15
F009070E0C01D81102070B09EDFB140B131BFD04070FF6FB1106F317000301FEFC03070E0A010608F7EA030D0CFE1A16191F0C22F104F5FE0A010EFBF9E3201D
F01804131302DB16101102FBD8FE0C01060BF9FBF70EF8F20DF9F020FDFC15FCFEFB1D1916FC060B08F8FD0409FE171211201316E9FBFC050100031201F80C25
F11210181607F4150E0CF0FCEEF8130B1105F6FCF61107EB1707F01C02F810EDF809151D11F803FF04FBFB0811FF0D15081B1203EEFCF70A03E5FC10FB15F61E
F0FAFDFF14F8FA0D0912EA0A19000F121F04FFFCF80701ED140AF40400F807F3F512FC1903FF0708FFF8FC090CFA0908FC0B1910F90BFAFF0AD9FB08FB09ED01
EAFDFA02F7F9F2070117ED0624F8121D200206FDFB0C00F51316FCFEFCF800FCFE13021506140709FDFB020605020704FA130D0BF808FE0914E2000908FBEF00
0BF7E8E6F5F3E604FF0CF70D2204061F1E03080306050701081308F409F9F6090D16FA0CF915050F0FF4040802F907FBFD0B120F0110FBFA17ECFBF200F2FAF5
0BFDF4D2FAFDF90AFBF1ED09210B020B0A0608FE0EF704FCF10AFEFE03F0F90D141C0204EA05F30113F70FFF04000CFFF8FE11070904EEF4070B06F5F8F9F6FD
090400CAF80AFDFE00EFF8001008020E00040D0104F8FAF1E4FDF9FE01F8FC020D220406E706F9FC08F90EFFF1FC00F2FDF70B000505F6EAED1408F4FBFCF100
0B02FAD8EB04FEF2F6EEF1FFF50EFF0A010207FB0CFDF6EBE205FBFA0AFEF0000E1DF601E10200F50FF10DFDF10405EEF2F400FB02FEF4FBF21009FDFA00F6FD
FDFEF9F2F1FE07F3F8F5F1EFE10E041C0C0000FBFF02E7ECE702FA0303FEF3061328F20AE6F4050014F5FDFFE6FC0BF2F7F9FA01FB0603FEFA0612FAF203FC0A
0804FCF7F3FA10FCFDE5EFF4E205000E070BFFF809FFD6F5E5FBF80604F9F6030712FA0CE101F906FFF20608E8040FFEFAF9F40600FDF900FB040BFFFD0BF60C
0A00F6FFEBF810030AE3FCEFE811FB130E1001010B04DEFDF1F6F10712FF0004FF06F80DEE01F6FC06F90C08F5FB0E02EEF5E708FDFFF908FBF6FFFDF606020E
0205F9F9E51015EF00DFFAE7D415FC0BF916FEFAF908E5FCF5E1EF1906FA0705FE060406EEF603F91503FEFE02FB15FCFEF3E0FBFFF5F409E4FE0EF3EC01041A
D90F000DF11EDCF807E30AE9DEF52B2B1318E1FAF3F2E4EFEEEEEE1C05F618091311032603010EEE1DE5E715F4FF0BE40021EBECDF031204EA030AF1E1E43D19
E808F015E314E10D0AF4F3E7ECFE1212180EE9FCE802ECFD07F71009E30F13131D15061109F41AF20FEDF1F6FDFC13EE0820F9EEE2011512F71401F1F5DE2113
EB12F01BEE09F00D08FFF5F4F3070A050E1AEBFAEA09FBFA0BFF040FF3020B170B1307120BF50CFD1301EFF4FB0116F31012F9F9F0040517F00B04F1F2ED0613
02FB04FC0201FCFF03FFFD0105040104030303FD00FB0500FCFEFEFB00FBFC0403FD06FCFFFBFBFDFEFFFE02FDFC02FF0400FFFC03FC0102FF0105FE060201FD
09090CFDF6F502FEF511F7FCFE06F4F3F8ED1003000F0CFCFAF5FE0BF8FA1304FBF608F0F8FAFEF7FB0C0EF10CFF14110DF00E0204F7FA0EF5F50A060007FF06
000808F2F9F309FF0101EBF00609FE04FE000702F615F2E40400EC0BF2E909F50AF705030B00FFFC05FA08010DFF16010F0B140CFA01F20CFA01F2FDF112F710
0511EDFCFAFB04F9FAF4F4F6E40D01030615FDFDFF0500FAFADFF51AEFFB1D26F9F3130D0EF7F8FB120A09F005FD0E00080505F10EF9FB05F3F6F4F5E805F00F
0F10ED00E3F4F4F0F0E8F0F3F717F5070F080903F9FA0307E1EFF60AFFFA0C1C09FCFE0A0CEEDEED03090CF7FF0013E7030702EC0905E200F604ECF4ED02F60C
0D13E307E9EBFBE2DFEBFEFF0005FC12160CFD0101E9040BDFF907000004F9090AFFFD090101E1E6090803FFF0FC14DB0004F4FF060AE2F0FE05F6F2F402F7FE
FB0EE90FEBF3FADCCADFFC01FDFEFF1A1C0502FE04E50D0AE5FAFDF8060AF307FE030414FD0DEEF3080D0101EF0312D0F90BF108FD11ECEA0304F1EFF1F9EE01
0B02FD0AE3F602D7B8DAF7FEFFF3FF1322FC01030FF20704EF0D05F605FAEA0011FDFF06FC02FEEFFE040702EEFD13CDFC0DFC0EFB10F5F80A0DF3FDFA02F50C
FF110D0EEC01FCDEA9DDFF0107EF07041A01FB040C01FF10FD1E00F80EF7E6F51303FF0CFE0001F1FC00040DE2FC16C40609FC05E9080406090C03F607010308
FC100B0FF8F4F8EFB8E3FEFD12E80F0C1D0BFF041101F711FF1309FB0F05E4F81404F9FC060209F8EE04040ADFFF15D10605EE0FE60400050E0F1AF803F91307
FD08FF120403F8FCCAEC100514EF0C0B1F12F4F90EFDF3090C14FB0A1305E9F50C04FFFB05FF0DF2EBFFFE05EC010BDF080FF619E9FEF808FF1429F7FFF42A13
FA0B051C0701E71100F70BFEF9F309092114F8010E0AF2001005FB0C0E07F7EE0D0809F4FCFC0BFAECF7FF0FEBFB07E90516FE17F30204FAFF0B1DF701EA2911
FF04F9161303D61E1706F907E4F50AF7190AFCF90608F2FC0C0BEC10020707FB05FC10FE02FA0F0AF2F1040BFBF912ED0E190B11ECFCFA04120008060AEE161A
F303001D15F7E4161C0CE8F9E9FD0AF819FE02FBFC0CFFFD1203F413F3F511FC04FE0E0704FF090804F6000703FD09F00F150810EEFC04070EFC0B100409011C
EEFCFF1A1B02FC0B160AECFD0FF70C0D14F8FF04F1F909F01108FC01F5FC0BF1F30E0111FDFE0AFD03FFF00306FB04FA070E1207F504FF0110E402120918EF0D
F1F9F20702F8F5090103F40625010E0F1CFB00FEF3F70AF9081302FBFAFB03F8FF190008F80A0707FCF5F30902050107FB0C0B0F001102FF0CE403000304F000
FC01F8F5FDECECFD08FFF20D18020C22130F07F90D04FFFCFC0FFEF90A01020BF918FB130010F80C0AFD050813FC06FCFB0908090312FFFF12EE03F4FFFFFA00
09FCF2DDF1F2F1F803EEF910180C04150E0707FD0AFF09FFEC090BFD04FDFB08101A010AEF12EF0D11F41202100009FDF6050F08131208FB020B09EDF8FBF900
07F9F4D0F900FE0103EBED051802041908FB070304EF0BF7ECFC0301FCF8030C1A20FD0BE709EFFB0CF4090101FB02FEFDFC0504030702EFFF100BEFFDFBFB04
0DFC04DFF9FFF6FB03DFFA02F809040FFE0204FA0CF7FDF5E902FE0203F6040613180806E906EEF50BF70701F1FF08F301EFFCF6FE05F3F5F21303ECFBF8FD07
01FAFBEDFE04FFF8FCF0F9FCE30A011000080C0307F5F2F4EC05020006FBF704061DF40EE203F9FF06F80405EBFEF7F3F8F8FB00FC06F6F9F30504F8FA06FBFA
0404FAFEF1FD09EEECF2F9F7E20A0411060209FB00F7E8F3EEFBF80707FAFD08071AF80DEBF600010FED020BE8FE00FDF4FAF3F8FCFFFFFDFC0B08F5FB0AFE08
06FDFDFFEFFE0FF5F6E7F8EFE107FE09010A070107FDD8FBE700FA0609FAFD050412FB06F0F6F6F502F60706EC0400F8FAF3EDFA05FDF6FDF70C0BF7F611F908
0B09F208EEF310F707F2F9F6E6100409000F07FE0605DDFEEBEDF20B13FD0006F6FD020CF7F8F6040103040CFB010500F3F4E5F8FCFCFC03ECF201EEF902F80C
010CF009EE0807FE15EBFEEFDC0C04F8EB030001FDFDE906FAF5FB0D0A070705FE0B0108FDF8FC010E0AEF0DF1FC10F4FAFAE6F1F5F4FD02F4F8FFF2FF010710
E00CE621E425E20C1900F0E3E9F01A17FD00E305E9ECE70603F1040CF6F909062629011B040917E318F5D5EFF70309E20A08F7E4E6F01E0CE5151FF1F3EF1B18
FA12EA15E913E2181007EEF0F00806FB0604FBFCE40401050BFE0805EE01070F1817060604F119F70BFCEBEE03FC0FF01106FDF7EEFA1A14FE0AFFFB06EE0912
F911F81CEF12F80E00FDFAEAF21009070C1BEE04FE06FB0504F8001AFB0A1D191110FD040DEC11F10F00F7FBFD0502F70804F1F802F60C18EF0C08F902F7090F
06FAED0CF5030A04030B0110F507FEF3F6F00C01F307130D0CF50CF20705F703051107FBF5F90D040105F2F8F4FBF8F6F9FE06F804FB0212FCFA0FFA0F07FCFE
0A0B11F8FEF5FEF9F80AFAF6F407F5FAF9FC0CFFF207FD03FDFDFE0BF5FB030102FB0FFE02FFFAF8FD0203F709FA080311FE05020AF5FA12F8F60102FD09FD11
0C0B09FAEEF80BFDFA0BE701FF10FBF2F9F509FCF91A00F901FAF7FFF2E301F5FC03FDFC000001FCFA0304FDFF060C0413FD140B09F3FB0AFFFCFAF5F80FFD06
0E1CFD00F2FE06F908FFE9EDEE0CFB020E0F0301F611F6E8F3E8F80EE2E81E1CFFF8161013FAF4F50EF80AEA0102250A180B12F70CF8F408EAF6E9F3E3F6F311
040FE704E906F8E8F0E4EDF1FD1BFD140E150B0401F8FEF2DBF0FA02F3FD11150002FB1007FBEFE8120004FEF8FF11F00F0306EC081004FDEB0CE8EEDEF4F504
091BE60DE0F6F5E4D9E3F6FDFC14FB1C1412090307EFFFFEDBF8FD06FD03071901F9000E09FEEBFD11FF090EFDFA15DF110EFBF40018F2F9F4F9DEEDE0F7EE04
0514E80DEEF6FBE5CADAFD0DFD0905181319FD0014F90CF8E700FFFA0709020EFEF9070A0507F7F80F030B12FE030FE2FD15F5F5031DFCF6FA06D9E9F5EEFE01
FF0BFA17EBFD01E6BCD8FE07F9F60B170E0FFE010FF20601EE0A04FB0008F8030BFAFB0BFD0600F806000411F2FC14D0080EF7EDFD0F00F5FB15EBF4F8F10602
0302051CF2FDFEF1C0CF020306F40108110205F90CF5060F030CFCF80703F4F910FCFF01FF0007EE090D0209F00108C20B0AEDF0FD080100FE15F9F6FCF4080A
0409071A04F0FC03DDD8000707F2030E110DFFF80EF6FC0B031201FF0B05F3F614F701FC06F8FFEDFD0CFD10ED000EC00909E7F4F305FF04FF0F0DF708FD1C04
040902220DEEF311F8DF0F09FDF8FF09150DF7FF1BFF02060D07F7020603F0020FF600F302F401F3F7FE010FEB0302CF0D00EDF5F903F8FA031210F309EF2202
0703FE1610EDEB1F21F40700F6F9FF05100AFCF90DFF02080D02F9000704F40004FB00F6FBF802F8F8F8020CEAFDF8D90B0AF804F505F8F7FF0B07FDFEE81BFE
01F301241AF6D61C2AFFF6FDE2FA0B070810FEFD08FFFFFB07FCEF0C04FAF6F906F90605F70408F701F90211F40401D609120003ED0201F6FB08FF10FCFB0B0D
F4F3062014FAE71B2600EBFAEDFD10080E0207FAFBFA00FD0D05F901F9FB06F801020B0E000C07FF0AFAFE04FBFA02DC0F110CF9F80801FE03F6030FFD15F901
F7F5FF1812F7FE0C18FEF0011EFB081515F8FF01FCF3070005040504F6FE05FCF20DFF09FC1007F80507F607FEFC03F505100F00000606F80DF113100713EBFF
FC01F7FA00FE010205F8F20221FC0218150903FAFE000CEFF50606FE0302FF0AF31204010007FEFA0F02FC040C0507000108110A061001FD01EE0EF90309EEFE
060502E9FCFEFBF700F2F50315080827120907FB07FDFFF5F207FA090EFA0C080B1703100408F0020FF7110A13F908000002090C0B0AFDF8FB02FEEDF805F308
0404FFE2F600FCF8FDE6050A0C05FE16FF06FE0201010DF9E4FD050403F9060A12190511FF02F4FE10F70AFA08FC09FE03FE02030BFF05FAFD1910DFFFFCF910
060808E5070203F707DBF501FF060615FDF9FDFB00F90FF2E302FF0B00F9FD031C1D020DFCFFF8F611FA00FEFB0002F800FDFEFAFCFDFEFAF31B0DEFFB03FD0D
080204F9050704F705DFF406F407FF0D030300FAFFFCFAF4E6FB0308FCFC020D0E1B0203FE06EEFF01F9FFF8EB0109F706FBF3F4F7FC0101F10E07EA00FBF508
FD0006FDFA060DF3F1E6F8FCE302000904030403FCF9F304F10205FEFCF706060510FE06F602F5FEFBF40104E1FDF9F704F8EC00F7040006FB0E01F40006FE03
02020306F7FF10EFE4ECF2EEE301010D0AFF0904FCF8E4FDF6FF0006FEF800040B0BF60EF6F400FC02F70507E3FA0405FAF8F3F4FBFE0301F90B07EAFB10F9FD
0B100516E9F612F1F6E8FEEADE0B02FFFF0D00FFFEFED905F0F403080AFE080A0B07FC0403EF06FBFE0204FDE80403F9FBFBE8ECFCF9FB11ED0410DFFF01F70E
FF0BF811E6F6FDF000E9FEEDDC0A060B0016FDFC01FCD900E2F1FA0E0D0A0607FC03011006FA03010102FB0DF0FA08F8F801DBF4F103FF0CEAF902E2F9F80313
F314EA1CE80CF7FA0CE909F0ECFF120B0208F5FBF6EDDC00EDE9EC07060E0D04FF03F308020004060CFDE80DF7050CF6FD01E9F3EB010BFFEDF2F8E6F9F91713
DD1DF418F114EC0207EDEDE1E8EE180B04F8D8FCDEE8F408F0ECF520F5010AFC1C1A0C1E05F111E023F5CDE6FD0011F20D0CF4E9EEEC170EE6191DF0F6012023
FF0CF610F806EA03060FDFF3FAFFFDF902F30201E2F9050BFEF60400EFF800081315040801F8120506FFE3F000FD07F00E01FBF6FAF70F0EF905020502FF0312
EB14FF16FB0BF5F8FF0DEAED08FC08180D05F900E7F50210F5FA0B0EF2040D040511101108FA0FF40FFFF4ED0D010603090DFAF4FAF30914F80D0C0807F21110
FAF50C040BFA05FFFE0504FB04FC01FC01FEF2FFF8F3FF0BFDF2FD0EF70804FD05FF070104FCFF05080AF9FD0800F303FCF8FC0203FEFE07FE03FF0B01090506
17FEF5F4F0FA13050603FCFCFD0EEAF0EFF015FCFD03130FFEF90BEE0B08F4FB0C0E01FEECEE0DF4F71100F9FAFBF7FBFFEF07F816F606FDEF0802F8170EFBFE
05F901FDF20E05FC031005F9F212FAF4F8FF06060C01090BF3EE02F304F1070DF404FCFCF7F3FBFB0D0F01F60005010501EA110C04F60CF9FC02FEF302F8F2FB
000C0E02EC0E07F10211F1E8F313F4050C0B0BFD0312F6E1E3EEF905F4F00C1304F6F901FE01FBE309F50BF2FDFB15160D0513F00C04FC04EB06E2F3D2DEF207
0314FDFFE109F0E6F7F6F2F90515030F0C1402FF0102F2F6D6F60104F9F40E110601F51001F700F016F609FB01FE0FFC12030EE9060D08F9F10CECF3DDE8E403
0617EC07D8FAFADED0EC02FEFC16FC1007231105120101F6DFFFFC0006010D18FFF1030A0BF9F0FB0CFB160B10FC14F40A06FDE80E17FFEFEDFFEBE2E1F2E805
0514F304EAF5FDEBCBE30603010C0210F91006FE15F405F7F202F9FC00091007FEED0212FF0202FF1400040CFC0010EB0207FEDF0C130DEEF804DFE9F0E9FBFE
FD11F910EDF6FBEFCCE201FCF6F60D0BF20AFBFE0BFDFDFDFA04FD01000C050812F50505FDF108F315000609F4FB0CDA0F0EF0D40B0F0DFCF510E9EAFAF20911
0005F414FEF90707DEDB0C04F7FF0702FD0EFF0112FC04010300FEFF0B0204050EF4FF0103F40AFD0C080912F00402DD0EFBF1D2090F0DFCF10BEDE9FEF51103
010A031D0AE70C08F6DA0903EDFE0107F604FEFE0BFA08000105F40A0AFFFD0013EA00FE00F100F50F03FF05F2FDFEDB0DF8E4D00D0302FDEE0AF8E9FEFB180E
0001051B11E3FE141DE90FFFE8F607050411FFFE0FFCFA0306FFEA020FFDF40611F508FEFDECFDEB0D030A06EB04FFE506FEEDD703FDFAFDEF18F9F1FFF81D05
03F2F71A16EEFC1923F706FDECF7030FFD04FC0010F3F70301FDEDFF0AFBF00814FE00FBEFF6F6EE13FAFE05F7FEF6E10405EFE10EFA00ECE917FF02F3F71901
00EDF32218FFF51E28FC01FBE6F80A0AFB07FA0010F0FD090604FE040C02FC0908020400EDFE03F21700FF03F5FDECD10BFEFBDF0E0307F6F0100408FC03FF00
FFF7FB1C0FFDF3151C01F1F300FC0805FC0804FAFAF6020D03FA070E02060304F4FF0509FB050BFB18060109F7F9FFDF1007FFF115040AFBFD030E060411F601
FEF8FB0809FE02111BFFFAFF21FC0C100802050003FD0BFEFC000002020207FEED0BFE04F70D09F31A02000D0302FCEB040911FC0B1005F6FDFD11040119E600
FE01FFF8040509030AF1FD0212020717FF0CFAFCFCF906EEF800021201040F03F50DFF0D040200F41BFC00070FFE08FE04010A06080DFDFAF5080DFDF70BF30E
030A04EEF60B0BF4F9EA070005FD0612FD02F804FBFD04F3F4FC021200031406070705120BFF04F613F9FFFD13FAFF01060706030903FBFFFC190AF1F508FC18
060B07F2FA07070200E30101F8FB060EFD05FF0004F911EDF4FC031205FF0E0410070A140AFDF9F513010AFE080104FDFC01FF080703FD02F71B03EBF906FC10
09050704060B09F700DC0DF7F7FA0012FB01F500FDFD05F1EFFC0509FD020B041001021003FCF30010FA05FB05FFFB05FF03FBFBF9040500FB1C0DF5F60BF50B
0A0A0C0CFF0207FBFDD90304EFFE0309050201040103F8F6F3FC0508FD0406FE08080B050300FCFD04F5FFF5E6FBFD021202EF00F6FBFA04F51401F50707FF08
FC00090EFF0E09F7F2E107FFE5FD0607FD0706FD05FDEEFFF2FF0206FD030B030300F60BFDFDFA0305F601FFDBFB03090005E8FAFA02FD0CF30BF9EEFB0502FE
FB0B0710F10C05E9E7EA0BF0DB050D060409FB010401DCFDF3F4F90901FD0EFC0BF5FA0C07F7EFF80EF40704E1FE0B050404E9F5F1FDF704F00DFDE3F2FDF707
F90CFC15E5FC0AE8EDF10BF1E0020C0A0714F1F8FC02DB04F4F1021B050C09F80804070F0FECF8F909FE000EE60210FCFA0DDEE4F6FDF80AED0405DFF4FC030C
F40BFD11E8F701F4FBE20DF0E10215110E13F101F5FAE309E9E8011BF80B100601FFFF0C12F800060DFEF50AE9010EFE070EDBF1F1000205E9F001DE02FDFD0D
F705F719F710040208E80DF7E400090E0CFCFC03FBEFEC0DF7EA0305F1180F01F5F7F300080202061509E90301FBFE0304FDED07EEFF09FEEFFCFEE50BFE0B07
E5160120F420ED060BF4FFE8EDEA1106FCFEDBFDE0EEFB10EDE20217E80714010BFE10120BF70CF019FFD6E40BFC05FA0A07F6ECF2F70A0CEA0F11F00EFD221D
ED16F811F310EA040FF4E6E9F6F90F0D1A09F4FFEFF9FBFCFA000811EC030C061311071211F410EF16FEF5F9040508F8070BF6F6FA041A1EF2080801FDFF171A
FD0D030F0504F6F9F613F4F205FA081208FCF601F5F10109F5FB0802F5F5FD04FDFB050E0AFA0FF704FDFDF3010103050604FCFAFF01060BF60310140DF81014
03040504030503050302030005FD05FE0104FBFDFC05FFFC000204FF0300FD050501FDFE06FE02FBFCFEFFFDFA03060502010106FC0105FB00FBFFFB00040004
13F903F2FFFD0603070101F4060AF8ECEF090BFC08090B060106F9FD0800070609FBF9FDF000FBF0F4080D030FFAF80503F305041204F705F70406F90608FE00
F301FF01F50BF5FFF31100E5F80406090315FCFD08FAF8F9EDFFF8FE07F905040608F80BFB0504FB0BF5F5090603FCFFFAFBFE0300FD0DFDFC17FDFAEEF8FBFE
F80C1205EA18FBEDFA1AF3E2E2FF060D111FF3FBEF08DFD4DFFAEF12F5F5110F1401FE0D0AFE05E217E700F6030512110E0E07F306050D0BE915EFEFDBDBF409
010FFF06DC14E6E2E20CFFECF806050E1118FB02F90AF3F4DBF6F702FFFF14180FFD000715FD06EA13F507F80800120B1B0406E903050AFCEE16F7E7E2D8E205
FE09EC03D501E9E3CFF70A07FA0F0503F31F00FD12FD00FEE0FC02FF000C151906FC020409F8F5F616020302140408040C0A04E4100E0DEBF30CF3E5F1EAEDF9
0213F70AE700FDF2DCF50E04F404FD05DB1A040305FC05FAEEFCF710FD0E120806E6080318F4FFFC11070608050008030609FFE2010D0EFAF10BE8E8F9E8F905
F7150110EEF7FD04E3EE0801ED010906D810FFFA0608FFEEFB02E91A07FF0B000CF2080C11E305FD18030A0C01FF10F80D0CFCCE07FF1502F10DE1E0FFEF0312
F50AF70DFFFD0E0AEEED0A03EA030507E00CFB0206FA0BFC05F6EF0A03050A0311F70A0A06EE04FF1E0A010BFF0105090602F8CC19091901EE0BE4E701F01808
F701031502F7190703F112FEE6FC050AE70BF8FC08F8FDF9FEF7F106FFFD05020EEF06FFFFF502F719080309FDFDF60D0BFDEDD31B030DFFE80CECE5F9F21606
FBFCF7150CF30F121CF713FAE4FE0609EF0FF7F810F7FFFBFAF5E9080EF8FFFB1CF60800F5F4FEF41802FD04F9FEEE01FFF3E7CD150104FDE713E8FAF9FB1B01
F5F3F317160E0F1E1FF710F7E6FF0A12F108F7000FE8F5FFFDFCEE0F0C01F90214F5F608F1F5FAEF1AFFFB09F8FDF2F901F9EBD41F0008F5E515FA00F1FD11FB
FBF5F3160D15081222F80BFAF601060AE50BFFFB0AF5010502FAFE100FFCFAFA02FE0007F203FFF12107F508F700F6E803F7F9E11E0210EEEC140902F311FFF9
FAEEF6070311011016FB0F01FE0908FCEB0A06FA0BFF010A04FF02070F030302F5FE0905F40401001805FE0500FFF4EF03FD07EA1BFD06F5F90211F7F906F5FC
FBF008FF08150A051AF703FC15FE0306E9FF01FB08040BFAF9FEF91007F502FEF2090C06F90B03F31B0A020103FCF7F805000DFE1B000AFEF30D19FFF814F108
FAF704EF041612090DEF0A0105F61004E80702FB08FE02F1FB03041102FF0905FE030A080900FEFA17FC060D0C02F704F90A09030E0301FDF91606FDFC0DF508
01FA0EFCFF0F14F7F8EA08F608F900FEF006F7FDFCFB05EFFCFAF914F3FA0D0701FA010612FC0EF418F803F510FBF308F701090B02F704FF001CFFF9FF0BF40C
FFFA060304081CF8FBE40BFEF90006FAF905FA00F9FA04F2F5F9FC11FE010F0002ECFE060EFA01FF15F4FDF70F02F811F8FDFC12FE010404081CF6FC000FFF0E
05FE1018030E1EF8F8E30EF1F3FB0408FC01F700FAF8FDE4EBF3FD11F4FD180408F0080A1702F1F011F402F802FF01120408F300F5F604030018FC01F715F80C
03020C1101090FF6FBEB08F5EEF30704FE00F501FBFEF0F6F6F8FC09F00409FE12EA080310FFF4F907F9FAF0E6FE060B0805E2F9F5EE040CFC13FCF704050305
FC0C0F18FB0F09EFF5EC0CEDE2FC0401FA0CFB02FE04DFF9F8F7010FF9FD12010DDC000E0B04F9F903EFFD00DCFE0904040CE0FDF3F1F60AF206EEF3F606000E
F70E0819F10609F8F2F90EF3DCF810FAFC1600FF01FFE00001FAF919FC0210FA06DEFD150BF8FCFE09F0FA08E10004040313E5F7EAFFFE07EE08F2EFF7F8F503
F707FA0FEE0507F2F0F60FFCDC040802FC0DF5FE04F8E705F8F2FE0DFA0C18FC01E4FE0A12FDF50108F2F10CEFFFFB0BF609E4FBEF07010BF30BFCE4F8EFF906
F104F80EEB0309FBF1E907FAE2F61001030BF2F9F9F5E701F3EF0911F308180801F4011310F9FC0F0DF5F302F804FFFF000AE905EBFF0300F706FBE500EDFB0E
03050118EB1109FA07EF0A00E9F102050AFCEC02E7F4EE09F6F20B08DF160BFFF9FC04050903070C0A01E5ED0204FF000603F304EBF80406FE000DE917FB0607
F401FD22F61FF0FE13F90EFF00ECFC0800FCD1FBEEF9F718F6EA0505EB0F12FE03F80A010E020DFF1E05E4EA0406FE030602FD09F4F70309F8100DF00EF50805
F411FE0EF914F1061004EEF0FEF5050C1101F0FFF1F5FF0700F60612F7FD0203140E070C09F60EEC14FCF4F7070408F1090AF3F5FA00130FF9050805FC060D11
02F701030802FCF3FD0A04F90400F805FBF8F90000FB0903F8FE0908F50206FF02FA03FE0302FC030606FBFA0100FF0303F9FF0307FD02060403010BFE040C06
FAFE04060301FFF7F502FBFB04FA01FCFEF6F505FAFF050403FCFE06FFFF0BF8FDFFFFFF090109F70B07FCFA05FEFFFFFFFFFE04FEF7F908FA05010500090206
00190E0FFD030503F915F3E7FDFF090CFD0802FBEF0BEAF1F3FFF511FCFFFCFB0B090B061309F4EA0EFE02FC04FE0A0B1206020102FDFB16F00305FDFA09F61C
F11D11F9F819F9F6F50B08DAECF8070C0D1EF3FEFA02DBE2ED08F21CF4FF0C070E0408082000F9F41CEBF902FB0415061304FA0EFB0F031DEC0CFDFDE2F9FE23
F915150AF614F9E8F50EFFD6E0F10A131019EE03EC06E7DCE7FBEC1CF200100A22FF030D2AFA0CE616EAF9F305000919170AF4EFF5FD0512D720F1F9F1E6F824
F60C0619D812F2DEDF140DF6F6F70B080015EC01F601F8F5DDFAFB0AFA031C0B0FFDF9081D000BF60DFCF6FB14FBF9211104F4F5FA080EFFF314FBECF6E2F605
F708FD14DE02F2EBD50B0EFD00FB0602EF05F200FCF807FDF005FEFEF80B17070EF8F8FE16030CFA0601F3FF1B00FC120B07F6E6F40A12FAFE13F2F0FEE5FB03
FD16FE12E9F7F3F5E1061301F40503F3D913FE02FEF60700FD01F60A0314130310F10FF820F203FA020F010617FE00140D0AF9E5F90006F8FC04E5EF05EA0507
FA15F707E805FFFBDD041702E6050B06D50F030208FE0CFA0106F810060C0C0306F70B0615E404FC0B0E070B0FFA01140807FFE6010209FDF405DDE409E7070C
F207FD01F60003FBF0060DFFF1030F02D407010301F903F0FB02F410FD00100311FC030803F305FD0CFFFF0C0BFAFB2202FF0FEC0E0510F7EE0CDDEBFFF3100C
F1F8F4090405070600041506EEFA0D02DD07F8040EF701F70206F90D05080F0115FB010E03FF08F112FBF40803FEFC1701FC06E60F0619FBF20BDFF7FFF20F00
F7FFFF030A0A0F04130B17F8EDF40B08DC01F1FE0AF402FC0103FA0C07FA07F812FD000AFBF8FAEE1A07F8060301F60E03FBF6DC140512FEE60EE7FCFEF61408
FAF1FA04081E100C17F91401EEFD1000D90D010410F704F6FBFCF20517F800F711F9FC08F7FEFAF015FE0208FD02FA09F8FEF7F4110412F3E614F903EF0005FE
F4EDF50308200A0717F61BFEFF0009FEE30504FD16FD08FFFCFFFC0818F8FEF40704FD04EEFE02ED13FF000EF8FAF4FA030101F218030AF5EF180502FA0E05F9
F0F9F7FA0E190A0F10EE1DFD030112FDE00DFE020CFB0AFDFBFA061010F40200F4FB0D0CFD0600FA1003FC0DFDFAFFFA04010CF611FC0FF7F01505FAFB09F901
F3F20AF807180F0C0EEE1B05FFFB0AEADB0DF8020CFB07FCF9FB031A0BF808F6EFF10B100302FFEF14FE000701FAF5FF070108F811F60DFDF2150101F60CF400
F5F90CF509171C060FE917FBFEF708E1D20B02FC0B0308F402F40214FF000802FBEF040A040B02F40EFE05050EFEF7010005FF0409FC0BFDF51EF8FD000AFA05
FDFB08F7FE1B13FEFCEE10FBFFFB02E9E603FBFD02F900ECF9FCFB1400FC0B020AEE0302050203F403FD00F909FEF50AFD05080802FC0603F91FF7FAFB04FB06
FCFA1100040E15FF03E60EFFFBF908F4E50AF7FAFC00FFF1FFF3FD1800F915FC05E00515090502F903F502FBFD01F60AFA0CFBFEFAF00BF7F717E9F8F604FD04
0206131103121FF3FDEA0CF6EEFB0DFCEC04F400F4FFF4F1F4F9031CF6FD0EF606DB10131405FBEB08EFFDF5F1FA0215040EF206F7EB0C05FA10EE04F918FC07
FD081213FC0D0CFE00E404F4EEF903FDEF00FCFDF7FEE2F8F6F9FC15F0FA0BF60ED4080F0A01F8F906F2F6F2E404080B0A12EFF7F4EF0504F310E8F8F907FF0C
FA000420F30F1300F8ED0AF7EDF80AF9F405FC01F6F9DF06F7EAF913F20412F70BCFFF090E07040303EFF700E4FDFE0F0407E801E8F80906F911ECFCF8FF040A
F0FEFE1CF10B0F00F00005F8F8FB070C0404F802F4FBE10709ED0402EC08190007D4EE0D070604090CF0E804E8F9FB07050DECFEEA080003000DF3F8F8F5F703
F202F514ED1104F7F7F20FFCEDFF17090212F703FFF7DD04F3F2F912F3031C010DDEF9130900FC080BECF00FEEFB01FA0314EBFDEC120BFBF511F7ECF8EE0108
EC07F514EA16FD0003ED08FDEDF4120BFD18F0FDF2F1E002F8EFF812ED0C1A1706E4FD141405FF0D11EBF002FD0107F8FC12F512EE0D05FCF30700EDFFEA0306
F200FA1FEE18FDFC10F3FEF803E501FE06F0DC04EBE0F415F3E907F9DA16180C05FCFF01050A0F051BFFD8EB05FF020503FFF90FEAF90A0304110AF40CEB0401
F0FFFB1EF419F8F91A01080309E9020AF8FCE2FEF3FA001102F0F809F60E100BF5F7FE0513050A041704EDEF0604F700FBF5F90BEEFD05FEF605060000FC0505
01FAF80FF91CFCFE09FB07F1FF0A0016F40C0AFF04F0F308F5EEF10B030B05FA11F5EDF7FEF9F0F41606060D0600F7FBFCF9EFFF0D090BFDF00EFFFCF10A0503
0B0300FC04050803FFFD02F4FDFFFA0400FA06FD0504FFFD000401FC0807F5FF0408F5FAFFF604FAFE0103FCFF04030304F801060000FDFCFB0803FBF701FDFB
FDF705080202FDF9F90600F706FDFDFC0300FA05FFF50705FBFF0207F9010AFBFEF5FFFD080008F6090AFFF60105FA030701F6FBFCF8FF0100050A02FF060206
0B080C0803F9FF01FA0CF4F5F4FDF9FC05030300F507F9FD00F9FF09F3F407FD01F80D050DF9F9FBFB0502FA02FE0B0410F806010EF1F00CF9F102010006FD09
F71412FFF91FFCFDFA0807E6E2FF080B0A17F5FFFC05E5E7FB04F014FFFE05030402070F15FF01F313F40209080010FE0701F5FC000D0215EF0DF7F5F1FCF815
F210160FFF07F8F3ED080DEBE9F11009111FE7FEF608EDE7F4F9F71FEE08190F06FB07151E0900F808EB030405000C110708F703F1030716ED15F9F6EBF8071B
F60F0316EF13FAECF30E04F7EEFF110CF109F703F6FEFFF9E9F2FD0BED0B1C08FEFA0D131C050BFB10EFFDFE0AFD07210B0A02FEF2040708F2FDFDF1F9ECFC0D
FA090A21F310F1EFF61D09EBECED0EF9DE03F4FFEBF7F805F501F40EEC0E14F919F7010515F20EE80B0FF7F115FA02171A08FDF2F0EE0BFBFB11F5F601ED0316
FD12050DF1FAECFFF3170DFCE8FA06F4E509F703F9FFFD04000DF60D020E09FB11F408FC16F104FAF410FF0815FDFD0A1108F8F2F7FA02FE0C07E9F504E6030A
FD0EFE00F6FCF300F10D0B05EF070AF3E208FEFAFAFD08F9FE0DFD040B0E01070E0307F512F30BF6FE02FD060D020510110103FA00FF09020B01E5F206EA0209
F607F806F50801FDFD150A01F40201FDE402F7F9F901FD08FC09F905020605071FFF00030FF6FFF70503FE0101FE0112FEFDFEFA060609050210EEF203F6000C
F8FF0006F40FFDFD060E0E03F3FD08FEE306F7FDFFFBF802000AFC0E0C0908021D0B010D08F7FDFE0DFFFC0105F9F508FFFAF7FB09FF0CF9FA08EEF600FB0E06
F00104FB0209010604100E05FF040900EC0AFA0409FFFEF9FD09FE0B0E02040417000505FEFF01F70B01FE080200010600FD01FE0D050B00FD0CF60400010E06
FD00F9F3FD16020B0EFF1606F9FC04F2E01308F9170201F70107FC030FFC06FB09F6020802FAF60007010C0C0601FB0EFBFEFAFF080F0E00F60FED02FDFB0F04
FAF7F6EA0713040C16F41B07FD060CF3E60B0200170104FFF906010B12FAFC0204FC0301FA06F60303020611F900F7FFF4FFFAF915080CF4FB1BFB0303030BF5
F7FEFEF0100D090815EE1C0800FB02EDE215FCFC1D040A0201FFFC0914FB00FBF6F202FF0000FDFBFD0B06190304FFFBFDFBF8F211080BF6FF16FC02020104FC
04FB02F50B16140916F41B07FE0100DCD707FF000A01070DFFFB07090C030900FDE902F609000AFDF307050B06FAFC000700F5FD04070904FD1BFB09070700FA
03F70DFA0815180B09EE0E050201FDDFD2020AFA0D0003FEFEFD071003FD0700FDEF01FA0704FCFDF401040D08FCF402FDF5FDFF07FD0DFEF314F0FF04160203
09FD07FA0F131BFD02EA0B05020202E6E60908020500F8F401FA060F09030801F9F105FE0705FDFBFCF50002FFFEFF0900FEFD0203FC05F7EF14ED0DFA080005
0C030603080E11F9FEF0040101FD01E7E5020400FCFCF4F3FAF9FE0BF6FF0DFE02E3FFFD0402FDFAFBF8FFFFFCFAFC140602FBFB01FA08F7F315EB06FC050008
FC070B110C061CF909E701F4F80106ECE902F8FBF2FFEBF201F8FB15F4040CFD06D008FD130203F3FCF9F8F8F801FD0F020CEAFEFFF400FFF913E20CF60AFD06
FB0B121109151BFE08EF01F9F2F8FEF3F0050005F6FAE5F7FEF4FC15F4FB11FAFED4FC080C0DF8F3FBEDF5FAE6FD070F0910F0F9F4F901FCF613E10FEC0D0006
FD020419FA1A15FFF9E9FCF2FCEF03F8FD03F5FDEDFED9FFFFF5FD13DEF714F702CCFA110A06FEF706E2EC01DC04000B0513F003EE020603F80DE701F4FEFCFE
F0FF0815F30707FBF1FFFAFA00F60D04000AF7FEF7FDDAFB03FBF206EAFD130306D7F7070F1303FBFAE5F307E1FDFCFD0217F101E70CF90AFD0CE802F1FCFBFE
F504FB09E41102F9F7F405F7F3010AFE0315F4FA01FFE10102FBF105F0090E1006DBF90A1202FF06F6ECF907E6FBFFF10313FFFDF515040D020BF7F4F4F0F8F6
F7F5F910F013F5F20CFA0B09F7F90F05FC0AF90100EEED0B05FA07FFE7211321F7D9F804110F0C140CE6F601ED05F9FFFA0AFD0DEA1009030504FDFF05F0FBF7
F101F816F611E8F70BFA040A07F20A030BFEEE02FDF3000AFCFA0CF6E9180F1EFBF3FD00121605160EF1EAF50206FCF5F6FEFF0CEA1008FB030AF7050DF003FE
FC00FB140310F9FD14FA09080EE8030102FAE7FCFEFEFF0BFDFDF304F7130609FBF2FD000F08010513F8F3FD0604FCF8FAFFF705F207FD05050402FF040200F3
F7F8040C04FF00FE04020A000A0CF4FBECFCFC0501FCEC05F7F8F8FD03070F02F9F1EBFDFB04F1011309000B09FBFA05F4F6F804070905F8EE01F610EE12FCFD
03FEF803FC0604FB01FE07F908FFFD02FE0009010A06FB030303FFFF0409FBFA0709FEF7F5FC04F5FB01090603FD010102FAFD0304FFFE01F704FCFCF70901FE
0300FCFBFF010600FCFFFFFE06FFFE00FAFCFBFEFA050305FD0106FE00FBFEFB00FD01FBFE01FAFF00FB040206030503000202FDFC010500040506FFFDFFFEFA
05FF04FF00FB0203FEFDFCFDFEFF01FC060502030002FF020202FB06FE0506040303FEFA0300030206FEFC04FE06FE05010604FDFAFBFDFFFC0402020405FEFD
0D130BF6010F06FAF6F900F3F20FFE03F3100EFF0116F0EEF1EAF110FBF4120DF4ED0B0F0BF8F8F10A0313000A04141114FFFDFC12F9F809E9FFFAFBEBF80414
110102F0F412FAF5E4F7060AEF100508091B0E01150CE8EBE4F4F819F2F81C13ECE80D00130CF105FBEE0E0300FB0B1FFF01FC0A0612F60AEAF7F3EDE8010006
030D01FFFD1D00F5F508FF08DD140408EF090502040200F9E6E9030800FA1419E6EC0A0F050703FF0CFA030300FE042108F20614060D14FBECF0F4F6F4FD0208
FFFD0510F315F1F7F71603FBE30A06F9EEFF07F9F6F6000EEDF1F90BF8040603F7FB0202000105F10A07FCF50C00F91E0FF606100A010FF7F400E7FB02F70704
09080703F20FFAFA061902F8E30DFDEFFC030C04F6FBFB05FA02F8FCFFFDF9010F11FDF003EE01F6F80809020403FF1515EA070302FD15FFFE09E2F802F8FB0F
040A04EEF705F601061A00FAE607F1F2F7030F04F806FE070114F6FB0100000A1A1700F0FFE901FDEF010C080BFB04120AF20F0AFD070C020B05DFF901F8FD06
F908FCE5FA08F4FBFD110CFFFC0906FB001402FF07FAFDFDF909FD05100BFE0C180502F40BF4FFFEFFFA080D1101FA0FF7FFFF09FE0C09FF0E05EDF705F9080A
F40806F5FF0502070D0A0802F70DFBF6EC08FEFA0903F2050109FD03070FFD0D1A05FBFC02F6FB0305FD080B11FDFE0D01FCF6090B070EF9FC04F1FEFF02120D
0300FCF3FB0D0302050B0B00FD0BF6F3F2120B000904F904F50503FD050FFF131504F9FD07FAFC0BFC0A070E1101FE0CF7F8F61015120DFC01060108FD000E09
0007FEF20A0FFF080B060BFF0311FCF5EC0D03010C00FF03FFFEFB070C08001110FEF3F305FEFD01FB080A1113FEFF0202F8FF100A0B0D050210FE070405170B
FD040AFB110CFD0A18FC19050304F9EBE307FCF911FE0A06020301090C0902FC04F700F90BFDFE04FC0B080F0A05FD0105FDFC0506070907FB14020E04061202
01060EF11007FC1319001209FEFEFEE4E61104040B0C08FFFF0003100B020104F8ECFBEA06F7F903ED080B120CFE06070BF8F605FF050001FF10FB07020110FD
FF060CF910080B0C0EF50F030401F5E9E5080C00100409FD02FD03071008FFFFF9F1FBEA0906FE07F3070D1109FCFE06FFFDF90900050C00FB18F507FD0A09FE
08FC0FF8110D190D0FF30D000501F0E0E30A05FD0A0102FAFDFB000A030403F9F7F3FAF30409FFFDF4FC020905FE05080BF8F80100020203FD0DEE07070F0108
0AFE05FE150B12070AF2130A080BF3DEED0C05FC0CFDF4F90AFE0802000908FFF6F004F0140D0306F1FC080CFFFC020D03FEFE02020501FDF70CE918020600FA
03021303050412000AE20C020803F3DEF10801FA0007F0FA08FB0704FD060D02F6E500F4140C00F8EBF6FD0103FAFF0B0400F4F800040802FC0EEB0F0308F701
FA061C0A020A11FC08E901F9FBF7FBF1F411FDFC0410E2F003FDF712EFF305F601DA02F8150AFCF7EAF20AFDF703010B031101F6FC06000DFE02E214F50DF801
F7051407071006020EE8FBF906F605F5000DF403FC08E1EDFEFFF10AECF70BFBFCD9020A0C0E02FFEAE7FE03EFFBFE01FB19FDF7EE040C0C0108DF16EC0A030C
F00215090012030504E6FA0601EF0AF6F70EF4FDF800DAEE04FEF905DF001902F9CD060D14170B03F7D8F101E7FCFF05FF24FBFBE80F05060705ED0BF502F60A
E3000413ED03F4FDFCF6FB000DF10F06FE0AE8FCFD01E4F3090DEDFEE400120807D202091918140BF5E4F702ECFCF9F2F7280605E112FF15130BF3FDFEF0F5FF
EFFCF509ED0AE7F505F60506F6EE11FD040FECFE0402EC091209FC06F2191A1600E50A061C131A0DFCF4F6FEEC00F9F3FC1B0200EF100310050D03FE06E8F6FB
F7F6F3FAF70FE2F105FC1514FAE80FFD060EEC031201F21009FE08FDEC1B1C2AE9E606FF1E11121600F1F603F303FAF4FA130407F31102090FFE06F80BD5F8F1
07F8F30DF106ECEC04FF0E0DFBEC040109FBE2FA0304F812020304FFEA1D122AF5FB0AFB150EFE0C00FEF6F102FEEFF300FF0307F307FE06030703FE07EDFDF7
FDF6FF15F90BF5040DFB010401F6FBF9F60CF4FF0803FB0507F9F9F9FB10040DF8FAFB000B02FC0710F9FD080A00F0FAFFFE020BF90AFEFC0403F9F5F6FB07F1
F5F80410FF0700F7031003FFFFF9F104FCFFF7FFFCF8F207EEED06F9FAF810FDFAF5F0FCF705FAFB0E04F3FE0BFEF80604F0000905FE08F9F3FC0709F9FFFCFE
04FCFDFE000605FA03040202FF01FD05FCFDFC010003FBFE010206000505FC04FAFFFDFBFB04FB0500050000FF0500FE010406FB0604FEFF01FA02FCFCFAFB03
FF0104FAFEFE030401FA000100FD02FD0000FBFCFDFFFA030104FFFE0502FCFE05FE06FA00FF0005FE0303FF04FF0503FD00FDFB00FFFBFB01FCFB0501000106
030005FE05FDFFFC0401FFFE06FCFB0406FE02000602FCFB0201FFFBFB03FDFF05FAFC0601FB040400FC0302FC04FEFCFCFE0601FFFD0205FF00FE04FFFE0203
0A0509FB00080A000201FFFE0310F509F9F80E05F802FCFDFCFFFD07FCEC040301FD07FF0005F2F9050902EE07FE120A130003FB0CFC01FFF8F8F8FDFE030202
1B0302E7EF0C08F4F90FF809F920EDF8E6FF17FC0E0700F1EEF2FC02F3F2FE14EFF90EF2FAFAED01FFFE16F7FEFE0D1313F2120815FEF2FAFBEDFBF0F402EE09
290204F1EC2110F0F61CECF5F420EAFC01FA1805F71DFA01F6F400F300E3ED14FB0004F8EBF7F2F9FE0515E202FD131E1BE11F0F1EF80614FFF6FAE6F911E1FB
1EF7FEF0F521FEF0F62BEFFCF616E4070AE51202F00B0412F500F7F3F9E5EB03FC13F9EDE601FAF4011208E103FCFB1614D6141217F8030F06FDFCF70603F2F4
1A0200ECEC2104F2F51CEFFCEC11E8F50FF713FAF9080701FBFBF0F6F1EFF1000215FDE7EFEEF8F6FB0A0AEC0903001A13E314130BFC02FF02F8EDF20500F0FE
0E02F8DFED1E14E8E81DF401EF08EAF40BFE0DFF0503FF0508FFF3F7F8F6FC0B051408E0F3EDF802EFFA12F501FA011907F00F09000108FE02F9EFF70402EBFC
1101FDD5ED1A0DEEE40DFE0BF205F4F9050804020A07FF01FFFFFCF5FEFFFD081205FDE1FBF5F402F8000C030400050B01F40205040705FE05FCF8F90603F102
FEFBFFDA061C09F9FC080507FA05FBF0FB0B0DFF0FFBFFF7F8FEFC0004050A060A00F7E8FC02F60505FF0F090F04FE1005F1FC0A031005EA0102FB01F9000501
0AFB02E302110F00FE070207FC08EEF1FC060AFC0D0601FCFE05FBFD0106070905F5FBEE0702F012FA0817030EFA020DF9FD030CFF0405F500FE01FC07FC13FB
0C0E08F00A1405000BFAFF0AFB12F9E8EE0B11FC100304F901FCFCFC0700060B05F5FAF30101F312FB0A1B0F04010703FBFF0C15FD0904F90D010103FDFB1503
0809F9FB0118060C13F60C0BF10AF3E4E7190CFE0E0008FEF7F8FD0515140D0D05F3FCED0901F80BF90F1110070006FE05F4FF09F80500F2FE0AFAF4FEF219F8
0E0D01FA0811050E13F20A0CF313F3ECE81315FB18050AFCF4F105050D0A0B10F4EDFAEF06FFED11EC08190CFFFF0C0A0300FA10030809F4FC04FAF4FCF013FB
0808FBF307180C1011ED0304F412F5F7EB1115FE0F02FEFFF8F4FC050B070C11F4E9F9F50901F70AF6031614F30402081102F610FA090AFCFB06EFF9F5FF06F4
0803F9E9071610050DEF0906FD10F9F3EE0C0D021208010301F901010C060A0AF3F203F50609000BEC040A03F2FB06060B020409F40406FFFB06F0FEFCFDFEF2
050606EC050D0F02FDE60906FB0AF5EFED1309030C08F6F5FCFEFB0B07010808F7F706F41405FE12E6F50F0FF8020701040C0708F70FFFFCF8FAEFF7FBF8FDF4
FCF9FF01F71915FB06E307FB05FDF8F0F900F9FF0003F6FBFCF41004F5000508F60709ED1201FCFFEDFFFCFCF7FCFC0401090006FC050C06F700FE01FB06EFFB
F1FC0D0CFD110C080CE40F030AF907FD050FF80303FCF0F401F30007F20C120CF5F806F413060908F2ECF6FB0302EBFFF713F907F60714060008F90CF608ECFA
EEF51302090FFF0B1DECFD0904FE0AFE020CF7FE0707F5F40F03F803F40D120AE4E803F814181010EEEDF8FBF8FFECF2F214F601ED070A060EFAF114030A0004
F4F60502FF13EE020DF8021105F306030906ECFD0500F2FC0705FEFBEE130A19F4F20CF60D130B19E9EEF0FBF0FFEAF8EF1E0506E6130A0F0EFE0115FEFFFBFC
EBFBFE07FB05F9FE08EFF3FE06EFFF061204E7FBEFFEEEF60C050406EA07101BFAF60A0113111105FAEBEAF4F6FAF9FAF41B04FEEF0AFD110BF90E0F0404F803
EFFBF800FC11F6FD00F6FBFFFFF508071504F3FC03FBEC0B050002F8E80D0D21F9EAFD0808131011FCEFFCFDF901F506F615FB04EF14FE0F030D0E0F0202F6F9
F6F4FCF4F4FFE7F90102100707E90B0A150DE5001305F61D090402FFE819051EFFEA0B040F16110FFBEDFCFB00FCF303FA11010EF614FB080807100F06E7F5F8
F3FEEC09F40EF70417FC0DFF04F710070B12EA03FDFEFE1A01010E08FE15091CFBFA0513060311FA0CF8E4FBFAFBFD030C0B00F9FD060400F01400FAF7F10207
F80C030DFF1102050AFCF5F507EA0B0510FDFA05EAFFF5FDFD040004F1F2FCF90810010D08F413ED0F01F2FC070303F6110501F4FAF9030FF90D0B06F304080D
03080308FB0B0CF9FA03F6FEFFF803090100F503F1F603FDFDFCFF0AFDF608FB0107F30101FF08FA0300F8F80400FFF90CFF02FF01F6F60F01070A060009FF03
0300FE01010505FEFC0302FDFE02000202000404010204FEFF040003FBFEFD02FEFD030303FA05050005FAFBFEFE000504FA0402FCFA04FEFAFFFDFD05FAFC06
FAFDFAFB0504FFFCFB0102030601030005FC040203030303010405FE02FAFAFA04FF02FE04050000FA06010104FFFBFCFB02FA0206FB0104FDFC05FD0505FF04
0305FA050403040005FE0404FF0302FD0403FAFEFD03FB0302FD01FC0002020505060206FB03FF04FBFBFB010305FF01FD02FE03FA0200FBFDFDFC030106FEFD
0A0002FB06FFFFF1F7000700FAF90A010E0CF9040F060200FE01F903EF07070AFDF20F030608F9FD03FA0BF306000007F00AFE06FF08F00BF90A0800FF00FA02
03F2FEFF0008FC0EFD0EFD0DFB0EF2FFF8FCFFFD05F91006F90406F0050001060209EDF7F20A020A0305FA07FEFCF703F9ECF50704070AF70DFE00FF060403F9
16F8F407F0110C020114E908F80CFA090DF40F03F7FF04090404FEEBFEF3EE040A09FEF2ED060807FAFCFDF2F806030509F0130A11FD15FD04F4FDF50511EDF8
2BF9F1FCDD0C03F7F623F404F601F2F314F703FEFB1EFF090008FFF9E8EFEA110D0815EEF2F50101F7F711EC02FDF806FAF323150FF4040B050B0DF40301E6F5
150EF7E9E91709FCF403F600F1FFF1F709FD0500FC1B040207FAFE01EFF1FC16030917E505F8FF05F7FD0EECFB04FE0F0704110908F60200F7F7FDEEFC0EE40E
1E04FEE7DB241AEDF90FF107E7FFE4EF0BFA0C03FB19030208FD04FDEDEE070F05031EE406F2FB09EE0B0FE6F7050D0407F61BFAFFEF02FBFDE1FDEC0A04DA04
260B02E4D52D20EBF41BF507E507DEE909F30703F418160708F40307E9F0030D03061DD807F6FD04E91012E400010B1219F912FF06E20307F8D807F411FBD4F8
270EFFDFE92617F5FA0FEB0BF00BDCE901FA10000011100AFDF5FEF9EDF00C0EFB0010D7F9FEF60EF70016F0FFFA150E1AEF12FC05F204FAFDD808FB0EF9E802
230FFCD8F9180DF1FB00F819FB0AE9EF02031504121306F701FEF70003ED031CF1000CF3F307F223ECF120F8F7FE0D0F0CF81306FF09FFF50FE200F3FDF700FD
2110F9D6F61F0A000602F71DFA11EBF703021D060F170F03F9F602F701F30C19E70411F4F605FB21F5F815FFEFFB0A0A0BFF1407F9FE05FC08E508F404EBFDFC
1C10F5DBF32615F804FEFD0BF510E7F2F6001104FB15160CFBE70E0FF8F5161AE8FF1F000005FF13FA020BEDEEFB110C0C061205FFF21102FCE70BE603E8F0FE
0F0AF8E1F41814F701FDF614F00FF8FB060B0D04010D0E0CF5E70C07FC041615E40512F70601FF1DEEFF10F1EDFC060F0710041200F811FBFEE308E9FDE6F5ED
0208FBEFF11400090BF6FC130007F8F701020BFE010C110A06F308FFFD041113E30810FE090B0A22F0F706F1E6FD04020B0E0805F8FB0A0108D702F60BE6F3F6
01FFF6E4EE1E050409F3FE1FFF0CF9F9FD0D0B05050A0A0905EF1000FB0A1E19E60B0F020D0C0920EDF0FAFDE6FA00FF0A030906F6FD17FF01D403EFFEEDF2F4
0DFFEFEAED1C0F06FDEB0A19F804F8F6010507FC0D020C10FDEC1805030E1E24E7110DF40A031125F5F40103EAFC00000701040C0B021401F8D509E508F4EEF2
0501F1EFF01710FC0BE9141AFAFFFEF7FF0BFDFF05030B0500F01B08FC0E141FE40611F20A051327F8F5EFF9F5FAF9F7F2010A0FFD04150400D20AED09FAE6ED
FEF5FBF0F91111FD04F7FF200405F4F90204F9010C0B0809FCF219FCF2121614DA0714E60D151129F0F8F4FCF3FCEAF8F7020C16F2FE1EFC00E408F1060BE7E8
16F9F2E4EE1A17F0FCF50820F9FFE9F803FDF3000F050B1503F11909F2151B22DF051FDF07060A20EC03F9F8EFFBE5F8F8FD020800FE1303FDF613F41407E3EB
03F6F7EAFA100FF4FAF1011C01F4F60015F9EA05140906120B0011F7F7120F18F9FF16E80F0F0E1BE503EBF4FFFAE903F70F0906F701060F04010E040D04EFED
04EBEBF4F21516F5FAFBFC1C09FDF3030DF1F3FF00FC072300021EEBFF0D061DFB050BF507180C1CF3FBEDF4FA00E50DEBFB0409F905000404000E030B0FE9EA
02EBF7FAF41D1CF2EEFC080DF804F51105FBF70208EA0615F5EE17F406040D17EBF1FC07F013FF12FEF9EBF80001E618E8F9F41B0512FFF6F5F9FF0AF81BFAEA
FCEBFDF4F51006ECEAFE0B0D03FEFE181104F30419ECFD19F6F811F8FC130416EFF2F504EB15FA12F2F7FDFD0BFFF022F6FFFB1E001BFCF9FAFDFA10F3FDFDFB
FDEEF7FBFE070AEEF9FE0D17FC04EC070707020110F20B14F6F8100C0A160813F5F2000EF20BF511FCFBEC06FD06F215F2F4FE11000904F2F1FFFDFEF9FB05FA
FAFDFC0BFDFF01FDF6FCFEFA03FA010B0100F0FDF9F800FAFF0200FDF903FD050007FCFFFF0006FE0303F9FC010301030307F901FF02010AFA030E0000FD0603
02040105030904FFFD01F7FEFDFC01010102000100F6FA02FFFAF9FF06F805FF0704F90106FC04FF00FB020200040AFE0506FCF705FFFA09FA06FF00FC010106
03FF0602FFFC05FF0501FB040305FDFFFDFE04FAFD06FF000404050403FB0506FF01FD030504040001FCFF0600030504FBFDFBFC00FAFA04FA030606FD0405FB
FCFBFF01FD00FC05FBFB00FD040502FDFCFBFE0204FEFBFCFCFD03FC04FEFEFE040400FA0604FE06FAFF01FA00FDFCFC03FA0402FBFFFFFE05000500000303FA
FFFCFDFEFE0005040300FF02FD01FAFC04FC020201FE0300FE03FFFCFB0206FFFD010504FE0301FF02FD06FFFC0203FBFD020300FC0305FF02FF050001FD04FD
06FC04FDFEFB01FE03FCFF0001FBFF0105FF02FF0104FD02FFFB00FC00FC020400FE02000503FC0506FFFAFE000206FEFEFC04FBFBFF0200FAFF0000FEFA0104
01FAFAF9F8FE04F5F302FD000AF9030008F5FC0209040B08010309FDFA06FC04030B09FEFFFE0A04FEFD03F907FCFC03FA000505F9FC0501FFFB030704FBFDF2
07E8F4EEE71202E4E90F04080DF20F001608EDFB140A03FE0C1BFCF2ED0FF511130302F41607FB0C02F10BF91405F811EE11FE08F005EA0B111101FD03F8F5E0
0AEAF0F6E9FCF7EEE919060713EE04F21105EA040C0E02000B1500F1E30CFC0C05FE08F30900FF0EF6F304F40AFCEBF2E6120506F5FFF20919160BF406F3ECF1
19ECE6EBD8FFF2F4F124FC0C13F404F318FAEE010A1C090E1512FEF0E208F3120F0413F204010205F8F208F1FFFFF4F4ED0A1101F300ED0E1C0610EE12F0E4FA
21F8FBEEE31300F80314FA170AFA07EF09F8FB0100250F111E1202FBF305F30D140A22ED04020B0EF8FFFDE3F8FAF9FD0A1020EAF6F0010E0FED17F023F3E0FD
2AFDF7EEED0D0EFB0214F51B0CFE12F302EEFBFEFD2E161219120BF9F1F9F800151025F902FF1314FA05F8D7F9FB03FE0E0A1DE9F9E9091C18E019EE21FDEAEF
28F2E9F0E2050AEDF315F41A13FCF4ED09EA0501FE192223160411F2F3F7F312031922EC07FE151CF403F5D5F70500FD02FE21F0FDE4052511E61FF629FFE5E9
2BF1F2E9DB1907F0F31702120FF8F7EA0BF103FE0421161C11FE09FDF400FA1BFF122BEB04FB0717FE0203D5F6FC00FCF6FE1A0102EF011C09EA18E41EFDEFF3
26F9EAF0E71116F0F502081809040EF60A0003010709241D03F90EFAFC05FD1FF7071FF30102041FEF0D01E4EF05FEF9F9060B0007F5090F01E313DF0FFBFBF3
20EDE5EBE10808F6F302101D10FF0B0108FB04FE060E1B2303FF0FFA0312FC1DFA0122EE0801131EF305FDE6EE03EBFEFA0AFF080AF0100BFFF715DA0EF5FAE0
2CF5E2EFDA2213F5F3FCFB1BFF0605EB03F00106F8122821FE0016F6FB01F81AEC1226ECF803141BF30EFCD7DF06EFF4FF0810FD0DEC160D06DF0CDC1A02ECE1
2CEFE8E8D12704F9F50BFB2810FD00EA0FF1FC05FB1B292E0E091FF1EF04F622EE1B37D808F72526F10EF2CFEDFDEEED0B0019F202E30F1812D81DE12CF3DED7
23E8E4E0DA2415FAF914FB1E0E0300F60BF1FB00F70A262705EC21F3F1060517FB101FE106F71715F40EE0CFF7FBF5F80DFB0AFD0CEC191306CB16E21CF9E0E1
23EAF2E6E41A13EEF11D021D0202F7FB07EE0100FC162B2803FC1CFFF4050614F80A24E203020E18F50AE9D2FD04F6F9FCFD17F811F2091C00DE1AEB18F8F2E0
29F9EAFEEB0509F0030F05180300F6F406F1FD05F921301C10FD1CFEF20C0216EC0A2CE806FA1320FD09EFEDFBFCF2F105F717F80AEF061C07E414DE23F7EAEF
23F9EFF5E30E0FF5030CFA180300F0F006F20401F8121F2610FE1EFDF407FD17EF0E20E004F91817FA09E9ED02FEF1E901F512F305E5091A07E618E61C00EBEE
20FCDBEAE2111EF7130CEB130205F2F502E7FE01FA0C192314F728FCFD0BFC0DF31A19E1F4EE1D0BF612E3E8FC07EDEC04EA11ED08EC1D0AFAF213EB1B0CECE3
1EF6E7F5EF070BF60001031A01FAFB050FF4F40604050F270BF91BF2FE150619010219F104060B100202F5ECFEFDF1FC00020C07FDF7010B030A0EF314FEEAE9
17F2F2F0FB040EF5FC10F5170400F40008F602FFFC0313230BFE19E605000E10080F0EF308FD1017FEFCF1F8F7FEF506F5F4110303EFFA0E04FE0DF11504EDE9
14F8F8F0F80E1D01040FFF0AEF01F8F8F8F104FEF70513170CFA1BF4FFFC1208030606EC04EE0F0C010EF8F6F903F9FEFDEF08FF11F6F9000AF805F00915F6ED
0DFEF5FBFCF90A0F0602000E03FEFFF502F6FEFE02100F1012060906FA010503080D0CF301FA0F0AFC0504EFF005FAFF06FC08F508FEFB160AFD11FC1400FEFE
08FF01FE07FFFC070008030A12F8F2F50AF5F70503FEFE090811F6FDEF06FF09140909EF06F80008FD0807F00100FDFD010B04F0F7F8F40F0C000F010EFF08FD
05040504FB02FB040E0B05FF0009F904FAF30A00FFFA060900FD02F708FFFCF7FC02FEFFF3FE04FCFB06FCFBFD00FDFF0DF509FC09FF0CF800FFFFFD06FEFE03
050401FC0000FAFF0402FEFDFAFEFD0002FD0204040301FCFE01FDFA00FC0502FF02FC06FBFBFF03FB0002FDFE04FB0504FE01FC040305FCFE0500FFFE06FD06
060304FA04FF040303FFFEFCFE05FBFFFBFF02FE04FC0504FE03FB04FEFBFDFC020601FE00FFFC02FDFC020006FE00FEFE03FC05FF02FCFEFDFC02FC0505FEFC
05FDFCFAFF01FB03FCFEFDFD01FAFEFAFFFEFFFBFEFB03FDFEFAFD03FEFEFAFCFBFDFF01FDFDFF040301FA010205FF03FBFF00FF000401FDFAFE0602FF04FE00
FDFAFFFD0200FFFD01020200FE03FCFE02020002FBFBFEFF05050406FE05FEFAFF01000402050102FE01FEFAFC0401020205FB00FFFBFDFE04FD0201FC000603
FF010005FFFF020105FF060001FCFE03FB0105FD040300FDFDFFFFFAFBFCFF00FDFC06FC01FFFDFBFB02FD03FA0101FFFC0203FFFF0006FB00FEFD03FDFE02FC
FD040105FDFB0301FD05040002010202FEFFFA03FCFFFBFBFEFFFAFD05020601FD040001FB03FD0002FCFF0304FD04FCFAFF04FDFBFD04FE030502FE00020606
030FF91201FF0A1212FCF6F2F913F9FEF8EF13FEF0F5FF09F9EE0DEF07EEF7F4FE13F6FEEE030EF6FE0CF0FDF30505FB13EF080304FD12F8F601F6F3F8030508
0A10F60F020205080D03FBFFFF0DF4FEF2FE0C05F5010100FDF408EF0DF8F7FAFB06F5FCF7F900F8FC0DF705F7FEFC0206EBFFFD11F808F6F5F8F9F8010A040A
0609F90A01010505050DF804FD0103FBFFFFF903FF0A0E0E04FD0DEEF800F404FD0D05F8EB000901050FF6F5F2FDFA0515FB03F4FEFB100A02FA01F805FC0009
0B03F807F50D06040B12ED05FD05F9F905FCFDFD000F12080CFA0FFE0000F000020A0401E5FC1100FA0BF6F7F8FFFD060FFE13FA06FB0E0007FD04F80AFDFAFF
1407F1FDF71A0A0A090FED06FCFFFCF9FDFCF9FBFF0A07090EF711F2FCFFE80400090BFAE8FE0A07F90DFAFAF10100FB060306F708F50D04FFF905FA05FAF5F4
12FBEF00F62204FB010AF10BFE0002F907FB02FAFF09170F11010AEDF8FDF0FB01060DFC00FE0A06020CFDF2F8FA05050A0009F802F6090B05EB03F31804F6FA
1307E103EE240D0C1110F5090A08FAF5FBF1FFFCF0001B1D0AF51CEA0AFDFA0603170AF6F7F616050112E3EBF30107FE14F711F201E71909FDED10E61802F9FE
0A09E6FCFB250803FE06FF0F07FA040207F6FDFE01011E19FEF811F9FA06040004060EF902F8060CFD0BF1F2FCFF0EFF0906FCF601FA16FCF8FD0DEA07F8FDF5
06F8EAF6FE1E05FC050605100801040304FE00FDFE0A1E1A070009F7FAFEFD0902000F0001070D120206F8F30802FCFF0C0E04FDFFF7260706FC03F00EF900F4
0EFEEF00F326121E3204ED0DFD0801F7FAEA0E04F0081B130BF610F608F3F5EB060903F3ECEB1007F911E7E7F20002F60B0311F00EEE24FE01F400EC0F0DFCF7
2602E204DF1E02090B16FE1002FBF7EA09EAF904EF1A271F1E001EFB02FAF30608101CE606F12112FA1AE2D9FCFD09F20B030FE211E8171414EB11E522F8F9E4
1801EFFFF523000E0116FE0E08FFF9FA08F40003FB1A141F1FFE16F4F802F004041713EF0BF51914FD11F9EC01FF03060AF414F002F608100FE40EF51BFCF7F2
11FFF401F72B0C0A0F0FFD050701FDF703EE0D02F00F181D10FC0EF3FEFEE4FF020D09EFF2F80C07FD0DF5F0FDFD02FC07F30BED07ED060D03F00AFC1A0EF8F9
22FDECFBF6101E0C1A0DF406FF13FCF8F2EE16FFEE0D151A20FB1CED00F2C9F307150BEBEBEC1EFD0213EFF9F604FCF707FC20F00DEB1A0300F103F51316EFF4
1A06DDFBF8F515050B0DF90DFCFDFAE903EB05FDFB131617100815ED02F9E0EE061D0CE5F1F92209F60EF2EA00FA07F208FA19EB09EC0C120AED0AF81C02EEF1
